#version: 0.2 - Trained by `huggingface/tokenizers`
Ġ t
Ġ a
h e
i n
o u
r e
Ġ s
Ġt he
Ġ o
Ġ y
Ġy ou
Ġ c
e r
Ġ w
Ġ b
a t
Ġt o
o n
in g
Ġ f
i t
n d
Ġ p
Ġ m
o r
e s
i s
a n
Ġ d
l l
e n
l e
Ġa nd
Ġ in
Ġyou r
a r
Ġo f
Ġ h
e d
Ġt h
o m
Ġ l
i c
Ġ e
v e
a l
Ġ n
Ġb e
Ġ g
i on
s e
s t
o t
Ġ re
o w
a c
a y
e t
Ġo r
Ġo n
Ġ u
Ġ T
k e
Ġ is
en t
Ġ Ġ
Ġ it
Ġf or
l y
Ġh a
Ġ ,
i ll
Ġs t
i d
r o
Ġth at
i m
Ġ I
Ġc an
i g
it h
l d
c t
o o
Ġw ith
i f
Ġa re
u t
â Ģ
a s
v er
Ġa s
Ġa n
Ġw ill
he r
i r
ou t
a m
a ll
c h
a d
c e
Ġs h
Ġs u
i l
ig h
a ke
Ġn e
Ġw h
t er
Ġ he
at ion
o re
p e
Ġ A
Ġ r
Ġd o
Ġf r
Ġha ve
u r
Ġs e
Y ou
Ġc on
at e
an t
igh t
Ġ S
a in
ĠI f
g e
Ġe x
Ġ You
es s
Ġn ot
p p
om e
ĠT he
er s
a b
Ġa t
u l
Ġ le
ou ld
Ġp ro
âĢ Ļ
Ġc h
Ġs o
i ve
Ġa l
n t
Ġ if
Ġc om
Ġa b
q u
p le
Ġt r
u s
e l
es t
Ġm ay
ar t
e m
re s
Ġw e
Ġ C
u m
o l
Ġp l
id e
Ġl i
all y
Ġd e
i e
or t
k ing
Ġthe m
is t
Ġfr om
Ġw he
Ġ out
t her
Ġth is
a p
ĠT h
Ġf e
Ġ (
Ġ v
o s
e p
in d
ar d
Ġu p
oo d
u st
Ġ W
Ġ j
u re
g h
Ġ F
Ġ M
Ġsh ould
t h
Ġin t
Ġthe y
Ġne ed
' s
r ou
f e
Ġ D
Ġ P
on e
Ġw or
Ġb ut
s o
in e
Ġm ake
Ġc l
ac k
Ġli ke
Ġg et
Ġ k
Ġt im
Ġa d
' t
Ġa ll
u n
Ġm ore
i es
ĠTh is
m ent
Ġb y
i p
Ġ B
Ġo ther
Ġm o
a re
ac e
ic k
a nd
a st
ac t
Ġab out
o c
oo k
ou r
ic e
l p
Ġhe lp
u d
Ġs ome
Ġw ant
Ġu s
a ge
Ġc o
Ġan y
ion s
ac h
Ġu se
r y
Ġtim e
Ġal so
Ġt e
Ġs p
a g
č Ċ
Ġg o
Ġon e
i v
i le
Ġ "
. ,
i re
at er
ow n
p t
ab le
Ġ en
i b
Ġwhe n
on g
it y
res s
i z
Ġ im
Ġ H
ver y
Ġ O
Ġp r
Ġcon t
p l
i al
Ġint o
Ġa c
r a
Ġ 1
Ġin c
o d
re at
Ġm e
t ing
Ġ R
a u
ĠĠ ĠĠ
a k
Ġp e
Ġ âĢ
Ġs c
am e
it e
Ġthe ir
Ġsu re
v en
p er
Ġa pp
Ġ E
ou gh
Ġk n
Ġof f
Ġo ver
Ġb r
Ġd on
Ġ L
Ġwh at
a se
ĠI t
ing s
Ġf l
a il
Ġwor k
l f
h ing
Ġd is
c ess
or m
Ġp art
Ġ ke
Ġ qu
Ġp re
Ġad d
Ġh ow
Ġs pe
Ġw ay
o p
u e
Ġthe n
as s
ic h
Ġfe el
i ld
f ore
Ġ G
e ct
ĠI n
a v
Ġ U
Ġs m
' re
c k
o ple
Ġb l
an ce
nd s
o se
âĢ Ŀ
in k
b er
ĠĠ čĊ
ul t
d u
Ġre s
Ġw ater
Ġu n
ation s
Ġd own
Ġth an
Ġp ers
rou nd
Ġha s
ou nt
au se
ĠâĢ ľ
Ġpe ople
Ġwh ich
se lf
Ġg r
re e
ou s
Ġim p
re d
w ay
Ġp er
Ġb ack
Ġg ood
an s
an y
Ġpers on
Ġ ro
Ġbe fore
Ġf ind
it ion
o ve
Ġt ake
l es
ig n
Ġtr y
Ġex am
om et
Ġ N
Ġd r
Ġcom p
Ġf o
Ġd if
Ġre m
Ġp os
nd er
Ġd ay
Ġbe c
Ġa f
Ġwh o
a king
ĠF or
Ġke ep
Ġj ust
Ġb ot
Ġt w
Ġm ight
Ġbe t
in t
u ll
at ed
Ġs k
en s
a ve
Ġthe re
Ġa ct
o g
an g
Ġse e
Ġyour self
Ġp o
Ġkn ow
u b
Ġat t
he s
f t
Ġin st
Ġe m
he n
Ġl ook
Ġc he
Ġc le
Ġe ach
fe ct
ent s
Ġa g
ur n
rou gh
x t
l ud
fe re
Ġe ven
Ġa r
Ġ her
Ġp h
w e
Ġst r
i ly
ar y
g et
c es
f orm
Ġth rough
Ġwe ll
or s
Ġf ir
Ġ 2
ic al
Ġne w
Ġe very
Ġexam ple
Ġthe se
Ġfr ie
Ġw r
Ġre l
Ġs omet
Ġre c
Ġcon s
Ġs l
Ġm in
is e
Ġsu ch
t e
u ch
Ġon ly
Ġst art
Ġinc lud
Ġl ong
is h
on s
Ġb o
Ġch ild
ĠO n
en ce
Ġmo st
u ally
u p
on d
Ġto o
Ġa round
f ul
Ġtw o
v ing
Ġs he
or d
oo l
Ġus ing
at ing
w n
ib le
Ġha ir
Ġr ight
ĠB e
Ġu nder
c i
Ġto p
ll ow
. ;
er t
Ġe as
Ġt y
Ġb u
Ġfir st
Ġm uch
Ġs et
ul ar
Ġa v
t le
Ġsm all
' ll
Ġac c
ĠS t
, ,
Ġcom m
Ġc ol
b le
Ġs er
Ġwhe re
Ġdo es
Ġdif fere
ar k
Ġle t
Ġc ould
f f
e ver
t en
0 0
Ġb est
Ġsomet hing
ĠW hen
Ġl oc
Ġha nd
le ct
Ġdo g
iz e
ve l
e ad
Ġn o
od y
Ġs im
Ġf ood
al k
if ic
an ge
w ard
ou nd
Ġu nt
e ar
id er
Ġaf ter
Ġwh ile
ĠM ake
Ġpl ace
Ġm ed
Ġfor m
Ġh o
Ġre qu
Ġa m
o id
ot her
Ġre ad
ow s
Ġunt il
) .
p en
n er
Ġimp ort
Ġs ay
ow er
Ġg ive
Ġth ings
b s
al s
Ġo wn
Ġdiffere nt
n ing
Ġspe c
Ġpl ay
Ġd es
Ġin s
Ġimport ant
Ġl ist
Ġas k
ment s
Ġc r
Ġ 3
Ġ very
o y
Ġs y
re ad
d er
Ġbec ause
t s
Ġcle an
Ġc ar
oo se
Ġ K
it s
e re
ad e
Ġw as
v ent
n e
Ġw ould
ĠA s
Ġc re
on t
Ġb ody
Ġn um
Ġs ide
Ġin form
Ġm any
Ġs it
ĠYou r
Ġde c
ter n
Ġs ame
al th
ct ion
Ġfe w
Ġmin ut
l ine
Ġab le
u al
l ic
Ġe y
ĠU se
re n
Ġo pt
Ġg l
i x
ver s
ĠD o
i ous
Ġc are
Ġe nd
o st
i er
Ġse c
us h
ur ing
Ġc at
Ġp ut
Ġh ome
Ġl if
Ġcom ple
Ġsk in
Ġre g
ap er
m s
i et
Ġp ain
Ġpos s
Ġsu pp
at es
ĠW h
Ġc ut
Ġa p
a x
Ġc or
Ġl it
Ġinform ation
oc k
Ġ ve
j ect
y s
Ġo pen
Ġ ent
v es
Ġd et
a w
or y
Ġpro du
e ll
Ġg u
pe ct
Ġsome one
Ġpro v
Ġbe ing
at ive
ot h
Ġs ign
Ġinclud e
Ġus ed
Ġb re
Ġhe alth
i a
g g
Ġ -
Ġj o
Ġin d
Ġd ry
ar m
ak es
i ed
re en
ĠA l
h ip
Ġsu r
he d
ĠThe re
Ġof ten
Ġa way
Ġfo llow
Ġl ar
Ġminut es
ĠT o
Ġag ain
Ġh im
Ġh igh
Ġex per
at h
it ies
Ġbet ter
a ir
Ġgo ing
way s
en c
Ġit s
ĠD on
ĠH ow
r act
Ġare a
th ing
we en
ro p
ic t
Ġall ow
e k
Ġt reat
Ġp ay
Ġf in
en er
at her
ic ally
g in
Ġpro cess
g er
m e
in ess
ar n
Ġbet ween
Ġ J
em ber
Ġfrie nds
ĠT ry
Ġc all
Ġm et
Ġhe ad
ĠOn ce
Ġl ight
Ġpo int
Ġen ough
Ġr un
Ġl ess
Ġs a
at ch
Ġm ust
Ġp ur
ar s
Ġth ink
Ġan other
Ġbot h
Ġbe en
ĠC h
nd ing
n ess
Ġex t
Ġm an
Ġnum ber
Ġposs ible
Ġh ard
Ġp ie
Ġd ire
Ġl ot
Ġc ard
t y
Ġrequ ire
Ġex p
Ġsu b
ar ch
v ed
Ġre p
as h
er m
ĠThe se
Ġg reat
Ġf am
ic es
Ġin v
Ġam ount
r u
Ġ ide
Ġlit tle
Ġst ill
Ġb as
ĠS ome
Ġlike ly
is s
Ġdis c
ere st
Ġwith out
Ġb us
ou se
Ġmo ve
it ing
Ġpl an
ĠThe y
i ate
g r
ch ool
Ġst ore
Ġo il
Ġe l
) ,
Ġt urn
Ġc our
Ġto get
Ġtoget her
e ep
ie w
Ġc ur
Ġ ed
Ġav oid
Ġp aper
d d
Ġd uring
f er
I f
em s
f ort
Ġm aking
Ġh is
an k
t on
f fect
er c
Ġint erest
Ġle g
Ġlif e
Ġm on
Ġsh ow
Ġh our
Ġche ck
ĠP l
Ġth ough
Ġre st
Ġpro ble
il ity
Ġle ft
Ġc ome
Ġm us
Ġcol or
Ġn ame
Ġp ot
Ġfrie nd
v ice
a pe
Ġch ar
Ġ es
Ġs chool
Ġcomple te
i ence
Ġc ert
oo king
Ġc al
ct or
Ġcons ider
Ġwe ek
Ġqu est
an c
ci ally
Ġho ld
ain ing
Ġty p
Ġbot t
u res
Ġap pe
Ġe ffect
Ġf un
Ġp ress
Ġha pp
Ġor der
r ap
Ġst ud
Ġf ree
r ic
Ġst ate
Ġbe gin
Ġus ually
Ġst ep
or k
ent ly
Ġc ause
p s
are nt
in es
Ġo b
ou n
Ġin ter
Ġle ast
. "
id ent
Ġbe l
Ġty pe
le d
one y
Ġ V
l ing
Ġdoes n
Ġprodu ct
Ġon line
Ġbe h
Ġother s
ĠR e
ag es
Ġs al
ĠHow ever
Ġch oose
ra w
Ġ 4
Ġt est
Ġget ting
Ġm ind
Ġy ear
Ġrem ove
ull y
ĠA n
Ġcon f
pe cially
er g
Ġbott om
Ġ 5
Ġcont ain
Ġal ways
ant s
Ġro om
Ġle vel
ion al
Ġg ener
Ġte ll
Ġpro per
Ġpr ot
Ġcre ate
f ic
Ġw on
it her
Ġwor d
Ġp ass
Ġp res
c r
Ġdo ing
Ġc a
ab ly
ĠK eep
Â ł
Ġcl ass
Ġapp ly
t o
Ġtim es
Ġt alk
Ġbus iness
Ġth ose
ĠĠĠĠ ĠĠĠĠ
Ġth ree
at ur
Ġ, ,
l ess
ce pt
Ġcont act
et s
at ure
Ġre ally
y le
Ġfam ily
Ġv is
Ġdire ct
f ter
Ġch ange
' ve
Ġg iv
Ġspec ific
Ġsec ond
Ġt em
Ġne xt
Ġpro f
Ġlar ge
Ġwe ar
i ent
Ġdo ctor
Ġbu y
Ġl o
Ġd ist
oc us
Ġacc ount
Ġl ine
ar r
i or
Ġp arent
id es
Ġon ce
Ġp at
Ġinst ead
Ġs w
ĠS e
if y
Ġres p
Ġqu ick
en e
Ġes pecially
st and
os s
le ep
Ġst and
c c
Ġv ar
n ect
ac ter
u g
Ġex erc
Ġre t
Ġse lect
Ġb ook
ent ion
in ce
Ġso l
Ġd i
. âĢĿ
Ġc ase
at ter
Ġinc re
pp ing
Ġd am
en se
it ive
as es
i ke
Ġv al
Ġsupp ort
Ġf ile
Ġha ving
Ġbo x
ot s
Ġas s
Ġd one
Ġtr ans
Ġpre vent
Ġc up
i an
ĠR em
p ly
Ġa ir
Ġf il
Ġ1 0
Ġm oney
ail able
Ġpart ic
Ġf ace
b o
u es
Ġst ay
ĠThe n
ĠA fter
Ġm ade
Ġe ither
Ġrel ations
as on
g an
Ġg rou
s s
Ġcon d
Ġc ent
s ide
Ġact iv
ĠC l
Ġm ain
g th
ic s
gr am
Ġprov ide
Ġn ow
Ġloc al
Ġbre ak
Ġo ld
Ġbut ton
Ġrelations hip
ip s
Ġav ailable
Ġcl ick
Ġwe bs
Ġcl ose
Ġm ark
b r
Ġme ans
o ld
Ġco ll
t ed
Ġo pp
in s
im es
Ġpr act
Ġmon th
c om
ail s
ab les
Ġcomm on
Ġl aw
Ġwe ight
Ġsp r
Ġle ave
Ġcert ain
Ġres ult
Ġneed s
T he
Ġpro b
Ġco ver
pl oy
Ġle arn
pl ay
Ġcom fort
is k
Ġsc reen
Ġre du
Ġre f
fic ult
Ġbec ome
Ġday s
i ents
at s
Ġle ad
Ġsit u
Ġsh ort
Ġwhe ther
l o
Ġoff er
g ar
b e
Ġf ing
Ġe v
Ġl ay
Ġhour s
Ġsh o
ir c
Ġne cess
Ġdif ficult
Ġb all
el s
Ġph one
Ġ $
w are
Ġs n
Ġf ocus
Ġw ind
Ġcl ot
Ġey e
Ġh ot
Ġadd ition
Ġm en
Ġs leep
ac es
Ġc reat
Ġpro gram
Ġbr ing
Ġb it
Ġn atur
Ġp ol
Ġha nds
Ġcon nect
ĠT ake
Ġunder stand
Ġcle ar
am p
Ġme et
- -
Ġperson al
Ġappe ar
d e
Ġa ut
Ġb ow
Ġl ow
Ġse ver
Ġbu ild
m ed
al king
om s
av or
s ure
Ġw a
Ġopt ion
Ġsy m
read y
Ġexper ience
Ġc irc
Ġins ide
r ow
id s
Ġl ast
Ġm ix
Ġany thing
ir t
Ġb ig
Ġco st
Ġal ready
a le
c o
re t
ĠWh ile
Ġp ast
Ġquest ions
iz ed
v iew
al f
Ġcont ro
Ġpur ch
Ġchild ren
Ġfr ont
Ġcomp ut
Ġme an
Ġre al
Ġeas ier
i um
ĠA dd
Ġf ill
Ġem ploy
Ġb ed
Ġit ems
Ġgr ow
b ers
Ġst ick
ro ss
Ġjo b
Ġh ouse
Ġcon c
ut e
h od
Ġe qu
Ġde pe
Ġal ong
Ġte xt
ent ial
Ġsp ace
Ġreg ular
c hes
Ġm em
m er
Ġprob ably
Ġse arch
Ġc ook
Ġf act
Ġsm o
iet y
Ġar t
Ġf ull
Ġm akes
vel op
Ġt aking
qu e
Ġis s
Ġe ar
Ġsim ply
Ġpre p
Ġp age
Ġsever al
Ġs we
Ġre ce
{ \
Ġide a
Ġw arm
Ġhe at
Ġb ab
Ġe at
Ġwe re
ĠE x
Ġso ft
o on
Ġph ys
at or
Ġde p
Ġpos ition
ĠIn st
Ġch o
he re
Ġey es
ct ions
Ġel se
um p
pp er
Ġch ang
Ġf ound
Ġth in
c ial
ill s
Ġprof ess
Ġmet hod
Ġwr ite
Ġeas y
n ot
Ġ 6
Ġpo st
Ġst ress
w ork
Ġc ount
Ġdes ign
Ġb ene
Ġfo ld
Ġl ooking
im e
ut ion
Ġwh ite
Ġfollow ing
Ġmed ic
ou ch
Ġlong er
Ġb ag
Ġsy st
ward s
Ġs ize
Ġst op
ĠĠ Ġ
Ġp op
ĠD e
Ġspec ial
Ġsur f
Ġde f
Ġac cess
Ġext ra
Ġpie ce
Ġp ull
Ġrec om
Ġor gan
j oy
Ġm ater
Ġe t
ot e
Ġph ot
Ġrecom me
Ġatt ention
Ġne g
it ch
Ġ, ,,
Ġb reat
Ġadd ress
g es
m on
ĠM ost
Ġne ar
s ing
Ġp et
ter s
Ġcomp any
Ġapp lic
enc y
Ġg ame
Ġwor king
i o
Ġn ight
Ġcomput er
ĠE n
ap s
Ġbl ood
lo ad
Ġmater ial
Ġway s
Ġimp ro
Ġk ind
h y
ast ic
Ġde velop
Ġpartic ular
Ġprot ect
Ġcon vers
Ġl ower
nd ed
Ġke y
Ġtry ing
Ġl ove
am es
Ġexerc ise
Ġh alf
Ġcom b
Ġc ool
Ġm ot
Ġc red
Ġeas ily
Ġnecess ary
or ies
c um
Ġhealth y
Ġco p
Ġopt ions
ĠM any
Ġsl ow
Ġ ir
Ġr isk
ie ve
Ġcont in
Ġf it
Ġet c
Ġout side
Ġcomm un
ra ight
Ġd raw
ight ly
Ġre d
in al
as ed
av ing
Ġqu al
ir d
Ġread y
c ed
Ġp an
an ces
Ġm ess
as k
Ġad v
Ġdet erm
f ully
id d
Ġn orm
p r
i pe
Ġparent s
Ġd ate
i od
Ġfood s
ĠPl ace
um e
Ġcomplete ly
Ġpart ner
Ġcomfort able
ĠS h
Ġst raight
Ġl im
re nt
Ġwebs ite
Ġp ick
ar ing
s w
Ġen joy
Ġquick ly
u it
il ar
Ġagain st
c l
Ġfe et
Ġb le
ou ble
Ġan t
Ġbeh av
o or
Ġapp ro
Ġo cc
p h
pl ain
Ġword s
iv id
Ġca us
it ed
f l
Ġbab y
Ġis n
Ġcontro l
Ġb ar
Ġon to
Ġw all
Ġbow l
Ġb ad
Ġsa fe
Ġproble m
t ain
ie ld
Ġc ust
are d
Ġstr ong
Ġsym pt
Ġset ting
Ġab ove
Ġh or
ĠE ven
Ġrem o
Ġchar acter
u ck
Ġnatur al
Ġen sure
Ġfo ot
g le
Ġem ot
ol og
Ġme as
ire d
Ġf all
Ġdo cum
Ġpain t
i xt
Ġgrou p
Ġproble ms
se l
a z
u ff
Ġnot ice
ĠAs k
ate ly
Ġso cial
Ġsyst em
Ġsim ple
en gth
v oid
Ġne ver
Ġper iod
Ġpie ces
is hed
Ġwith in
Ġ ing
Ġsitu ation
Ġ i
Ġmus c
v ices
Ġsu n
Ġm ult
Ġf ast
Ġhelp s
Ġcour t
he ck
out h
it ions
ne y
Ġare as
ĠInst ead
Ġevery thing
Ġfeel ing
Ġwr iting
Ġd iet
Ġpract ice
Ġp ub
Ġ 8
Ġredu ce
Ġd rop
Ġan sw
Ġbl ack
ac ing
Ġw alk
r it
Ġse ction
med iate
Ġth ing
Ġd id
ĠL ook
Ġm il
Ġde al
Ġtem per
ĠC ons
en ing
Ġn ut
Ġper form
Ġcred it
w el
Ġs ing
ll ing
Ġpr om
Ġr ather
Ġs qu
Ġent ire
and s
u c
ĠCl ick
Ġf our
Ġde ep
res h
Ġinclud ing
Ġs our
Ġsurf ace
re ct
Ġdr ink
Ġre se
in ation
Ġeffect ive
Ġwork s
Ġg round
Ġsu gar
Ġact ually
Ġcent er
p ar
Ġve get
pp ed
Ġ ident
Ġrec ord
f r
e e
Ġsympt oms
Ġt ouch
ĠC om
Ġmus ic
Ġs ince
Ġpos itive
Ġmen u
ĠJ ust
Ġincre ase
ixt ure
e x
ast e
Ġwh y
i res
Ġb ase
Ġl ength
Ġe gg
ab ric
Ġn on
Ġbr ush
F or
Ġp ower
Ġp ict
Ġl ater
os ed
Ġ2 0
ĠRem ember
Ġwho le
Ġpl ant
Ġinst all
Ġh ig
Ġpress ure
Ġsc r
Ġsim ilar
us s
Ġim mediate
b ook
Ġm y
Ġf abric
Ġre ason
Ġcan not
Ġv ide
Ġconvers ation
Ġproduct s
Ġcom es
ro om
Ġd ress
Ġtyp es
Ġm ixture
ĠâĢ ĵ
Ġp ack
Ġto ol
Ġh um
Ġd ark
Ġan im
iv es
j ust
ĠA pp
Ġinv ol
ĠA t
Ġfeel ings
ch n
Ġin fect
Ġhe art
ĠAl so
Ġre ach
Ġ ess
Ġcust om
Ġsu c
Ġl ab
Ġare n
Ġde g
n ce
Ġex pect
Ġc ap
is ion
Ġre le
Ġrel ax
Ġpres ent
Ġing red
ain s
Ġ ver
Ġco ld
Ġcur rent
Ġdirect ly
Ġ3 0
Ġw ood
er n
Ġyear s
t he
Ġcor ner
u se
pe at
. .
Ġent er
Ġgl ass
on es
Ġinst ru
Ġ ic
ĠOn e
Ġst e
ip t
ĠL et
Ġmo ist
rop r
b it
Ġcre am
Ġbo ard
Ġse lf
Ġcond ition
ĠU n
d ay
Ġdam age
Ġp ort
Ġrem ember
Ġ 7
ĠG o
ĠG et
Ġfe ed
Ġaf fect
Ġen g
Ġprofess ional
ropr iate
Ġ est
Ġwind ow
Ġem ail
Ġhow ever
un ch
T h
Ġspe nd
Ġr ub
Ġpart y
f fe
ĠA void
id ence
Ġha d
Ġob ject
Ġth ick
Ġp ar
Ġac cept
bo ard
Ġimpro ve
in ed
r ing
Ġ =
idd le
Ġe lect
ore d
Ġw atch
Ġg ir
Ġh y
Ġret urn
w ise
ĠSt art
ĠN e
Ġb al
Ġd a
Ġc oun
Ġse par
Ġtreat ment
Ġc ell
em ent
v ious
Ġd el
Ġm atter
Ġl ive
Ġ z
Ġevery one
Ġe vent
Ġt able
Ġpl astic
Ġte chn
Ġg re
o ver
ens ive
w here
Ġsl ightly
Ġcol ors
Ġsh ape
Ġinst ance
Ġs ides
Ġm outh
ĠO r
Ġind ivid
Ġcon st
Ġte am
Ġb ro
ic le
Ġcor rect
Ġf re
d r
Ġs ound
Ġphys ical
Ġwas h
Ġr out
Ġf resh
00 0
l ike
Ġmo d
Ġf avor
Ġbene f
it es
Ġdeterm ine
ed s
Ġe ating
th ough
ĠTh at
Ġhe re
Ġfl ow
ist s
Ġpurch ase
Ġbehav ior
Ġm om
Ġser vice
Ġinc hes
Ġse em
Ġmed ical
Ġneg ative
Ġf ur
Ġlet ter
m it
ur t
h ol
ĠWh at
Ġh ang
av es
he ad
Ġbel ow
if t
Ġj ud
cr ib
Ġfl oor
Ġda ily
Ġnot e
ĠCons ider
Ġm iddle
Ġspr ay
Ġpre fer
he du
s h
r ies
if ied
Ġtyp ically
Ġt ape
Ġ1 5
p or
Ġloc ation
Ġen c
Ġtr aining
so ci
Ġapplic ation
re es
Ġgener al
ic king
Ġfl at
Ġf at
Ġatt or
ĠH e
st yle
ort un
Ġingred ients
it al
Ġpro ject
ĠF ind
Ġcall ed
Ġs ave
Ġst yle
Ġf ive
Ġansw er
Ġt alking
ĠS et
ack s
ort s
Ġrun ning
i que
Ġhig her
Ġt er
Ġmeas ure
, "
id ing
erg y
Ġimmediate ly
o f
ĠB ut
ic ate
Ġspe ak
um b
ĠC heck
ac her
ang u
Ġk it
ĠL e
Ġper fect
Ġsal t
Ġtemper ature
ation al
Ġb urn
Ġapp ropriate
Ġsuc cess
Ġg reen
Ġv iew
Ġf ish
r on
g ing
Ġv ol
as ing
ou nds
Ġclot hes
Ġnorm al
Ġab s
Ġw om
Ġse x
Ġm a
Ġchang es
Ġmonth s
Ġin j
ress ion
Ġthe rap
d is
Ġre pl
i ver
Ġrequire d
Ġpat tern
Ġcop y
Ġleg s
Ġbl ock
Ġf ield
is es
k es
Ġpart s
ĠC ont
Ġinv est
Ġval ue
e es
ĠP ro
Ġtr ust
Ġe ff
Ġmil k
b y
Ġon es
Ġa ge
Ġbot tle
Ġsk ills
Ġdec ide
Ġcontin ue
l s
Ġro ll
Ġte nd
Ġg ently
Ġsmall er
Ġactiv ities
Ġwor ld
l ight
r ib
Ġweek s
Ġopp ortun
Ġt ap
Ġ 9
ĠW ith
Ġin tern
if e
Ġj e
Ġar r
u nt
Ġl og
Ġc ou
se t
ie f
Ġdepe nding
co hol
Ġwa it
Ġcour se
Ġpub lic
Ġso on
Ġj u
e nd
Ġb ath
iv ing
Ġdown load
Ġresult s
Ġl ines
Ġte acher
er y
Ġgener ally
u pp
ĠN ot
ort h
re am
Ġl angu
Ġoff ice
Ġlar ger
Ġvar iety
Ġtr ave
Ġne ck
Ġad just
Ġse ll
Ġmo ving
Ġc ases
Ġser ious
hedu le
ent al
s p
Ġstud y
ĠĠĠĠĠĠĠĠ Ġ
Ġbas ed
Ġn ice
Ġbut ter
en ces
ra ft
Ġsmo oth
n g
Ġr a
Ġst ren
ol es
Ġl ink
Ġneed ed
w ord
I n
Ġsay ing
Ġ vers
Ġexper i
ĠP ut
au gh
ate ver
Ġstore s
c ent
f or
} }
Ġl oo
i ple
Ġex act
Ġiss ues
at o
Ġse nd
Ġch ance
Ġlook s
iz ing
Ġdisc uss
Ġbas ic
Ġfing ers
Ġp ow
Ġresp ons
z e
o int
gg est
Ġall ows
Ġ ice
Ġsecond s
Ġfor ward
ĠĠĠĠ ĠĠ
Ġed ge
Ġic on
Ġbr own
Ġc and
Ġ1 2
Ġw in
Ġaddition al
Ġa ud
Ġstr u
m ing
ĠBe fore
cr ipt
Ġsing le
Ġsomet imes
Ġd ig
Ġrese arch
Ġto wel
Ġac ross
o b
Ġbec om
Ġsol ution
ul es
Ġrece ive
is ing
c ing
Ġclean ing
Ġf ut
ag ing
Ġhelp ful
Ġbeh ind
ate g
Ġrequ est
ĠS o
Ġsp read
Ġme at
Ġlay er
Ġsh are
ĠâĢ Ķ
Ġhor se
Ġde vice
1 0
Ġvide o
Ġf ar
Ġor ig
Ġen ergy
ĠCh oose
Ġget s
w w
Ġdr ive
ag n
Ġcho ice
Ġn et
Ġim age
Ġre act
y c
is m
w h
Ġadd ing
et h
Ġmin im
ro du
Ġdo or
Ġhapp en
Ġattor ney
iz ation
Ġbl ue
Ġex cess
Ġ- -
S t
re w
as p
Ġpoint s
Ġveget ables
Ġgl ue
Ġ Y
Ġt akes
dis play
es e
" .
Ġso il
Ġmem bers
Ġg ar
Ġfut ure
Ġst ory
Ġcard s
ar ning
Ġhe av
Ġsp ot
Ġread ing
Ġto wards
display style
Ġdis play
Ġcont ract
Ġan x
j or
in ing
Ġt ax
Ġinterest ed
Ġf ig
Ġlangu age
Ġgiv ing
Ġar m
ur ance
Ġsu ggest
Ġp air
ĠT r
Ġs ong
Ġqual ity
n ers
l ish
Ġwr it
Ġm at
Ġli qu
Ġal cohol
Ġs ent
Ġpl ants
Ġactiv ity
Ġplay ing
a pp
Ġstep s
Ġfing er
Ġr ange
Ġs ense
Ġa ware
Ġd at
Ġcontain er
Ġlevel s
Ġfavor ite
er v
Ġslow ly
Ġe le
v ir
Ġs ens
Ġgo al
Ġsu m
pl es
Ġb ank
Ġas soci
Ġsec ure
ur y
Ġinstru ctions
Ġres pect
Ġt ask
Ġclot hing
Ġpl aces
Ġ our
Ġb aking
Ġt ight
ak en
Ġw ide
Ġcare ful
Ġl ose
Ġhand le
m ost
Ġkeep ing
Ġproper ty
d ing
am in
Ġcl oth
Ġsc hedule
Ġstart ing
ĠA nd
Ġvis it
Ġs and
Ġgiv en
Ġhapp y
omet imes
Ġf ore
Ġf ine
or n
id ed
ough ly
Ġdis e
Ġ '
Ġpot ential
p ort
Ġdog s
Ġin ch
Ġso ap
Ġsho es
ab ility
Ġh it
Ġmult iple
Ġsub ject
sel ves
Ġquest ion
âĢ Ķ
ĠO ther
ĠH ave
ĠA ll
Ġst ret
e red
ĠN ow
Ġl oss
Ġrep ort
Ġfre qu
Ġfr uit
ĠS p
ag ed
Ġdis h
Ġma jor
Ġcoll ect
r al
Ġocc ur
Ġwr ong
Ġser vices
g ress
n y
Ġfur ther
il ities
a h
Ġl ic
Ġmark et
Ġmo v
ul ate
er ing
Ġthough ts
Ġ x
Ġgo als
Ġas king
Ġthrough out
Ġresp ond
i ally
Ġear ly
Ġs au
Ġ ill
Ġp ush
Ġd ue
vir on
Ġcom pl
Ġproper ly
Ġw ire
Ġc ooking
Ġpr ice
Ġm or
Th is
Ġp in
ir th
Ġacc om
Ġb and
a im
un k
Ġbook s
Ġrecomme nded
. )
om at
Ġv ac
Ġfl u
Ġtr a
Ġre view
Ġle aves
Ġgr ad
ac ed
g n
Ġdet ails
Ġit em
Ġal one
Ġcal m
Ġch ick
ver t
ol ate
ĠB l
y m
ffe e
Ġex pl
st er
Ġm atch
Ġto t
Ġdocum ent
Ġmusc les
5 0
Ġve t
Ġk ids
ib ility
r ation
a id
Ġide as
, âĢĿ
r ight
Ġtr ack
Ġso d
Ġd iv
t t
Ġspe ed
Ġex c
a ut
ative ly
Ġs ite
ĠF r
Ġm ach
Ġen viron
er ve
Ġc am
ĠW ind
em pt
Ġm iss
ĠB y
ou d
Ġr ate
Ġcl os
Ġte eth
ĠU sing
Ġtr ad
n ow
Ġthin king
Ġkn own
Ġman age
m in
Ġpop ular
Ġe nds
Ġh ist
Ġgo es
Ġf u
b ing
ub e
ĠS ometimes
re me
Ġar ms
Ġad ult
Ġfil es
Ġt ables
ist ic
Ġenc our
ĠP e
pe nding
Ġwor ry
Ġho le
Ġsub st
Ġd em
Ġstand ard
Ġnot es
Ġs il
in se
Ġsu ff
Ġtr ain
Ġche m
g ed
Ġsign s
ent y
ĠTh ink
Ġr u
t op
led ge
Ġcare fully
Ġess ential
rap h
am m
Ġsepar ate
Ġ er
ĠS im
Ġw et
a f
Ġt erm
Ġthem selves
Ġpict ure
Ġcons ist
ific ation
Ġf ire
Ġl and
Ġg ot
Ġindivid ual
Ġform s
Ġstud ents
Ġte a
Ġrequ ires
Ġmed ium
Ġact ive
Ġrecomme nd
ĠS c
Ġa ch
p ose
Ġadd ed
or ing
Ġco ffee
ra id
le t
Ġju ice
o x
Ġab ility
Ġwear ing
Ġmess age
Ġprot e
Ġap art
Ġpr iv
Ġit self
Ġbreat h
Ġo p
Ġm ic
Ġu r
oo gle
Ġwh atever
Ġcou ple
Ġdr ug
Ġatt ract
Ġv o
Ġy e
Ġins urance
ĠSe lect
al ing
Ġprogram s
Ġident ify
et y
Ġw orth
Ġany one
Ġb irth
Ġm ar
Ġwom en
Ġw ish
Ġliqu id
ant ly
Ġu pper
ud e
Ġf ro
Ġin it
Ġto ward
Ġinfect ion
Ġaf f
Ġt en
an e
Ġmet al
Ġmain tain
ĠD r
ie nd
Ġsh ows
Ġt ank
Ġto oth
Ġfin ished
Ġmom ent
Ġle arning
Ġlist en
g o
Ġb ud
ore s
Ġrep res
in king
ro c
Ġmot ion
m an
il i
ile d
Ġf ight
Ġnum bers
Ġmedic ation
Ġi P
Ġsau ce
m iss
ĠA d
? "
Ġnut r
Ġwill ing
il ing
o k
Ġp upp
is ter
is ed
ĠF ace
Ġenviron ment
Ġm ist
Ġsm ell
ĠĠĠĠ ĠĠĠ
ĠWind ows
l er
og n
Ġde b
Ġfir m
at ures
Ġsu per
er al
Ġg ard
,, ,,
Ġgiv es
' d
Ġm el
oc olate
Ġbal ance
y ing
Ġfe e
ang er
Ġpow der
Ġfin ish
g round
Ġt aken
Ġcl aim
a ult
Ġcoll e
t ime
Ġjud ge
it ation
ul a
Ġpr int
Ġg ames
Ġsour ce
im ent
Ġorig inal
Ġl oose
Ġme al
Ġr ound
Ġsign ific
Ġact ion
Ġmaterial s
Ġdat a
Ġin fl
if f
Ġshe et
Ġo ven
Ġco de
Ġcat ch
Ġp en
Ġed ges
Ġth row
pe nd
ĠH ere
ed ing
Ġf ully
Ġfig ure
ens es
Ġst ain
Ġh urt
Ġ Â
ĠS ince
ĠP r
Ġmor ning
all en
Ġb atter
Ġser ve
ac hes
Ġir rit
Ġth or
Ġv ary
Ġf le
ĠAl though
un g
Ġd ouble
Ġcond itions
Ġt it
Ġter ms
Ġal tern
Ġha m
Ġco at
Ġr ules
Ġt ree
ens ion
ĠC ut
Ġo per
Ġte ach
im ate
y e
? âĢĿ
Ġb ird
Ġplay er
Ġprep ared
p ut
Ġt ar
Ġiss ue
ĠA r
Ġun less
Ġext reme
Ġb acter
Ġinter act
Ġput ting
Ġag re
Ġleg al
Ġc m
h or
Ġaut omat
Ġk ill
c ause
Ġegg s
Ġanx iety
Ġhe ar
Ġuse ful
Ġn ose
Ġcut ting
Ġar g
Ġfor get
Ġcommun ity
Ġswe et
Ġex plain
Ġ X
ĠW e
Ġt ab
Ġstret ch
Ġf air
Ġwr ap
Ġinclud es
Ġcont ent
Ġconc ern
ord ing
r ite
Ġst ir
Ġmedic ations
Ġwrit ten
i vers
ĠG oogle
Ġsc rew
Ġstren gth
Ġlim it
Ġch ocolate
enc il
Ġfl avor
Ġy og
p os
Ġfold er
Ġpre vious
Ġve h
y l
ĠFace book
Ġh on
ĠAn y
Ġloc ated
Ġsu it
ĠC on
Ġy et
Ġbr ain
ad s
Ġfin al
r ate
Ġev ents
Ġdise ase
Ġan n
Ġche st
Ġlaw s
Ġche ese
Ġstr ing
I t
ac king
Ġcomp an
Ġfin anc
is hing
Ġappro ach
v al
1 2
ac hed
Ġkn ife
Ġs ix
Ġmed ia
ar ily
Ġminut e
Ġold er
Ġpass word
ĠN ote
Ġo k
Ġdeg rees
Ġcost s
âĢ ĵ
ĠH old
Ġheav y
p ro
Ġh arm
Ġtr ue
Ġapply ing
Ġfun ction
Ġcom ing
am s
Ġdocum ents
Ġnot hing
Ġj ump
Ġexp ensive
Ġpl enty
Ġopportun ity
Ġse ason
Ġtables p
Ġch allen
cript ion
Ġdire ction
Ġcar ry
Ġse eds
Ġan g
Ġint rodu
ĠU S
ĠRem ove
Ġtr ouble
Ġapp l
Ġg ain
Ġm ember
Ġparticular ly
ul ation
Ġcal c
Ġlaw y
Ġsp ouse
Ġdec or
ĠRe peat
c er
Ġrout ine
Ġc ross
Ġthough t
Ġtrave l
Ġmake up
Ġbreat hing
Ġregular ly
Ã ©
s y
ure d
Ġac id
ition al
Ġal most
i pping
Ġoff ic
Ġdist ract
est s
Ġsa f
ur ity
u its
Ġprote in
Ġw alking
Ġanim al
er a
Ġsw itch
Ġm ass
Ġt aste
Ġatt ach
Ġhold ing
Ġhist ory
ain t
Ġst at
iz z
Ġ +
as ons
ar p
Ġchick en
Ġsqu are
he t
Ġv it
/ /
Ġ {
Ġchem ical
Ġcirc le
Ġatt empt
b all
Ġbenef its
Ġtrans fer
ĠI s
Ġloc k
Ġsp l
Ġeffect s
Ġphot o
Ġlot s
Ġmach ine
Ġde fe
c ut
Ġ 0
ĠE ach
Ġinter view
Ġth ird
ict ion
Ġtot al
ro ll
Ġcoun ter
Ġcr it
il t
Ġpre gn
our n
Ġde ad
Ġf ac
Ġli p
Ġdec ision
in ate
Ġexp ress
Ġind ic
i est
Ġst ates
Ġin f
Ġsh op
Ġprep are
mer ic
ĠA llow
an n
Ġsetting s
Ġcreat ing
Ġg en
d o
o ons
Ġbl ank
Ġsupp le
Ġev idence
ast er
ĠDe pending
fere nce
Ġed uc
Ġphot os
Ġn ail
ĠT y
Ġvo ice
Ġp le
Ġcal ories
Ġbuild ing
Ġb at
ac y
ĠS m
ve re
Ġbel ieve
Ġsay s
Ġst om
b on
Ġir on
Ġemot ions
Ġsitu ations
ĠAl ways
Ġexperi enc
f it
Ġgrou ps
ĠG ive
Ġpr in
s es
Ġrepres ent
Ġc ake
Ġm ental
Ġm ail
Ġr ab
Ġsk ill
ĠT alk
Ġa head
Ġpr ior
Ġv ine
us hing
iz es
i k
r or
Ġtr ick
1 5
Ġh oles
Ġopp os
Ġfinanc ial
Ġpr im
ide red
Ġreg ard
Ġgo ld
re ci
Ġexact ly
Ġass ist
â Ī
Ġwebs ites
Ġcomm it
Ġmeet ing
ĠN o
: //
Ġte asp
-- --
ru pt
Ġqu ite
_ _
h and
anc y
Ġp our
Ġre fer
Ġwant s
Ġfr ame
ĠE very
Ġcom plain
ĠT ap
Ġcompan ies
ĠD is
Ġsh ower
ĠR es
ĠF l
ĠApp ly
anc ed
r ig
Ġopen ing
Ġrem ain
Ġd anger
Ġinc ome
ĠPe ople
Ġ Q
c hed
Ġcomp et
Ġremo ved
W h
Ġsa id
igh ter
art ment
Ġrele ase
Ġcons idered
Ġr ad
Ġbr ows
Ġmean ing
Ġshould n
d own
Ġstom ach
Ġ1 00
ĠBe cause
Ġst ock
Ġex ist
n ces
Ġtar get
Ġok ay
f act
Ġsit es
olog y
o ll
im ately
s c
Ġf ix
Ġw ed
Ġconf ident
Ġad vice
l t
ear ch
Ġclass es
o llow
Ġd ough
2 0
i qu
Ġbacter ia
Ġc e
Ġwe b
um ent
Ġchar ge
Ġre peat
it or
Ġdes crib
B e
ord er
Ġfor ce
Ġinvol ved
Ġper cent
am ple
Ġgir l
Ġlo an
et er
Ġencour age
ion ally
Ġplay ers
Ġpro ced
Ġt ip
ang le
" ,
Ġmusc le
Ġc ot
Ġcount ry
Ġres our
Ġex te
Ġthor oughly
Ġgard en
ato es
Ġb read
Ġrec ogn
Ġdeg ree
Ġn ames
ĠNe w
Ġflow ers
Ġbegin ning
Ġh ook
Ġro ck
Ġcontain s
Ġle aving
Ġd irt
Ġre asons
Ġli ving
Ġlawy er
ĠG r
Ġr ib
Ġp encil
Ġst uff
Ġsaf ety
Ġfeel s
h aps
Ġfast er
ic les
hy dr
Ġgu ide
ir m
Ġsod a
ay s
ĠAn other
Ġr ing
Ġvine gar
Ġcaus es
o pt
Ġnet work
Ġautomat ically
ce ed
ct ure
Ġo bs
Ġe ver
M ake
Ġpict ures
it ter
Ġeff ort
Ġanim als
Ġpay ment
Ġrequire ments
g en
h one
b ack
Ġcat s
in ue
Ġbecom es
ĠT w
Ġye llow
Ġeven ly
ar ian
Ġm ood
ĠR ead
un e
c on
Ġto ne
Ġbr ight
ĠS he
Ġtr ig
Ġbuy ing
Ġpre t
ad es
Ġtw ice
Ġabs or
Ġhe ight
Ġback ground
Ġp ill
Ġt ail
Ġdes ired
ver age
re l
Ġcar r
Ġl ate
Ġass ign
u nd
Ġf urn
c ome
Ġprodu ce
Ġh tt
Ġfl our
Ġsour ces
Ġf ib
Ġgrow th
Ġcup s
Ġcommun ic
Ġle mon
Ġlo ved
Ġrel ated
Ġre nt
Ġatt ack
Ġem b
ĠCh r
Ġ /
ĠEn g
ĠT urn
iz er
Ġaut hor
Ġach ieve
ĠW rite
Ġvar ious
Ġ .
Ġb ul
Ġvers ion
Ġr inse
Ġtr ip
Ġun com
amp oo
Ġa w
Ġan gle
Ġtop ic
Ġdist ance
Ġother wise
Ġbro k
Ġtit le
Ġme als
Ġr id
ve red
Ġup d
o ves
Ġagre ement
Ġrem ind
Ġb ond
Ġveh icle
ĠP re
Ġbenef it
Ġb ur
ĠT V
ĠS l
Ġmov ie
yc le
Ġstate ment
Ġover all
Ġjo int
Ġknow ledge
Ġfind ing
Ġaf raid
Ġdes k
Ġemot ional
Ġide al
Ġsh own
iv ed
Ġas ide
Ġprom pt
Ġim m
Ġcam era
Ġapp reci
ip ment
Ġt ick
Ġth read
Ġdr ain
Ġw ax
at ory
Ġhon est
en ed
Ġun ique
c m
Ġtool s
on y
Ġd in
Ġfrequ ently
Ġmoist ure
Ġs ess
Ġco vered
Ġt ie
Ġacc ur
Ġtherap y
Ġve ter
ĠA meric
h old
Ġsoft ware
Ġocc as
Ġpupp y
Ġm arr
Ġpur pose
a it
a ur
Ġso ak
Ġr ice
Ġinj ury
Ġf acing
Ġsit ting
Ġexerc ises
Ġn ails
Ġcot ton
ĠIn c
Ġacc ording
Ġshould er
Ġsh irt
Ġm ag
ĠT e
Ġbe aut
ĠO pen
Ġlif t
Ġest ab
Ġfe es
Ġv i
Ġse ems
ĠP ress
3 0
Ġf ail
ĠAl tern
um s
ĠSe e
Ġsp oon
ib ly
Ġfe ar
Ġlist ed
ili ar
Ġte en
Ġst y
ĠIn tern
Ġdo ll
Ġcons um
Ġto r
ĠB r
Ġdesign ed
od e
Ġop in
ar ies
igh b
Ġoil s
ic y
Ġtr im
Ġpl ate
Ġse vere
Ġnatur ally
ent ially
Ġr ot
Ġs ounds
Ġsh ampoo
u ate
Ġemploy ees
ĠPl ay
Ġw id
Ġem erg
Ġstart s
Ġd est
Ġqu iet
Ġru le
Ġcl ub
Ġsol id
Ġcustom ers
Ġstr ip
Ġmay be
on se
Ġimp act
Ġpret ty
Ġequ ipment
You r
a ff
Ġfr uits
Ġth umb
Ġhe aring
Ġsh ap
Ġport ion
er k
Ġsal es
Ġstart ed
ir st
Ġne ighb
os p
c hen
f ree
Ġd en
um n
Ġmo der
Ġinterest ing
ĠA re
Ġinterest s
Ġcreat ed
ĠM e
Ġs ort
bo x
Ġli ps
it ure
Ġaud ience
Ġg ent
Ġsp orts
Ġhard er
Ġdr inking
Ġcustom er
Ġbud get
Ġdec re
ĠM ay
Ġm other
Ġc as
ĠB u
Ġdepe nd
Ġins ert
Ġyou ng
ap h
Ġl id
fr iend
Ġdiffere nce
Ġto ys
ver n
b its
il es
Ġcolle ge
Ġpriv ate
Ġup set
Ġr ow
he ther
Ġc ity
Ġcaus ed
ĠLe ave
Ġveter in
Ġoppos ite
Ġlab el
Ġd ust
oo p
Ġho st
ĠT ell
d om
re ate
Ġs at
Ġappear ance
or por
Ġref lect
ic ed
Ġcont rib
b al
ĠH aving
Ġc age
Ġwe ak
Ġb oo
ĠEn ter
ic ing
Ġdr ag
h ood
Ġresp onse
Ġlic ense
Ġsome where
Ġstud ent
Ġp al
Ġc ult
Ġpro gress
Ġloo p
Ġsee k
v ant
Ġ5 0
ag er
Ġpl ans
unt e
Ġpast e
Ġscr ub
Ġth r
Ġus es
Ġwe ather
Ġs av
Ġextreme ly
ĠF ollow
at ic
Ġcons ult
Ġex h
Ġsupp l
Ġsh arp
Ġrem aining
Ġmoist ur
Ġj ourn
sy ch
Ġp ink
Ġform at
Ġbre ast
Ġmod el
Ġcaus ing
Ġeng ine
Ġst itch
w ing
Ġg ra
iv ity
Ġnorm ally
T ry
Ġro ot
Ġplan ning
Ġkit chen
ĠP h
ĠCont inue
Ġsignific ant
Ġc amp
Ġmethod s
Ġact ions
Ġintern et
H ow
Ġsw im
Ġhum an
Ġse ctions
Ġtest s
Ġp ark
Ġ2 4
Ġdef in
Ġrepl ace
Ġadv ant
rig er
Ġref riger
ir ing
Ġfurn iture
D o
Ġl a
Ġorgan ization
Ġask ed
ce ll
Ġb i
Ġstand ing
ly ing
Ġwor se
Ġe arn
air s
Ġrelationship s
Ġag ree
Ġteasp oon
ĠBe ing
ĠDo ing
ĠSe c
Ġey el
Ġuncom fort
Ġhelp ing
ĠA g
Ġp ad
at ors
Ġc ash
ir ty
Ġrec ip
st r
Ġprov ided
ĠN ever
Ġhapp ens
on ent
Ġg e
Ġassoci ated
Ġemploy ee
Ġgent le
Ġart icle
ĠM ix
Ġpat ient
2 5
Ġwas hing
Ġg as
Ġser ving
Ġdrop s
he l
z z
Ġsm ile
Ġunderstand ing
Ġdid n
t ies
Ġw ipe
Ġshould ers
Ġsub mit
Ġ1 8
Ġbo y
Ġf em
Ġdep ression
Ġm ax
Ġdi agn
Ġpay ing
Ġm is
Ġall erg
Ġapp oint
Ġuncomfort able
Ġl ost
Ġdin ner
i ation
que e
Ġd om
ard s
oo sing
Ġprov ides
Ġcho ices
A s
Ġm ask
Ġsh ot
os ure
os ing
Ġad vert
Ġspe nding
Ġj ack
s pect
Ġpl aced
Ġto m
ĠP ay
ter m
Ġbre ed
u ing
ĠF ill
Ġup on
Ġas se
Ġrecord s
Ġstru gg
Ġtherap ist
Ġwork out
ic ient
Ġc raft
Ġpartic ip
Ġresour ces
ĠI m
all ow
Ġbo il
T o
ĠG ener
b les
in er
Ġres ist
Ġp ig
miss ion
it ude
Ġcharacter s
n am
Ġinit ial
Ġman u
Ġ Z
ger y
Ġp ath
us es
Ġt iss
Ġgu id
id ge
Ġf ed
Ġremo ving
Ġgo vern
Ġp aid
Ġim ag
ous ly
Ġmot iv
n ight
Ġbas is
Ġch ances
in ch
ron ic
ĠW hether
Ġshe l
Ġcare er
os is
Ġbl og
Ġbut t
Ġt ur
Ġan al
Ġvi ol
Ġc ateg
ĠW ork
Ġoff ers
Ġdeb t
Ġequ al
Ġrub ber
Ġfle x
Ġt ips
Ġad opt
i ot
Ġn arr
i pped
Ġb ra
el t
Ġlet ters
ĠTh ough
Ġrab bit
Ġsl ide
Ġli br
Ġra ise
Ġu t
Ġc oc
Ġtask s
Ġte le
Ġchang ing
t r
Ġm ild
Ġind icate
Ġs ad
Ġneed le
Ġjo in
us ed
Ġe ars
Ġle an
ĠF e
Ġlo ad
Ġcomple ted
st ick
ro id
ure r
Ġo l
Ġsho ot
Ġu nd
Â °
i ans
ir ts
a iled
Ġconf idence
ĠP our
in y
a res
Ġappe ars
Ġob vious
Ġk id
e y
Ġfe atures
Ġ ign
Ġclean er
ast ing
ive ly
Ġbe ans
Ġun c
i age
Ġpe pper
Ġmove ment
Ġreg ist
p an
Ġse en
ne ath
Ġemerg ency
Ġp ump
Ġkn ees
b ased
Ġstr ateg
Ġmo ld
Ġh ide
Ġm ir
le te
Ġrest aur
b ody
Ġg ift
ĠEng lish
ash ion
Ġres ol
ting s
Ġre pe
Ġg un
p et
Ġb oss
Ġconnect ion
Ġdanger ous
Ġamount s
Ġha bit
Ġspecific ally
fere nces
i able
Ġse al
pt y
ab et
Ġr at
^ {
Ġatt end
Ġgrow ing
Ġant i
Ġform ula
Ġsur round
ĠM ed
Ġallow ing
Ġtr ial
Ġad min
Ġphot og
Ġbrows er
Ġsp in
Ġmanu fact
ĠSt ir
Ġs ou
iqu es
Ġspe aking
Ġas pect
W hen
is on
ap ers
Ġj ar
Ġto w
Ġne ut
ĠOn ly
Ġabsor b
Ġp ants
Ġpattern s
Ġ â
l ock
Ġint e
ĠS k
ert ain
c king
Ġeas iest
Ġso ck
o pe
ĠP er
Ġconnect ed
ĠW ear
a pping
Ġshow ing
ww w
Ġacc ident
Ġtrad itional
Ġa verage
Ġlist ening
Ġtr i
Ġbath room
Ġex cept
Ġact ual
Ġre ward
ĠE m
Ġboo st
ite ly
i pp
Ġunder neath
ill ed
Ġw it
um ps
Ġro ots
Ġfil ter
Ġha ven
Ġst age
Ġemploy er
Ġgu y
Ġp sych
Ġd ed
Ġd ial
Ġag ent
Ġconc ent
Ġd ye
d y
is ions
Ġfam iliar
Ġpl acing
Ġl augh
Ġle ather
r ict
y st
oun ce
Ġadv ance
Ġaccom pl
Ġlet ting
Ġste am
du ct
Ġro le
Ġbu ck
Ġim ages
Ġw ine
Ġa im
Ġobject s
s uch
Ġin se
Ġcomplain t
Ġje wel
Ġlight s
Ġbecom ing
le an
Ġany where
Ġdr ied
ĠIntern et
Ġvol unte
Ġbl ow
u als
Ġdefe nd
Ġtechn ique
Ġvol ume
Ġgu ests
Ġsuccess ful
ĠS pe
Ġnew s
Ġt ub
Ġc ra
Ġsupp ly
Ġadvant age
z er
Ġcomm and
Ġsur pr
Ġsec urity
Ġbr and
Ġsur gery
Ġappro x
' m
Ġm ap
Ġsp ir
ic ated
Ġwed ding
as hes
Ġtell ing
lud e
Ġde vices
Ġre ct
ĠL ear
Ġsc ore
Ġtw ist
Ġs ick
Ġlay ers
Ġsum mer
Ġje ans
6 0
ĠB ring
Ġminim um
e ch
as c
Ġel im
Ġsp ots
Ġr om
Ġpersonal ity
Ġb ub
ff ic
Ġschool s
Ġpo or
Ġjourn al
Ġwin ter
Ġcan cer
Ġr are
Ġb an
Ġdrink s
Ġbag s
Ġm ention
Ġclear ly
Ġli kes
Ġpart ies
Ġcreat ive
at t
Ġfil ing
Ġde ath
ĠS ay
ke y
Ġg ather
Ġang ry
Ġexam ples
Ġset tle
Ġmax im
u ed
ĠMay be
Ġsat is
i ers
Ġkn ee
Ġprof ile
Ġallow ed
Ġaff ord
Ġc ry
us ion
Ġfact ors
Ġsens itive
ur ch
Ġe ase
Ġfriends hip
z en
Ġd ance
ut ions
Ġcomple x
at ives
ad ow
Ġcor n
Ġst ar
Ġrec ipe
Ġpol ish
Ġgar lic
Ġver t
Ġaccount s
r am
ing er
en ess
Ġch oosing
ĠS pr
up s
or age
Ġl oud
Ġgr ab
Ġp ages
Ġvit amin
Ġor ange
Ġn erv
ul ated
Ġp un
an a
o le
Ġgl oves
Ġsk ip
Ġm ill
Ġexp enses
ĠA c
Ġlim ited
ĠK now
Ġcl icking
Ġdis s
ĠChr ist
an ch
Ġdef ault
Ġus er
Ġs ink
n ed
Ġeduc ation
Ġe ight
Ġcol ored
Ġcol umn
Ġexperi ences
Ġwid th
Ġnut s
ness es
.. .
Ġatt ached
Ġapp s
Ġen em
Ġown er
Ġyog a
Ġjo bs
Ġpay ments
oun ter
Ġob tain
c her
Ġnew sp
k s
Ġproced ure
Ġ,,, ,
Ġdraw ing
Ġn ature
m ark
Ġem pty
ren ch
augh t
Ġbus y
Ġsc al
ĠiP hone
Ġh oney
Ġant ib
Ġselect ed
enc ies
Ġst im
Ġst ro
Ġto ng
Ġd ream
Ġol ive
Ġcorrect ly
Ġarr ange
Ġl unch
Ġturn ing
ust r
Ġw ra
Ġst re
Ġpres crib
Ġsuppl ies
Ġnerv ous
ĠC an
Ġfl ower
ver se
Ġrespons ible
Ġopportun ities
Ġhigh light
Ġgovern ment
ĠSim ply
u ct
r im
Ġtem pt
ill ing
Ġknow s
Ġt ube
or ter
iz ations
e g
Ġso ld
Ġp ool
Ġperform ance
Ġbig ger
Ġind e
Ġmix ing
Ġwatch ing
4 0
Ġt re
Ġval ues
b ol
Ġdrug s
Ġwall s
Ġrele vant
Ġm l
Ġag ency
Ġst aff
Ġf an
Ġhor iz
Ġsent ence
Ġm ort
Ġinc orpor
D on
Ġt ag
ol id
Ġcirc um
Ġus ers
Ġsex ual
Ġmem ory
b re
Ġflu id
Ġbe at
Ġconf irm
Ġg ym
Ġc ab
Ġst raw
Ġform al
il s
Ġdi am
Ġk iss
Ġsleep ing
Ġfair ly
Ġneut ral
Ġeng age
Ġkn ot
Ġappreci ate
A l
ar ge
Ġfe ature
Ġmo b
Ġconst antly
Ġwa ist
Ġ1 9
Ġcomb ination
Ġclos er
Ġelect ric
Ġfound ation
Ġk ick
Ġgir ls
Ġbrok en
Ġvis ual
Ġch ain
Ġtechn iques
u ly
Ġcl im
Ġlight ly
Ġes c
for ce
u gg
Ġf ashion
Ġble ach
Ġveterin arian
Ġp ets
v ision
Ġwhen ever
Ġreact ion
Ġm ount
i ors
Ġcert ific
ĠD uring
ĠÂ ½
t hen
Ġh osp
Ġwhe el
Ġscr atch
Ġcell s
Ġcop ies
âĪ Ĵ
Ġyour s
ĠNe xt
Ġreal ize
g est
Ġcl osed
Ġpre c
Ġbe ll
Ġtreat s
Ġc it
ĠL ist
S ome
Ġc ow
Ġevent ually
ĠAltern atively
Ġgre ater
ind er
ĠP ok
in ary
Ġjewel ry
Ġout fit
Ġass ess
Ġse ed
Ġhang ing
Ġbox es
Ġcall s
Ġro ad
Ġbegin s
Ġfill ing
Ġexist ing
Ġb ound
Ġpot atoes
ĠU s
1 1
Ġgr ass
Ġche ap
ĠAmeric an
Ġbr ief
Ġvide os
ĠFr om
Ġcl erk
Ġex cell
Ġl ack
Ġspe ech
Ġtext ure
Ġaltern ative
ers on
Ġrel atively
Ġwind ows
Ġspr ing
ĠP ick
Ġst orage
Ġse at
Ġinstall ed
Ġchemical s
Ġho b
Ġli ves
Ġ6 0
s en
Ġ4 0
ĠU nder
ĠRe g
Ġcook ed
Ġconst ru
ag on
Ġin h
ract ice
l ier
Ġread er
Ġn ur
Ġev al
ĠO ff
Ġappl ied
Ġvis ible
ĠF irst
ĠC reate
os en
Ġb ull
Ġdis order
Ġg el
ĠM ac
Ġshe ll
Ġdist rib
Ġset s
it ches
fr ac
ĠS er
iv al
Ġnutr ients
le nd
y ou
is hes
Ġg ear
Ġc ycle
m a
anc ing
ft en
Ġs quee
ink le
Ġbatter y
Ġinvol ves
Ġth ro
r ain
U se
Ġrib bon
he st
Ġch osen
f ol
Ġof fe
ĠS w
Ġtiss ue
Ġkind s
Ġo x
Ġper man
Ġ2 5
l and
Ġto wn
Ġdr iving
Ġsa le
g ers
Ġmix ed
ĠF orm
p ir
Ġcommunic ation
ĠPok Ã©
on ut
Ġrefriger ator
Ġcoun sel
Ġh ire
ant ed
Ġsee ing
Ġsn ow
Ġsh ade
ĠâĢ ĺ
Ġthem e
ber ries
Ġexcell ent
Ġest ate
it is
or ce
Ġcr ush
Ġpol ice
z ing
Ġsong s
Ġch at
ĠF ocus
ĠR ep
l ished
Ġt all
Ġsho pping
Ġhtt p
c y
Ġeffective ly
Ġg roc
Ġtem por
Ġl ighter
ĠG od
r m
Ġdep artment
Ġcr ack
Ġc able
Ġt rees
Ġh ar
ĠJ o
ĠP ull
Ġal though
p re
Ġdirect ions
n o
Ġmanufact urer
as ure
Ġmonth ly
Ġtablesp oons
Ġapprox imately
k in
m et
Ġover w
Ġan ger
ĠP art
Ġcurrent ly
Ġv ia
ĠF in
Ġdepe nds
ill a
ĠL ike
Ġfriend ly
l ace
Ġt ension
Ġy arn
Ġw aste
Ġres id
Ġun s
Ġsh ut
Ġmult ip
ĠV is
g then
Ġdry ing
Ġnecess arily
Ġm agn
Ġball s
Ġwa iting
Ġs le
Ġdam p
Ġw ild
ĠI D
Ġpe el
ag raph
ĠSt ud
Ġrecogn ize
Ġlibr ary
Ġh orm
Ġpan el
r om
Ġp ock
v est
Ġmo ves
Ġl ap
se qu
Ġho pe
Ġbe nd
Ġtreat ments
in c
Ġstru cture
f ast
Ġstr ips
Ġprotect ion
s he
Ġsm art
ĠTy pe
Ġtouch ing
g ment
Ġcommon ly
Ġmir ror
Ġch air
ĠI nd
Ġfl o
Ġf ly
Ġha bits
Ġsmo ke
Ġpregn ancy
Ġst uck
Ġhoriz ont
le br
Ġpl ug
pl ace
Ġfl ash
ress ed
Ġhome work
in a
Ġfed eral
Ġdeal ing
Ġdet ail
Ġrel ig
Ġaffect ed
ĠAg ain
Ġexperienc ed
Ġin ner
Ġinclud ed
Ġtreat ed
Ġper haps
C h
Âł Âł
Ġdis hes
Ġ }
Ġth reat
l ist
u um
Ġt un
Ġh at
Ġcall ing
Ġab use
ol ute
Ġ {\
e f
Ġpl ain
Ġb ully
Ġac ne
Ġh ips
Ġstate ments
Ġto ile
Ġmic row
Ġfro st
Ġ9 0
re te
Ġd ip
Ġfill ed
Ġam ong
Ġu lt
Ġlaws uit
Ġappoint ment
Ġkeep s
Ġcont r
b ar
Ġsum m
b l
if ul
Ġneighb or
Ġhigh ly
e led
Wh at
Ġconf lic
Ġdevelop ing
Ġthro at
Ġpro of
Ġv ir
e qu
o ot
iss ors
Ġtablesp oon
Ġpain ting
Ġd irty
Ġre in
Ġmist akes
Ġshap es
ĠIn s
on ge
Ġtrig ger
Ġsh orter
ĠUn ited
ĠA m
Ġrelax ed
Ġout line
Ġqu ar
Ġregard ing
O S
Ġcon v
Ġpers pect
ĠL ay
ig ate
ition ally
Ġele ments
1 6
Ġstr ain
Ġc ord
Ġexp osed
K eep
Ġdem on
Ġto es
wh at
Ġs ample
Ġtow els
ĠPokÃ© mon
ĠE d
Ġw ond
Ġorgan izations
Ġmess ages
Ġaccur ate
Ġarg ument
ĠA cc
Ġdig est
Ġmass age
Ġsym bol
Ġstrong er
Ġpro ve
r ical
Ġadult s
Ġsc ar
Ġs ib
am ed
y ond
Ġbas k
Ġdr iver
a ise
Ġturn s
ant ic
Ġsl ip
Ġfor g
Ġcor ners
Ġpol icy
Ġfib er
Ġbene fic
ak s
aw s
Ġstat us
Ġsupple ments
Ġcl ients
Ġabs olute
Ġm id
p g
Ġr ide
Ġsty les
act ion
ci ous
ic ious
Ġhy dr
Ġhouse hold
Ġble nd
Ġpro ceed
ct ive
Ġansw ers
ĠD raw
t ail
Ġpar agraph
Ġmanage ment
Ġpurch ased
Ġpr on
Ġgr aph
Ġr ain
Ġopp onent
Ġdifficult y
g a
Ġtr uly
Ġdecre ase
Ġg all
ro l
Ġse a
ough t
br ush
Ġham ster
Ġ,,, ,,
l ines
Ġgu it
Ġcon duct
Ġear lier
Ġel b
Ġb un
Ġf ert
Ġmag az
Ġun able
m od
Ġgr ains
Ġman ner
Ġhappen ed
ĠS oc
ra se
Ġmov ies
Ġboy friend
ĠR ed
Ġpot entially
et ers
Ġmarr iage
m ade
ĠC al
Ġres ume
Ġwom an
ify ing
Ġglass es
ac ement
Ġpack age
Ġincre ases
Ġcas ual
Ġf elt
it ute
Ġfil m
Ġinst r
Ġche cking
am ps
us ing
ĠR un
ic ian
Ġcand y
ĠSh ow
ĠW ait
Ġover night
Ġdam aged
ĠDe c
Ġw ound
and om
Ġun w
Ġfeed ing
ut h
Ġincre ased
Ġy ard
ĠM ove
Ġkey board
u ge
e xt
Ġcar pet
Ġa id
Ġwood en
dd en
Ġown ers
g s
Ġp ier
Ġind ust
Ġint ake
Ġcl ient
Ġli e
ĠSt ay
ĠSt ates
Ġrep ut
Ġindivid uals
Ġwe e
b and
it ting
Ġperfect ly
Ġinfl amm
o very
Ġ ;
Ġg one
Ġag gress
St ep
Ġoverw hel
um ents
j pg
Ġout er
Ġd ates
Ġcl ip
Ġcomb ine
Ġser ies
ch ange
Ġno ise
i us
air y
in ting
m ail
Ġbl ade
Ġcoc onut
Ġveget able
Ġnarr ow
Ġfor th
pt ion
Ġdec isions
Ġb ike
ur al
ak ed
Ġmo de
Ġce lebr
Ġdep os
Ġcommun icate
Ġconsist ent
Ġsu dden
Ġhe ld
Ġle af
Ġcap t
Ġr aw
Ġpull ing
g age
ĠOther wise
Ġnear by
ĠQ u
Ġfun ny
Ġoffic ial
Ġgu ard
Ġto n
oc king
un es
Ġst ains
Ġse lling
ĠRe c
Ġapp le
Ġto x
Ġbehav iors
Ġposs ibly
Ġwe ap
ib ilities
Ġto y
Ġswe at
ĠGener ally
Ġt ired
out s
Ġb one
Ġpress ing
it ate
Ġconcern s
Ġc ast
1 00
Ġd im
S A
Ġaccompl ish
Ġ1 6
Ġtoile t
Ġcontact s
Ġc ere
ĠC over
Ġcook ies
Ġrel ieve
ars h
d ed
Ġser ver
Ġsc issors
Ġval u
ce l
Ġtra ffic
Ġcircum st
ch ing
Ġinfect ions
Ġsc ale
Ġh ur
Ġperiod s
Ġfl av
Ġcr u
Ġw ake
o ff
Ġdis p
Ġs izes
erc ial
Ġright s
1 4
as hing
Ġwee ke
Ġd ro
cl ick
Ġphys ically
Ġe p
Ġdet ailed
Ġexp osure
ĠSt ore
Ġmed itation
Ġdiv ide
Ġtooth p
Ġval id
Ġinvol ve
Ġopin ion
Ġcondition er
Ġp ipe
Ġsho e
I N
Ġprim ary
Ġdes cription
Ġv ent
Ġrece ived
ĠApp le
Ġmark s
Ġst ories
Ġdr am
Ġstay ing
ers ion
Ġst em
Ġteacher s
v is
Ġsatis f
Ġbeaut iful
Ġminim ize
Ġf its
Ġpain ful
oc al
Ġbro ad
Ġsupple ment
ĠSet tings
Ġv ict
Ġexp and
Ġmicrow ave
Ġadmin ist
Ġdiss ol
ot es
Ġshe ets
ĠInc lude
ĠD ep
Ġcent im
ĠB oth
Ġneg ot
ul ations
ĠW atch
ĠO ften
im al
Ġfocus ed
u x
Ġch ips
Ġbu ilt
Ġsp onge
Ġbreak fast
ct ors
Ġlit ter
ĠG ood
c are
r as
Ġun ivers
um in
Ġch art
Ġme ant
ĠLear n
Ġind ex
Ġinde pend
Ġro pe
ro gen
Ġext ract
ĠC all
Ġsp ort
Ġun f
Ġnewsp aper
Ġdi abet
Ġsess ion
Ġfro zen
Ġr ich
Ġb ite
Ġfollow ed
Ġde br
Ġbo ots
Ġmic ro
Ġincre asing
Ġo d
ol or
Ġbutt ons
Ġm ent
Ġvac uum
Ġtop ics
es h
Ġen able
Ġin vent
Ġloc ations
Ġfl ight
ĠS earch
Ġstud ies
Ġdevelop ment
Ġdiv orce
Ġher bs
Ġ4 5
Ġh olid
Ġtest ing
Ġr hy
or king
ph one
Ġyog urt
Ġguid el
t aining
res p
Ġknow ing
Ġexperienc ing
ĠDo es
m ore
! "
ĠC D
Ġfact s
Ġro d
Ġmaxim um
Ġbring ing
Ġpregn ant
r up
Ġto day
Ġswe lling
Ġbe yond
am b
Ġhe m
Ġf ake
Ġchallen ge
Ġgroc ery
Ġer r
ou b
Ġst o
Ġgrad ually
Ġdebr is
Ġup load
ar a
est yle
Ġc art
Ġsal ad
Ġbreak s
Ġmat ches
Ġfo am
Ġpurch asing
Ġtong ue
Ġn av
Ġmob ile
Ġwr ist
Ġmin or
Ġrestaur ant
ĠP ractice
Ġcard board
ĠM an
Ġhosp ital
Ġpower ful
um es
Ġconc rete
Ġpur s
Ġill ness
alth y
Ġst one
Ġun it
Ġrep air
Ġfact or
ĠThere fore
Ġsn ack
Ġguit ar
Ġexper iment
Ġfree zer
wh ich
re g
Ġsc rap
Ġst ove
Ġfem ale
p ically
Ġvert ical
ak er
Ġcour ses
Ġal ert
ne ys
n el
Ġasse ts
Ġproject s
Ġp ed
Ġsc ene
Ġgr ain
us hed
Ġr ough
Ġoccur s
Ġm ouse
Ġpres ence
het ic
Ġcle ans
ve y
Ġchang ed
Ġproper ties
Ġgr ip
Ġindust ry
Ġpos itions
Ġmove ments
Ġl osing
Ġin put
Ġh ous
Ġg au
Ġab dom
Ġs aw
Ġre ve
art h
olog ical
Ġmon itor
Ġv ag
Ġintrodu ce
Ġbel t
Ġr oughly
The re
Ġh uge
Ġfeed back
Ġble eding
Ġstren gthen
Ġinfl u
Ġcom ments
Ġscrew s
E x
ĠG ently
Ġsur v
Ġbene ath
e w
Ġb ill
Ġg um
Ġr ates
Ġd ur
Ġsc ent
Ġp ose
Ġsh aring
ĠBu y
Ġsyst ems
Ġrom antic
Ġpost s
Ġsn acks
Ġ &
n ger
Ġdet erg
Ġperspect ive
Ġess ay
Ġbask et
Ġ2 00
Ġsc an
sc reen
Ġcircumst ances
Ġfirm ly
Ġcr ow
ch an
Ġsuit able
T unes
Ġbreat he
Ġtr ap
ac he
or row
ut s
Ġc aught
Ġcon cept
Ġturn ed
p art
Ġtr ay
Ġover l
on ents
Ġlead ing
Ġexper t
Ġprodu ction
Ġt ightly
Ġsl ices
ra pe
Ġd raft
Ġsun light
Ġassist ance
Ġmist ake
k now
Ġb ol
Ġus ual
ĠW ash
Ġprov iding
Ġblock s
g l
ire ct
Ġdefin itely
Ġcom ment
Ġst ead
ad em
Ġso ot
Ġst ream
Ġdark er
Ġre ference
Ġcut s
Ġinflamm ation
Ġsurf aces
Ġco vers
Ġed it
Ġantib iot
Ġreg ister
e c
z y
Ġrec ent
Ġequ ation
ĠAt t
ĠSt and
arr ass
Ġbuck et
Ġst ation
Ġst itches
Ġpe pp
Ġhy p
we ight
Ġcertific ate
Ġact ing
ffe ine
Ġch ann
ĠĠĠĠ Ġ
Ġpre d
Ġrub bing
Ġdry er
Ġtri angle
Ġsh ake
Ġfl ip
in ated
Ġc ore
Ġpr ices
w ood
Ġdescrib e
Ġke pt
ul ting
Ġsy rup
Ġexpect ed
b ut
l i
Ġpl at
Ġ1 4
Ġstudy ing
op s
Ġor d
Ġrun s
am ples
Ġemb arrass
Ġsou p
Ġclose ly
ap ter
Ġcl ock
Ġd ent
Ġde lete
Ġvac c
ond s
r ied
in o
Ġdes ire
Ġdial og
ĠTw itter
âĢĿ .
Ġdefend ant
Ġst icking
Ġdet ect
Ġass ume
Ġbel ief
Ġsim pl
a i
Ġi Tunes
Ġsil ver
Ġinse ct
R em
S h
Ġac qu
Ġentire ly
Ġp ins
d le
Ġvalu able
Ġcon ce
Ġc roc
Ġeven ing
Ġh ip
Ġfocus ing
am ins
he m
Ġtrans port
Ġcounsel or
Ġprofess ion
Ġin ject
us hes
Ġcount y
in ations
Ġmem or
s hip
Ġcirc ular
Ġr andom
Ġm ale
Ġstick s
Ġinvest ment
Ġh om
Ġsafe ly
ĠF old
Ġstress ed
i os
Ġann oy
Ġche ek
Ġpill ow
k y
Ġpl us
Ġlif estyle
V ersion
Ġcontain ers
} {
Ġhum id
ur ies
p ress
Ġhe ard
Ġbusiness es
Ġcomb ined
Ġprom ote
Ġswim ming
Ġal ign
ĠC lean
ut ed
Ġestab lish
Ġcomm ercial
Ġad equ
Ġfile d
Ġur ine
oss ible
l ings
as ant
a fe
Ġp ounds
Ġevery day
Ġp ure
Ġgr ams
m as
Ġrest rict
Ġelim inate
ĠH ome
Ġclass ic
Ġfall ing
ld er
Ġman ual
Ġan k
Ġteach ing
Ġburn ing
Ġfac ial
) ;
idd en
Ġhe al
ist ics
Ġar row
Ġloc ate
Ġg room
ĠO ver
Ġhard ware
am ing
re ens
al ity
Ġm al
Ġl ung
Ġfr ustr
Ġvict im
id ers
Ġs ight
o om
Ġbre aking
Ġc ub
Ġaggress ive
Ġwant ed
Ġt al
ĠC are
Ġr ack
Ġde ck
Ġdo ors
Ġlit er
ĠCh ild
Ġv an
Ġlic ens
aint iff
Ġaspect s
st all
Ġwork ed
ĠD es
Ġ1 1
Ġpart ners
Ġyou nger
ĠCom m
Ġcr is
Ġorgan ic
ĠGet ting
if ts
op y
Ġcl ay
Ġapplic ations
Ġtem pl
ar ant
Ġcirc les
Ġhe aling
Ġr ag
Ġcand id
ic ro
Ġt ough
C l
Ġt ut
ph as
ens ity
Ġch unk
ĠW ater
ĠD own
Ġinstall ation
Ġpol it
ang ing
Ġca lend
Ġd airy
Ġdisc ount
Ġpres cription
Ġcover ing
Ġoper ating
iv eness
Ġdiscuss ion
ĠC ar
Ġint ense
Ġme chan
l ord
Ġcar s
Ġre ject
Ġask s
Ġret ail
Ġs ore
ĠUs ually
Ġr ap
ci um
Ġsk irt
Ġperman ent
Ġsh y
Ġf arm
Ġde v
Ġcompl iment
Ġl at
Ġcl in
ĠPl an
op h
Ġgr ade
Ġsuccess fully
d oor
ad ing
u ine
ĠS n
8 0
Ġcol our
Ġpract icing
A dd
l or
Ġspl it
Ġdifferent ly
or g
Ġbo iling
Ġwor ried
., ,
cl oth
Ġac know
Ġmarket ing
ĠC ent
Ġarr ive
Ġph rase
p are
Ġsp aces
Ġspir it
n a
Ġoffer ing
as er
Ġcontrib ute
Ġattract ive
Ġsign ed
Ġrespons ibility
Ġcon sequ
Ġscal p
k ward
Ġro lling
ens ions
Ġvolunte er
a wn
Ġguidel ines
ĠM ore
Ġb ands
Ġcomp are
Ġfu nd
bo hydr
ĠCont act
Ġsome what
Ġde hydr
Ġexpl ore
Ġcut e
ific ations
Ġsess ions
com ing
Ġfo il
Ġele v
Ġstore d
Ġto dd
om fort
l ig
Ġc ough
Ġdisplay ed
Ġconvers ations
Ġsquee ze
in ct
Ġrec over
Ġsearch ing
Ġcreat es
Ġl ying
Ġhig hest
Ġp icking
Ġdiabet es
Ġsmo king
Ġro se
u ation
Ġdisc omfort
Ġst er
Ġcon ven
ib r
m y
v ents
Ġexpect ations
Ġtr ade
Ġblank et
Ġman ager
Ġaccom mod
Ġdesk top
Ġabsolute ly
Ġin k
Ġse m
e ven
Ġthan k
ro oms
Ġbird s
Ġfor k
ul ating
Ġt iny
Ġcr im
Ġse ven
Ġsec ret
Ġhorizont al
Ġinv ite
o e
Ġte nds
um ber
g y
Ġre v
Ġp it
zz le
le ts
Ġhair s
Ġcrit ic
au nd
Ġt ast
Ġsu bs
Ġdeterg ent
ĠG l
Ġb ars
re st
Ġ1 3
Ġbe ach
Ġaw kward
Ġs ne
Ġun like
1 3
ĠP C
Ġappe al
Ġland lord
el p
Ġke ys
Ġexte nd
o ke
Ġjack et
ut es
Ġart icles
Ġse nding
ĠTr ans
Ġprov ider
Ġob st
Ġb ac
ad der
s ized
Ġs or
Ġv om
hes ive
Ġhy d
Ġfe ver
Ġserious ly
Ġcult ure
Ġha z
Ġlab eled
Ġfert il
Ġselect ing
Ġth igh
Ġsu spect
Ġreason able
Ġirrit ation
lf r
Ġd ie
Ġdr ill
ĠAnd roid
Ġlead s
Ġimm une
ĠChrist mas
Ġr ace
h n
Ġvit amins
Ġt ou
Ġtax es
Ġenem y
Ġd oub
Ġsol ve
Ġaud io
Ġbenefic ial
he a
Ġmel t
Ġm asc
Ġtr ash
ĠH igh
ĠO f
Ġent ry
Ġpass ion
Ġbe ef
Ġaccept able
ic i
1 7
Ġgr ill
Ġbl ind
ie ving
Ġox y
Ġcount ries
Ġconflic t
Ġconcern ed
c our
Ġsle e
T ube
Ġspec ies
Ġpl aintiff
Ġshel ter
Ġb are
Ġtrave ling
Ġgood s
Ġche w
ĠBe gin
Ġtr uth
Ġlist s
Ġste el
te red
Ġtell s
Ġcontro ll
Ġrelax ing
Ġpal m
b ies
Ġphotog raph
Ġbo ot
Ġaccess ories
Ġsh r
Ġtrans l
oun ces
Ġreal istic
Ġgr ay
Ġcow ork
Ġun sure
ic ip
Ġfr ag
us ive
Ġmost ly
Ġvis ion
Ġdeep er
Ġm aster
Ġbr ace
Ġjud gment
Ġpre m
Ġsub t
et ch
Ġro of
Ġne at
Ġmiss ing
Ġloo sen
Ġhe els
Ġon ion
w ater
Ġwor n
olog ist
go v
Ġcab in
Ġv en
ĠIns ert
Ġar ch
Ġm ath
Ġemploy ment
Ġreview s
ĠD V
Ġl uck
ove l
Ġca ffeine
Ġun ne
Ġn ap
omet er
Ġredu cing
Ġconsist ency
b age
Ġlap top
ĠDis c
Ġcho pped
Ġmeasure ment
---- ----
Ġgu arant
Ġclaim s
Ġp ony
Ġmort gage
i as
Ġen h
ĠSoc ial
ĠF ire
so ft
Ġpr one
in ter
Ġd il
Ġprocess ed
Ġupd ate
Ġlink s
in ating
ib er
Ġsav ed
ul f
Ġas leep
am ine
Ġh al
Ġse am
Ġele ment
A pp
Ġh ung
Ġharm ful
Ġse wing
ĠYou Tube
Ġcover age
Ġmod els
Ġcl ar
Ġtempor ary
Ġthere fore
Ġf ats
le ft
i at
Ġcons ume
ĠSt ate
Ġpet ition
i pper
Ġcar bohydr
Ġbound aries
Ġo dd
Ġc ame
Ġsc en
Ġstead y
ord ers
Ġimp ossible
Ġse w
Ġsl ice
e v
Ġel ig
Ġcook ie
Ġkit ten
ĠUS B
it ary
Ġcert ified
ĠTy pically
Ġmedic ine
Ġm ut
A n
Ġgr and
ĠI nt
Ġlearn ed
Ġdep th
oc ate
Ġeye br
Ġ >
ber ry
Ġcalc ulate
Ġd ra
Ġh op
Ġrec overy
Ġw arr
Ġelect rical
Ġvac ation
Ġhapp ening
p oint
Ġsign al
ĠKeep ing
Ġli ver
ern ame
ĠN et
l im
Ġb raid
pos es
ĠA ct
Ġsuff icient
Ġd ivid
ug s
Ġselect ion
do ors
Ġoccas ionally
Ġw ires
Ġcor resp
Ġorgan ized
ĠU p
ĠR inse
Ġprom ot
5 00
Ġdig ital
Ġhand ling
ĠI R
Ġoffe red
b ed
s pe
Ġpe ace
rap hy
Ġsuggest ions
Ġintern al
Ġt our
Ġsock s
Ġlight ing
d raw
Ġtele vision
Ġmom ents
Ġinj uries
Ġtreat ing
Ġpat ients
Ġtemper atures
Ġread ers
Ġopin ions
Ġd ating
Ġign ore
ch arge
_ {
and er
Ġt ack
Ġbo ld
Ġcateg ory
Ġwe igh
Ġcal cium
Ġrad io
ad o
qu ar
ĠO pt
Ġper mission
Ġrece iving
Ġb ored
ons ider
ang es
Ġplat form
Ġmin i
Ġlo ans
Ġsauce pan
os ition
st ers
Ġex change
lfr iend
Ġge nder
i king
ine a
Ġpock et
ĠPro v
A void
Ġrecip es
Ġsubst itute
Ġbirth day
c ase
Ġte nder
Ġpe an
Ġpast a
P A
Ġdel iver
Ġapp les
ox ide
Ġsh ift
Ġp itch
Ġw ip
Ġfu el
k n
Ġhand y
Ġgen uine
Ġp unch
Ġdem and
Ġenter ing
ĠC o
Ġweek ly
Ġquar ter
}} }
Ġmeas uring
ic ide
Ġvis iting
Ġret ain
Ġanx ious
Ġunne cess
Ġdesign s
Ġout doors
Ġst iff
Ġsw ing
Ġ <
Ġspe ll
ĠSt ick
Ġgu inea
Ġaccident ally
Ġoxy gen
Ġboard s
Ġmot or
Ġsp ent
ĠBl ack
pro of
Ġcont aining
Ġche aper
Ġor al
Ġadv anced
ĠUn less
Ġbell y
Ġa st
ang les
Ġwould n
Ġgu ys
Ġoffic er
Ġcalend ar
ĠT aking
Ġsh ots
all el
Ġbr ushing
c ast
Ġal m
Ġc in
ĠM o
Ġpur poses
Ġesc ape
f ace
or ie
Ġfail ure
in i
Ġpo ly
Ġprofession als
Ġen s
ĠA b
ĠG u
Ġpresent ation
Ġser ved
Ġinj ured
Ġatt itude
Ġpur ple
Ġp atch
Ġsignific antly
R L
p aper
Ġbot her
ĠM y
Ġto ld
Ġem phas
ig s
Ġb ones
Ġstress ful
Ġsp ark
ĠR et
Ġcoll ar
ap ed
Ġsuff er
st rate
Ġpr ay
Ġlim its
Ġsell er
Ġcont ents
Ġrecord ing
Ġce iling
s or
ĠO ut
Ġimag ine
l ined
Ġtop s
Ġsent ences
Ġthe rm
Ġel astic
Ġcompl icated
og s
ĠS ub
Ġag encies
Ġcollect ion
Ġresist ance
Ġb od
Ġb ills
Ġvar i
ĠPer haps
Ġpercent age
Ġstrateg y
te nd
Ġl aund
Ġsc reens
Ġp ads
Ġstrugg ling
et ic
Ġp ile
Ġ #
Ġconnect ions
Ġint ell
Ġsand w
Ġp ace
ĠS u
Ġr ise
Ġsu g
Ġun he
Ġst ur
__ __
arr hea
Ġstick y
r iting
Ġexte nded
Ġthick er
ĠVis it
7 5
ĠA ut
we ar
Ġmoistur izer
Ġnum er
as y
Ġweeke nd
Ġh ose
ĠRes earch
Ġhum or
Ġhtt ps
Ġem ails
Ġpot ato
Ġtrain ed
Ġb ake
Ġdeep ly
Ġtooth brush
Ġsy n
ag ram
Ġph r
se e
ĠR ight
Ġphys ician
ĠPh ot
Ġp ushing
f ish
ĠE ither
ĠR ub
Ġwond er
Ġd y
rel ated
Ġ ounces
Ġbott les
Ġb en
Ġbal anced
Ġfu nds
Ġrisk s
ĠC ook
rough t
Ġbed room
Ġpar allel
Ġbr ands
ĠS ave
Ġhealth ier
Ġbo at
u ous
Ġdress ing
ru it
ab or
ĠW ord
Ġd ut
if orm
Ġroom s
Ġsurround ing
ar ation
Ġlab or
Ġbeaut y
Ġg inger
ĠD et
Ġco ord
Ġp apers
Ġrec ently
Ġtr ail
ĠWh atever
Ġtyp ical
Ġcolor ing
m ble
ĠN ational
Ġh idden
und red
Ġcentim eters
Ġvan illa
Ġh unt
Ġconst ant
ap t
Ġp ul
ass es
Ġad hesive
ĠM aking
Ġm ush
Ġjoint s
m ath
c ol
Ġdis pos
Ġqual ify
m ates
Ġbe er
Ġrel ief
Ġanal y
Ġal t
Ġdef ense
anc hes
go ing
Ġout door
w ith
Ġstro ke
ic ations
Ġexcess ive
Ġt an
Ġint end
ro s
Ġflex ible
Ġpron oun
c raft
Ġincorpor ate
ĠI de
Ġgir lfriend
Ġgold en
Ġhapp iness
Ġmeasure ments
he it
Ġre aches
Ġsol utions
Ġfrequ ent
Ġ \
Ġstre et
Ġb on
p ack
Ġla unch
Ġneighbor hood
t a
ĠW ill
Ġimp ression
Ġp izz
ause a
Ġvers ions
orm al
Ġgl itter
Ġre ly
Ġch ronic
ĠW rap
Ġlet s
Ġmel ted
Ġsl ight
Ġtox ic
Ġrem ed
Ġh iring
nam on
le y
ic he
ren heit
ah renheit
Ġtrans ition
Ġprevious ly
Ġsign ature
Ġwh isk
ol i
Ġpin ch
m l
Ġa er
Ġb ought
Ġsc ience
Ġb ent
Ġsh ades
il ies
Ġclos ing
Ġcor por
Ġfr idge
Ġrout e
he at
ĠF rench
Ġac adem
Ġcomp rom
Ġst ems
Ġch in
Ġbr ow
Ġinfect ed
Ġfew er
p erson
Ġcrit ical
Ġprin ter
Ġover ly
Ġp u
Ġm g
Ġdest ro
a ired
Ġat h
Ġfold ed
Ġpre vents
I D
ĠS te
ĠList en
Ġco pe
Ġavoid ing
yst em
ĠB o
Ġsp at
ep t
d es
Ġeyel iner
ik i
ĠF ahrenheit
Ġte ar
tern al
Ġfit ness
Ġmoder ate
Ġem p
Ġph arm
Ġcroc het
Ġconsider ing
Ġble nder
Ġmoder n
b ell
ys is
Ġsh ared
Ġinstr ument
Ġpr aise
ĠÂ ¼
w orm
Ġlaund ry
ill y
Ġimp ress
Ġdel i
Ġident ity
Ġcard io
ĠEd it
Ġconsequ ences
b orn
ĠEn sure
Ġ,,, ,,,,
ĠDV D
E R
Ġus ername
Ġb es
Ġal arm
Ġth us
Ġpo em
Ġpass ed
c ip
Ġstr ings
de red
Ġfield s
Ġreact ions
m o
Ġdis able
Ġm ature
ĠC r
Ġclean ed
ag ers
P S
Ġparticip ate
Ġmain taining
al er
Ġregard less
Ġestab lished
Ġm er
Ġprefer red
ĠMe asure
Ġfollow s
Ġp ale
ors es
Ġqu ant
Ġrepe ated
ĠD if
Ġv ul
Ġgl oss
le ar
c ons
in ant
u ce
Ġal b
Ġindic ates
m ate
Ġw ent
Ġbreath s
Ġcert ification
Ġac ids
Ġfrost ing
al se
em ents
Ġpo inting
Ġinte nded
Ġh undred
ĠAs soci
az e
og raph
Ġdiagn osis
Ġindepend ent
Ġb er
Ġlip stick
Ġdest ination
l ong
Ġcur ls
fort un
Ġstir ring
Ġhom es
A T
me al
ĠSec urity
ĠM icro
Ġdo se
Ġun its
Ġsav ings
ĠFe el
Ġinter rupt
ĠChild ren
ĠS ign
Ġsor ry
ie ved
Ġco ach
Ġtoo k
Ġgre ens
ap y
Ġcl oud
ĠO K
iet ies
ic ies
Ġbr anches
Ġchallen ging
ĠSm all
Ġon ions
Ġopt ional
Ġappro ved
Ġdise ases
umin um
om b
Ġrap id
ke w
Ġwh om
ust om
un ction
Ġprompt ed
Ġc oo
Ġt apping
Ġexerc ising
arn ish
Ġbab ies
Ġfight ing
ap pe
ten ance
il ize
Ġsp ine
Ġpol ite
n et
Ġapp et
ĠCom b
Ġc ock
Ġg est
Ġcr ate
ĠAdd itionally
Ġv ital
a ith
Ġpost ure
Ġob lig
Ġqual ities
iv il
Ġbed ding
Ġst able
ĠC oll
Ġredu ced
Ġdoll ars
Ġinvent ory
Ġrat io
Ġposs ibility
ĠE at
ig ation
Ġact s
O T
fere nt
Ġtom atoes
le ase
Ġsee king
4 5
Ġh arsh
Ġsh adow
How ever
Ġphr ases
or ld
Ġcomp ost
Ġrel ative
Ġadv is
Ġstru ct
Ġcarr ier
ĠEvery one
is her
int s
ĠAs s
Ġto ss
Ġsuff ering
Ġst ones
Ġod or
Ġex fol
l ay
Ġdemon strate
Ġwith draw
ĠCh ange
r ome
Ġhe el
Ġlab els
St art
g i
Ġdi arrhea
Ġrect angle
Ġunnecess ary
Ġf ulf
Ġint im
Ġadequ ate
Ġav oc
Ġresid ue
Ġtodd ler
Ġpupp ies
a ud
p arent
Ġhe ating
Ġcomp onents
c ont
Ġeng aging
Ġhob by
Ġcateg ories
Ġla wn
Ġinte gr
Ġal ter
Ġcur l
Ġcomput ers
ĠNot ice
Ġsod ium
Ġwhe at
Ġrelax ation
Ġcarbohydr ates
Ġwit ness
it amin
Ġfix ed
g u
Ġch ord
As k
Ġprof it
Ġelect ronic
im ents
Ġplay ed
Ġprocess or
r ance
az ing
Ġt uck
er o
Ġorgan ize
Ġhy per
Ġdec ided
Ġexc ited
Ġp H
Ġins p
Ġdeterm ined
Ġsh irts
Ġpol icies
Ġfl ag
e em
Ġext ension
Ġex it
Ġfore ign
D e
et her
Ġab ilities
Ġproced ures
Ġ8 0
Ġshop s
Ġr ude
Ġcomple ting
Ġcarr ots
Ġent ertain
d ent
es ter
Ġprint ed
Ġwor st
Ġcour ts
Ġple ase
Ġsu sp
ĠF ood
Ġdis ag
Ġnear ly
Ġspat ula
Ġd ancing
ĠM us
ĠDec ide
oid s
Ġadvert ising
et ing
Ġchar ges
Ġprescrib e
Ġcorresp ond
Ġprep aring
Ġfat ty
ĠSt r
2 00
Ġart ist
Ġallerg ic
v ings
wh ile
Ġcit iz
Ġcru cial
Ġchann el
Ġso y
Ġcomp ens
ĠDep artment
Ġp ine
Ġra ised
c ounter
Ġmasc ara
Ġcin namon
Ġbe ar
ac ity
Ġperform ing
Ġcap ital
Ġbub bles
i ating
Ġbel ong
Ġregist ered
Ġdat ab
Ġjump ing
Ġle ase
Ġresol ve
ak ers
Ġposs ess
Ġmark er
Ġst ack
Ġver ify
Ġso le
Ġret ire
ĠEx per
Ġrecommend ations
Ġerr ors
Ġatt acks
The se
st ate
Ġsh ock
est ic
Ġkid ney
ĠiP od
Ġdisp ute
Ġw ool
os es
Ġattor neys
Ġtick ets
Ġsatisf ied
Ġpony tail
Ġz one
el ine
Ġsp ices
Ġun iform
att oo
t ress
Ġreg ion
ĠA D
Ġpo ison
Ġpizz a
Ġb rought
Ġcontr ast
y pe
Ġl ens
Ġstop s
Ġfall s
Ġholid ay
Ġc ig
Ġr ows
Ġj ell
Ġf er
Ġrem ains
Ġsib ling
Ġdeli very
Ġgrad es
Ġh iding
ĠP ower
Ġun us
Ġremo val
ĠR est
Ġflav ors
d s
Ġdisc over
us iness
Ġthrow ing
Ġunhe althy
sh aped
Ġwit nesses
Ġstur dy
Ġstretch ing
Ġr ust
ĠS it
Ġso ci
Ġstr ike
Ġrespons ibilities
Ġenc ounter
âĢĿ ,
Ġfat ig
Ġstr ands
Ġrelig ious
Ġcrim inal
Ġs an
il it
Ġper mit
Ġnote book
om en
se ling
Ġg ifts
ĠM ar
Ġlif ting
Ġprec ise
Ġingred ient
ĠIde ally
ĠA nt
Ġnot iced
ĠM ark
Ġlog o
a ust
Ġprotect ive
Ġw ider
Ġle nder
Ġpriv acy
,, ,
Ġgre ase
Ġf if
Ġstay s
Ġhot el
ĠR ather
ĠW i
ĠR el
ul ator
om y
Ġwork place
Ġr ings
Ġsc roll
Ġap olog
Ġmeet ings
Ġemot ionally
Ġdiam eter
ing e
Ġr ush
Ġsub tle
Ġtempl ate
ind ing
Ġadminist r
ab ol
Ġph ones
u ction
Ġplant ing
Ġye ast
Ġw el
Ġpo ll
Ġcertain ly
Ġdecor ations
v as
Ġup ward
Ġfree ze
kn own
r ay
Ġdam aging
h ow
Ġsc oop
Ġal uminum
av a
Ġbefore hand
Ġmarr ied
Ġany way
Ġmajor ity
t es
ic ular
Ġr ins
ĠB re
Ġend ing
ĠWh o
ĠEx plain
Ġre cept
ĠEx ample
Ġter r
9 9
Ġto e
Ġf ault
Ġskill et
Ġstrength s
i ant
Ġimprove ment
Ġspeak er
Ġconstru ction
ick s
Ġsim mer
Ġd ab
Ġr iding
Ġtra um
Ġfun ctions
ĠSt op
Ġann ual
ĠEx erc
Ġunlike ly
Ġcont ext
Ġfold ers
ess ert
Ġdown ward
Ġmot ions
ĠCare fully
ĠM on
Ġbr anch
Ġhum ans
Ġmatter s
Ġallerg ies
Ġâ Ĩ
R e
Ġrecip ient
Ġbelief s
Ġcheck ed
Ġs in
Ġmat tress
ĠSl ow
Ġhung ry
Ġdo ctors
Ġwh ose
ĠA im
Ġeff orts
Ġha ll
Ġatt e
on nect
Ġh us
Ġc u
Ġshort s
Ġnutr ition
Ġprin cip
Ġad mit
al es
Ġcur tain
er ves
Ġcomfort ably
f its
ĠS pend
al y
ie nds
Ġtyp ing
Ġdescrib ed
Ġre ached
ĠT est
1 8
h ost
Ġch urch
Ġlot ion
Ġstrugg le
m b
ĠO b
fortun ately
Ġro ast
Ġport ions
Ġc aps
Ġd ental
gr ade
t te
Ġcap able
) .,
G et
ĠN ame
Ġlung s
Ġcomp ass
Ġsqu ares
âĢĵ âĢĵ
Ġweap on
Ġdent ist
Ġelb ow
Ġinstall ing
Ġtut or
d ate
w orking
e en
Ġscar f
2 8
sh irt
Ġmark ed
Ġpier cing
h ot
Ġtur key
th m
Ġdr um
Ġf ont
ĠCent er
Ġprescrib ed
e cut
ol ar
Ġed iting
Ġvom iting
Ġs aving
ink les
Ġinst it
Ġelig ible
ĠA ir
Ġdis orders
f ting
t ight
â ģ
Ġy ell
le x
Ġre ar
ĠF ile
ĠH elp
Ġdevelop ed
Ġhalf way
Ġer ror
Ġv irt
Ġun lock
Ġsudden ly
Ġbub ble
Ġp ores
Ġn ational
ab ilities
p ie
om a
um bs
Ġcomp ress
Ġ7 0
Ġcris p
Ġdoub t
Ġfl ush
Ġw ard
Ġstr ict
al ous
ĠU RL
Ġgu ess
Ġr ul
Ġacknow ledge
Ġsubst ance
Ġredu ces
Ġmain tenance
Ġspr inkle
Ġhit ting
Ġperform ed
Ġpro p
L C
ĠP ush
og ether
Ġpass ing
Ġstand s
Ġdisc ip
Ġsn ap
Ġconc l
Ġdra wn
Ġcur ve
Ġupd ates
ĠAssoci ation
Ġchar ged
Ġperson ally
Ġgreat ly
Ġhob bies
ex p
Ġt attoo
Ġjo ke
se c
Ġf ishing
Ġag g
Ġrein force
un ge
Â º
Ġcup c
Ġeyes h
ut ter
um ing
Ġcirc ulation
Ġwra pping
Ġsupp osed
ow el
Ġgau ge
ver ages
Ġsc ient
Ġd essert
Ġwarr ant
pect ed
Ġcar bon
Ġeng aged
Ġcompet ition
Ġexam ine
Ġpaper work
Ġirrit ate
Ġstandard s
c ue
c heck
Ġp ant
Ġsubject s
Ġantibiot ics
ĠE xt
Ġaut o
O n
Ġc os
Ġf aith
at a
Ġbe ads
y our
Ġth y
Ġco ats
Ġinc red
Ġacc ent
Ġmind ful
im eter
th is
Ġcontin uing
Ġqu it
f at
m m
Ġform ing
Ġeval uate
Ġto ler
Ġill eg
Ġaccept ed
Rem ember
L ook
ĠD ay
Ġhold s
C onsider
Ġvar ieties
Ġaffect ion
Ġex ternal
Ġwant ing
Ġe arr
lud ing
Ġorig in
at in
Ġbat tle
al t
Ġkey word
at ches
Ġse qu
Ġemploy ers
Ġany more
Ġdiffere nces
Ġtrust ed
Ġeff ici
Ġt ile
Ġ *
Ġg er
ĠM en
Ġrep et
Ġreve al
a led
h t
app y
ib it
Ġsqu ash
Ġfabric s
Ġover come
Ġunw anted
Ġfe ather
Ġless ons
Ġinflu ence
Ġadopt ion
Ġhydr ated
C om
Ġf alse
Ġb orrow
Ġrep orts
ll a
Ġdel icious
Ġp ound
Ġmo ved
Ġdownload ed
ĠKnow ing
Ġlat est
Ġdis ability
ĠMicro soft
Ġw ise
Ġprevent ing
Ġmultip ly
if ies
Ġmil es
Ġweight s
Ġsh ine
ave nder
Ġsing ing
Ġe th
Ġsupport ing
or r
Ġn ausea
ĠI dent
Ġj ur
A M
T ake
i ance
Ġrest ore
2 2
ank s
an as
Ġstrateg ies
ĠCon nect
rupt cy
ĠPl us
Ġlow est
Ġo at
ĠW here
pen se
Ġtechn ology
Ġregist ration
Ġrepl acement
C ont
ar ms
Ġg ap
am el
Ġcent ers
Ġmagaz ines
Ġdepos it
p at
Ġint ent
Ġpub l
Ġcub es
Ġcr ust
Ġcoun seling
3 00
ro f
Ġchallen ges
ur s
Ġvar ies
Ġguid ance
Ġank le
ig or
Ġbed time
Ġexh aust
Ġp ip
Ġf ence
Ġstr and
Ġtight en
Ġn est
Ġdi aper
Ġtick et
Ġmix er
Ġc rop
ĠD ouble
Ġbu ff
Ġpean ut
Ġcost ume
Ġmess y
Ġexc use
ne w
ĠUnder stand
Ġt act
Ġspin ach
Ġenh ance
Ġm as
ang s
ĠY ork
Ġsu its
ĠL ight
ĠSp read
Ġdistract ions
Ġreput ation
Ġh orses
Ġch ores
Ġunder lying
Ġsun screen
Ġassoci ate
Ġep is
Ġpro spect
ĠM et
Ġg ro
9 0
o ors
ol f
ap an
Ġtoothp aste
or rect
ĠB ar
ĠEx pl
Ġgot ten
Ġtot ally
ĠSim ilar
Ġsw allow
Ġf aces
Ġj aw
b u
Ġs ized
ang ular
Ġelect ron
Ġvir us
M y
Ġn it
Ġprocess ing
Ġassoci ation
Ġflu ids
ĠProv ide
Ġo z
E D
av y
ĠD ry
are st
ĠHe at
ĠFin ally
Ġbully ing
Ġb arr
ĠC he
Ġconnect ing
Ġassign ment
p x
ĠB et
atur al
Ġv oc
u ro
ĠWh y
Ġaccording ly
Ġrare ly
Ġpract ices
Ġdel ay
Ġbul b
Ġj og
Ġeyesh adow
Ġpl ot
Ġup side
Ġcr ab
r us
ur b
ort hy
Ġgr own
yc ling
ĠT reat
Ġgl ow
Ġvul ner
Ġhead ing
Ġhar vest
Ġbac on
Ġcl ips
Ġsoft en
Ġop ens
! âĢĿ
Ġp ou
is c
Ġacadem ic
ĠL ine
ĠCom mon
app ropriate
Ġo ily
Ġfr act
Ġdress es
if ier
Ġdis charge
if orn
Ġcon vert
ĠP at
" )
Ġdi agon
l ook
Ġm ac
ut ing
Ġrel iable
Ġconven ient
Ġde le
Ġj ars
Ġind oors
Ġdisc ard
sel s
Ġrepresent ative
Ġemot ion
ĠSpr ay
Ġconf used
Ġgra v
am ent
Ġbod ies
Ġth ous
Ġcal orie
Ġrock s
Ġf ancy
Ġreal ity
Ġtra its
ĠM od
Ġwalk s
Ġadd s
Ġdestro y
Ġimpro ving
p ite
Ġthin ner
quar ium
ĠTw o
Ġfrustr ated
Ġconsist ently
Ġwra pped
Ġchunk s
els ius
Ġmem ories
Ġobs erve
Ġpurs ue
Ġver b
Ġfore head
ĠS ur
Ġsurpr ised
Ġbl ades
ang ers
Ġs atur
Ġh un
oles ter
Ġdo s
A R
it er
ĠB el
Ġwas hed
iforn ia
b urn
Ġpepp ers
Ġcomb at
Ġrot ate
Ġsurpr ise
v als
ĠCl ose
ud d
Ġsy nt
Ġje alous
a ign
Ġbo b
Ġappl ies
Ġcommit ment
2 4
er ved
Ġdec iding
ĠBu ild
o ad
Ġv es
Ġcar ing
u nder
ĠC elsius
Ġpre ferences
Ġd uct
Ġocc up
Ġcand le
Ġstro kes
Ġsumm ary
Ġintern ational
ĠStud ies
Ġb unch
p es
olester ol
O nce
Ġto ast
ic ation
M L
ĠJ apan
c ur
Ġl iner
Ġmatch ing
od es
Ġc ities
Ġbr ist
Ġminim al
hip s
Ġbig gest
Ġunivers ity
Ġpun ish
Ġprep aration
az on
ad a
Ġdam ages
Ġtr ied
Ġqu otes
Ġdel icate
Ġclub s
Ġhorm one
Ġmagaz ine
ĠDif ferent
Ġd ull
rou d
Ġjell y
Ġb its
Ġdocument ation
p any
ot ect
Ġest imate
Ġshoot ing
ĠM ain
Ġmention ed
Ġb aked
Ġreach ing
Ġpre ference
3 5
Ġme ats
Ġqual ified
Ġclos est
Ġit ch
Ġex ecut
im ages
Ġsc hed
Ġvar iable
Ġsmell s
if ting
Ġr ash
g al
Ġdis appe
Ġlead er
Ġent ered
Ġgre y
th umb
Ġclose t
Ġgr ate
Ġper oxide
Ġshe lf
Wh ile
Ġre wards
Ġsettle ment
ĠP urch
Ġclass room
Ġinteract ions
l ers
ĠWh ite
cc oli
s is
ig ure
Ġval ve
Ġdream s
er als
pir ation
p age
Ġag ents
Ġdr ies
Ġapart ment
Ġshap ed
Ġsl ot
Ġmut ual
ĠR oll
Ġcre ase
Ġup right
iz ers
Ġcomp ared
Ġve gg
ĠCal ifornia
Ġt ire
Ġdisc our
ost er
Ġman ip
Ġ čĊ
al ty
Ġpack aging
we et
Ġoverwhel med
Ġleg ally
Ġen cl
ial s
Ġlink ed
Ġh ate
Ġl in
art s
Ġsn ake
Ġfertil izer
Ġl ashes
Ġintrodu ction
h igh
he red
ul s
Ġch am
Ġexc iting
Ġassign ments
Ġr im
ep s
Ġst airs
Ġgr ant
Ġch olesterol
2 7
Ġbe verages
ove red
ath y
Ġband age
Ġne arest
Ġdraw er
ĠEn joy
Ġsh allow
Ġsepar ately
Ġrout er
Ġflex ibility
Ġca ul
Ġbank ruptcy
Ġbuy er
Ġaffect s
est eem
Ġafter n
pl ant
Ġkn ock
Ġun ex
Ġrest ing
I s
Ġp anc
Ġess entially
Ġhead s
Ġam azing
Ġgu est
Ġlicens ed
Ġrestaur ants
Ġplay s
Ġtw e
Ġgr ows
ric s
Ġath let
Ġle nd
Ġcomm ands
me ga
S et
Ġmet abol
Ġfr aud
Ġjo kes
Ġeff icient
Ġsh red
ĠS upp
Ġpass port
ul in
ple te
Ġad s
Ġtherm ometer
Ġw arning
Ġsu s
ip ts
Ġrequest s
Ġb oring
ol a
Ġle ash
Ġdirect ory
Ġpract ical
ĠOff ice
Ġbr ake
Ġhome made
Ġexpl an
in fect
Ġthick ness
Ġa quarium
Ġfe ars
Ġcomp ound
Ġsk y
Ġs ch
Ġnav igate
ĠV itamin
ĠRe al
Ġpar king
Ġw ings
ĠiP ad
ĠIR S
) :
Ġl enses
Ġsubt ract
c ific
Ġf ans
Ġcry st
Ġconce aler
i ator
pp y
Ġcomp ar
Ġattempt ing
N o
ap or
Ġteam s
Ġpill ows
Ġcon ver
augh ter
Ġtrig gers
Ġp roud
Ġun p
Ġaddress es
Ġic ing
Ġfatig ue
Ġfam ilies
ipp ers
Ġunus ual
Ġn ovel
Ġident ification
Ġtom ato
Ġsuc ceed
Ġeyebr ows
Ġtr ies
Ġres ulting
Ġdif fer
Ġprim er
Ġbre eds
Ġconsum ption
Ġpal ms
Ġobst ac
Ġtr uck
Ġroll er
Ġt ense
Ġgr amm
Ġcou p
Ġacc um
Ġconsider ation
iv ate
Ġplan e
Ġrhy thm
v able
ĠC our
Ġwork ers
Ġwhe els
Ġmon it
Ġmach ines
cour age
Ġst ool
Ġback up
Ġhy gi
Ġt iles
ub lic
A C
âĢ ¦
ĠChr ome
Ġrese t
Ġbl o
Ġprotect ed
c an
ĠT ie
Ġpass es
ag ue
ĠJo hn
f ess
Ġlist ing
Ġilleg al
Ġl ining
Ġen force
Ġsupport ive
Ġelb ows
Ġs ac
Ġrent al
Ġcleans er
Ġjo ining
Ġexper ts
Ġs en
Ġdis rupt
Ġback wards
Ġpoint ed
Ġfl uff
Ġw ig
Ġclean ers
Ġrespect ful
Ġveh icles
Ġinsect s
Ġfl oss
Ġput s
ĠD id
Ġbul k
Ġpump kin
Ġy es
Ġfam ous
Ġlo ves
Ġactive ly
Ġre ferences
Ġcrow d
Ġper f
Ġcapt ure
Ġoat meal
Ġc ush
Ġre verse
ĠD iv
Ġproduct ive
ist ry
Ġme ets
Ġpan ic
Ġbr ack
Ġbas ically
Ġart ists
Ġloo ps
) =
exp ensive
Ġm int
Ġt um
ro g
Ġrefer ral
Ġauthor ity
Ġd ots
ĠWith out
3 2
ĠĠĠĠĠĠĠĠĠ čĊ
Ġaltern ate
Ġ5 00
Ġcamp aign
Ġle ak
Ġdish w
n ormal
Ġr az
Ġsc ared
Ġstr ap
Ġcons cious
Ġch op
Ġcl og
ĠDet erm
tr l
Ġg ums
Ġdef ine
Ġaftern oon
b ur
Ġst ub
Ġde als
ĠInst agram
Ġmeas ures
Ġresol ution
Ġher b
Ġgar age
Ġretire ment
c al
Ġspread ing
Ġpronoun ced
Ġber ries
Ġdeb ts
Ġcarry ing
Ġl ad
Ġaccess ible
Ġscr ipt
ar c
be ing
Ġdr ivers
Ġrem ote
Ġmin erals
it tle
ĠOff er
nd rome
Ġpl ates
Ġappet ite
Ġn one
ĠP ass
Ġcent ral
Ġsto pping
Ġde fic
Ġsmooth ly
ir l
ut ch
ĠThe ir
fl amm
Ġn amed
Ġsib lings
Ġscen ar
Ġdisc rim
Ġtal ent
Ġrespons es
st ain
Ġcan vas
k a
Ġc yl
Ġad vent
Ġbank s
Ġadd iction
Ġset up
Ġsupport s
' .
Ġe con
ĠW orld
Ġag es
Ġbowl s
n ame
r ange
as al
Ġconcent r
r ont
Ġpull ed
Ġapplic able
c ers
ĠP aint
Ġ1 7
Ġnur sing
Ġdis miss
Ġvis a
h ouse
ĠTh ose
Ġhous ing
s m
Ġult imately
ĠH um
Ġe arth
ĠO S
Ġbr idge
ĠCont rol
Ġb orn
ĠS ystem
Ġball oon
Ġsubst ances
Ġdead line
Ġmotiv ated
Ġbr ushes
Ġcomp at
Ġju ices
Ġarg uments
Ġdis k
Ġur ge
Ġdom ain
8 00
Ġprior ity
ĠAm azon
it ivity
Ġmeaning ful
Ġco ating
ĠSp an
Ġt in
Ġp ork
Ġins pect
ĠAr t
p ret
Ġf av
Ġcheck s
ĠAtt ach
Ġl ands
Ġopen ed
Ġm uc
Ġspecial ist
ĠCons ult
Ġstraw berries
Ġexp ression
Ġroll s
Ġhe s
Ġdecor ate
li hood
Ġor ient
Ġsh iny
erm at
x id
ĠP ost
Ġatte nding
Ġbrok er
ap es
ĠB as
Ġ2 1
Ġreput able
Ġsh ipping
ĠC ur
Ġannoy ing
Ġs illy
Ġcust ody
us sing
Ġcream s
Ġrepres ents
Ġdigest ive
C heck
ud ge
Ġlead ers
Ġconcent ration
Ġtempt ing
Ġinteract ion
Ġavoc ado
Ġb in
ut en
Ġcool er
Ġconsum ing
Ġeat en
o oth
ĠD i
Ġsign als
Ġhapp ier
Ġpurch ases
ph ones
Ġex cl
Ġform er
Ġinstru ctor
Ġspeak ers
ĠGr ab
Ġsp are
ific ial
Ġconcent rate
is ters
i kes
Ġremo ver
ĠSlow ly
Ġf au
Ġl ime
Ġbes ide
Ġal ph
us er
Ġclim b
Ġintell ig
f ers
Ġbro ccoli
Ġban ana
Ġabdom en
t ens
r s
ĠT ime
Ġcirc uit
! )
Ġint ensity
Ġconf ront
D F
Ġded icated
u le
Ġc ivil
Ġdistract ed
Ġneighb ors
ĠDown load
Ġarg ue
ac co
Ġhe ro
Ġang les
Ġsandw ich
Ġup wards
Ġthe sis
Ġst amp
Ġbreast s
Ġtrain er
Ġdatab ase
P ro
es pecially
Ġfr y
Ġun h
Ġbl ame
Ġcharacter istics
Ġwash cloth
Ġver bal
Ġpolit ical
Ġhim self
ĠAcc ount
Ġequ ally
Ġattach ment
Ġtempt ed
Ġcandid ate
ĠExpl ore
Ġn ic
Ġsu ck
ĠE uro
Ġreg ulations
Ġprodu ced
s er
Ġsign ing
ĠBr ush
Ġc her
rit is
Ġbe ad
ĠI P
Ġf ant
Ġcr own
ist ent
Ġcompl ications
Ġbond s
Ġin expensive
ĠB ook
M any
Ġa x
Ġp od
ĠP ar
Ġred ness
Ġmiss ed
Ġdram atic
k er
Ġe B
Ġpat ches
Ġaccept ing
Ġf ather
Ġsal mon
Ġcool ing
H D
Ġch lor
Ġsuggest s
Ġaccommod ate
Ġcolor ful
Ġvulner able
ĠEx amples
ĠSer vice
Ġtransport ation
qu ality
os h
Ġtest ed
ĠSe nd
ĠB ack
Ġcr ime
Ġh ood
Ġh its
Ġdis app
ĠSpr inkle
p o
Ġs ister
Ġg aps
Ġaut istic
Ġident ified
ce eding
Ġlike lihood
Ġenem ies
Ġtr ace
Ġthink s
Ġround ed
ĠC ertain
ĠExerc ise
Ġsh ad
ĠAd just
n is
Ġsh ar
M ost
Ġp ills
ab ul
ĠE s
Ġ3 5
Ġd er
Ġl ace
Ġrel ate
Ġman ually
Ġreturn s
Ġru in
Ġf ret
Ġm m
Ġre ass
ĠT ool
Ġco ins
ĠH ead
id ents
l ife
Ġst ages
Ġd ot
Ġben ch
Ġm uff
Ġweap ons
Ġcand les
Ġfr ames
Ġref ers
Ġhorm ones
Ġl avender
ot t
ĠB usiness
Ġsc rape
Ġton es
h ma
Ġb ump
ĠSt ep
Ġdirect ed
Ġprefer ably
Ġoccas ion
Ġco pper
Ġmin eral
Ġbas ics
he nt
Ġw aves
Ġwonder ful
ĠE ating
Ġtable t
ry lic
Ġautomat ic
ĠC ol
Ġinter fere
act ive
in stall
Ġobject ive
W e
Ġf lying
am ily
Ġch ose
Ġbre eding
Ġfib ers
Ġi OS
Ġalb um
Ġbl ush
Ġrepl acing
Ġassign ed
Ġmotiv ation
Ġher self
hedu led
pie ce
h us
Ġhe ated
fl ow
Ġobs ess
Ġbul bs
Ġcomprom ise
S P
Ġhumid ity
D A
ĠW alk
Ġall ergy
ĠC ount
Ġw ave
ĠS erve
ĠM in
Ġcons ent
ood les
Ġexh ale
Ġsh ave
ĠP ot
Ġthor ough
ar se
Ġgrad uate
Ġb ark
Ġe lder
Ġwr inkles
Ġst ab
ĠF ree
Ġpop s
Ġhist or
Ġcommit ted
Ġins ight
M I
Ġout come
Ġquick er
Ġnegot iate
Ġspirit ual
Ġhas n
Ġgall on
as her
ĠG reen
Ġimport ance
ĠRem ind
Ġswe ater
Ġra ising
Ġpre tend
vel ope
Ġdec l
Ġmil itary
Ġrele ased
Ġrepl aced
Ġrul er
ple ment
Ġtrick s
Ġm all
Ġd u
Ġfor t
Ġcl imate
Ġcr acks
Ġteasp oons
vent ion
Ġabdom inal
Ġv ocal
Ġopp osed
Ġad m
Ġsw ab
Ġpair s
Ġtab s
g un
Ġinter ior
Ġsoot hing
Ġdivid ed
Ġconc ert
Ġrefer red
Ġdiam ond
od or
Ġeduc ational
e ed
Ġt ang
Ġback pack
Ġca ution
Ġcompet itive
Ġgr an
ĠBl ue
F i
ĠPurch ase
E ven
Ġlog ged
dr iver
ub ric
Ġstr ange
Ġcig are
Ġv ill
Ġsurv ive
Ġj unk
Ġdecor ative
Ġcowork ers
Ġcon vey
arch ment
Ġnegative ly
il ty
Ġres erv
it ations
Ġsl ower
Ġafter wards
E n
Ġadjust ments
Ġdesign ated
Ġant icip
ĠUn like
Ġdef ined
Ġunex pected
r t
Ġple asant
ro be
Ġfl atter
ĠOr gan
ĠW ipe
Ġsecure ly
ĠU V
Ġbl adder
Ġattract ed
Ġresour ce
Ġdissol ve
r um
or al
Ġen velope
B A
Ġph ase
ĠH ot
Ġincred ibly
1 9
ag ine
Ġwas her
ĠD ip
Ġed itor
Ġdep ressed
Ġbr ings
Ġmag ic
Ġis ol
im ony
Ġcont amin
Ġbr oth
ĠCon f
Ġsem i
m en
Ġtool bar
ĠUn fortunately
Ġdownload ing
Ġsea led
ĠH D
Ġport fol
Ġham mer
ĠSpan ish
Ġleg it
Ġleft over
Ġp up
Ġwhere as
Ġgener ate
Ġpick ed
Ġheav ier
Ġopt im
Ġswe ep
Ġthigh s
Ġstr aps
Ġanal ysis
Ġcheek s
ĠDeterm ine
) (
Ġcon j
ĠEn courage
U n
ĠSt ar
Ġt sp
Ġun even
oss ip
O ne
Ġqu ote
Ġhand les
col ored
Ġc ouch
Ġelse where
cript ions
Ġs ed
ob ic
Ġviol ence
iche ver
Ġco des
Ġdet er
io xid
Ġcap acity
Ġtor so
Ġrelig ion
ra vel
Ġmet ers
Ġb order
Ġr ip
Ġplan ned
Ġwire less
ĠSl ide
Ġinsert ed
Ġdos age
Ġhygi ene
o a
Ġn ine
er ia
Ġins piration
Ġspecial ized
rou p
ĠWhen ever
Ġdef ensive
Ġphotograph s
w all
in flamm
Ġsuper vis
Ġl y
Ġsh aving
Ġdur ation
k ed
re et
Ġd ermat
Ġco in
Ġform ed
Ġam b
Ġgu ilty
ĠRe view
ust ration
ag us
ĠL og
Ġz ero
Ġalm ond
Ġearr ings
Ġw and
Ġchar ity
Ġprote ins
Ġass ert
Ġsympt om
Ġintern ship
Ġbr on
Ġwrit er
i j
Ġste ak
Ġt ent
Ġle d
Ġso aking
is d
Ġoper ate
Ġalt ogether
2 3
Ġdoll ar
Ġconv ince
Ġex pense
Ġout ward
Ġfil ters
og raphy
Ġwide ly
Ġm ile
Ġcan ned
um ble
Ġdom inant
Ġac et
Ġshort cut
Ġheav ily
Ġequ ival
st orm
Ġp im
Ġin appropriate
Ġmo le
ĠH y
Ġcomp onent
Ġint est
te xt
Ġfr action
Ġrece ipt
Ġd ash
Ġlay ing
Ġy ield
iv en
Ġim per
Ġhead aches
Ġut ility
Ġinit ially
book s
ĠAcc ording
Ġbu gs
Ġfrequ ency
Ġsubst ant
Ġvegg ies
ic a
Ġadvert is
Ġcra zy
Ġan ch
reat ing
ĠDe f
Ġstuff ed
hen s
te en
Ġp archment
ĠC trl
Ġfl esh
Ġconcept s
ĠRep lace
ook ed
Ġhar ass
y ear
ard less
int erest
Ġpub lished
Ġgar ment
ĠAdd ing
Ġmed iation
Ġresp ir
Ġcontroll ed
Ġher bal
Ġtechn ical
Ġfr anch
Ġneg lect
Ġpl acement
Ġless on
Ġroll ed
Ġst ars
Ġoff ices
Ġexam s
bs p
ines e
Ġbol t
Ġhus band
re qu
re ase
Ġcopy right
ĠH and
Ġn erve
Ġ7 5
Ġm esh
Ġbr other
Ġdis infect
Ġrequire ment
Ġbatter ies
c ure
Ġsoap y
is ms
ĠM ess
math rm
ĠEuro pe
C A
fr ont
Ġcand ies
ĠSc roll
ĠM ult
Ġsa fer
Ġair tight
Ġcritic ism
so le
Ġscient ific
Ġqu ot
Ġfin ally
Ġsecure d
Ġraz or
Ġc ro
ĠG e
Ġexam ination
Ġgrou nds
Ġar ts
Ġsoon er
Ġgar bage
il k
rim p
ĠC ity
Ġbrow se
lic ation
r ich
Ġn or
Ġsh ield
ĠPre pare
Ġj ury
ĠP an
friend ly
ar i
ol ve
ĠV ol
ĠT oo
Ġprodu ces
Ġpet als
Ġfour th
f ox
ĠW omen
Ġpred ict
Ġmet er
ĠAmeric a
Ġa ward
Ġcontin ues
Ġpow dered
ÂłÂł ÂłÂł
Ġward robe
Ġcan cel
ĠG old
p ass
ĠL im
Ġspe lling
.. ."
Ġast hma
) )
Ġli ability
Ġdialog ue
ot ic
ro ad
Ġaw ake
ĠSn ap
Ġb angs
ra is
ĠInst all
Ġdistrib ute
Ġment ally
Ġexp ose
Ġant ioxid
Ġd umb
oo f
ie ves
Ġsc heduled
form ation
Ġtele phone
Ġpe ar
Ġscrew driver
Ġhous es
Ġw iki
Ġrecommend ation
ĠL ink
Ġwater ing
erm int
Ġcontact ing
Ġm ud
we ll
Ġhyd rogen
ĠH ang
Ġgl uc
Ġgl uten
Ġscratch ing
Ġpock ets
Ġout let
Ġcop ing
Ġenjoy able
Ġflo ors
! ,
Ġart ificial
Ġtim er
ro x
Ġsk irts
st ru
Ġh ug
ĠH er
Ġcal ming
Ġfre ed
7 0
Ġpro port
Ġneck lace
Ġens ures
Ġh iking
Ġout fits
Ġavoid ed
pro fit
f u
et te
Ġlar gest
Ġidentify ing
Ġbit es
Ġall ev
Ġdisc ussing
am a
acter ial
Ġnotice able
Ġview s
Ġstim ul
Ġmush rooms
Ġcu cum
Ġpro ven
Ġpro pos
Ġl ubric
Ġtast es
Ġp ause
Ġun ple
Ġbr u
Ġmar gin
Ġclim bing
Ġb ic
Ġf ol
Ġdon ate
Ġtrick y
Ġaccur ately
Ġper ce
d ry
Ġres ort
Ġinter pret
Ġnet working
ĠEs pecially
Ġappe aling
Ġj our
Ġsp ice
Ġsy ll
Ġjur isd
Ġh ay
am ic
Ġcontrol s
Ġhaz ard
Ġinter vals
Ġpat ience
cl ock
Ġp a
Ġim pl
ock s
ĠPro gram
Ġlock ed
Ġfl ame
Ġwhere ver
pr ay
Ġwh ites
ĠC olor
Ġext ensive
Ġven ue
Ġportfol io
a ple
} .
Ġt ied
ter ior
Ġn asal
ĠT op
Ġsu e
Ġappropriate ly
n uts
Ġskin ny
crib e
miss ions
ĠSimilar ly
al m
Ġcook er
ann ed
s afe
Ġsc ary
Ġsur vey
Ġpost ing
Ġten ant
Ġw ww
Ġj oy
Ġburn s
Ġkeyword s
ĠF ed
Ġche wing
Ġse es
ĠComb ine
ĠN umber
I M
ĠE vent
Ġlength s
Ġtou ches
Ġcere al
S o
Ġrab bits
Ġso fter
Ġposs ibilities
ĠSpe ak
Ġg ossip
Ġins ulin
Ġsil k
Ġshell s
Ġs orts
Ġp uff
st e
Ġmeasure d
Ġmiss ion
Ġfac ility
ĠLear ning
Ġsepar ated
Ġeval u
ke ep
Ġtr ips
th at
Ġve nd
Ġpot s
ĠN OT
ĠSk ype
Ġapolog ize
Ġrins ing
Ġt ies
Ġterm inal
Ġblank ets
Ġobvious ly
Ġtag s
ĠA C
Ġstim ulate
. ).
Ġc ure
Ġdes erve
Ġbar rel
= {\
B T
Ġim plement
Ġent hus
Ġaut hent
o ice
Ġro b
Ġguarant ee
her n
Ġtr act
Ġz ip
Ġsuggest ed
Ġdep art
Ġunple asant
Ġb ait
Ġunder wear
Th at
H ey
Ġr um
ĠS leep
red it
Ġtext s
Ġest im
ĠX box
Ġintim id
Ġbl ot
Ġbal m
Ġord inary
st ead
Ġdisc l
mon ia
ĠL ong
ĠL ift
Ġinst ant
Ġdire ctor
Ġrep airs
Ġsug ars
Ġb acking
Ġf ade
Ġfor ced
Ġdisable d
ce ler
Ġsu stain
Ġr ating
Ġinc orrect
o ly
p ot
er as
en ger
Ġprincip al
a que
f ire
ass ium
ang ed
Ġexpl aining
ĠS cr
Ġun re
Ġgroom ing
p res
Ġde odor
Ġte ens
ag s
Ġlo ving
Ġpartic les
Ġspecial ty
Ġtempor arily
A fter
em on
Ġfing ert
ugg ing
ab out
ĠN orth
Ġcomp re
ĠL LC
Ġnutr itional
Ġ Ã
Ġy ol
Ġst alk
Ġprim arily
Ġar ise
Ġrec all
other apy
Ġenjoy ing
Ġgr at
re m
Ġv ibr
ĠDr ive
Ġsy ring
Ġhold er
ine craft
Ġrest art
Ġsecond ary
Ġout put
Ġindivid ually
c orn
Ġv igor
Ġac rylic
a ft
se cut
Ġsome body
Ġit ching
Ġsm iling
Ġar th
ing u
ĠL ocate
Ġsupport ed
Ġbehavior al
Ġ,,,,, ,
or gan
ĠF ur
ĠDisc uss
Ġc el
es ome
us ually
Ġslee ves
ĠRet urn
Ġtr unk
ĠC opy
ĠP et
Ġembarrass ed
it able
lic king
Ġext ensions
Ġsn ug
ĠIm agine
Ġl u
ra v
Ġover do
Ġpur se
er ting
it als
gr ad
Ġcur ved
Ġfree ly
Ġprofess or
Ġinc ident
Ġrestrict ions
% .
Ġco ated
Ġsp o
o vers
ir able
ĠC P
Ġconf usion
Ġprin ting
Ġbull et
ĠTh us
Ġconcl usion
Ġad apt
Ġfin ishing
U S
Ġm im
ĠS af
.âĢĿ ,
o es
Ġplant ed
Ġbreed er
O K
r ist
id a
Ġbr aces
ĠĠĠĠĠĠĠĠ čĊ
Ġlast s
Ġdishw asher
b acco
w rit
Ġar bit
Ġdec ent
Ġdeterm ining
ĠAd min
Ġtraum a
om ic
Ġent it
Ġequival ent
Ġg ut
Ġbon us
Ġmuc us
ĠB reat
Ġphotog rap
Ġfold s
F ind
Ġst ere
Ġsc ores
Ġar rest
Ġt amp
Ġch apter
ĠP oint
Ġprocess es
Ġl aid
cc er
Ġret r
Ġwin ning
Ġcalc ulator
ĠD rop
Ġhand ful
ĠCh ar
Ġbacter ial
y ard
ĠG erm
Ġres ident
Ġdur able
Ġprem ium
ĠP osition
Ġoverwhel ming
w ash
Ġc ube
Ġtrans action
Ġdeal er
le vel
st ore
Ġint imate
Ġcompat ible
Ġsh ip
Ġpe as
Ġspec ify
Ġm ang
p m
ĠM ass
Ġhealth care
Ġcompl iments
Ġb ass
em ploy
Ġfe llow
co ver
ĠDr ink
Ġperf ume
Ġt ires
ay ing
Ġsh rimp
Ġadv ise
Ġsand paper
Ġsy ndrome
Ġdiet ary
Ġupd ated
Ġpoor ly
Ġin qu
Ġtr acks
Ġded uct
cher s
Ġwe ars
Ġus age
Ġ15 0
Ġnur se
Ġactiv ate
Ġjour ney
ag ues
ĠH is
Ġcere mon
ĠHe alth
Ġl ined
Ġch ill
Ġaware ness
abul ary
c ar
m ary
Ġdisag ree
Ġint ention
O ther
Ġm use
Ġcur sor
ĠâĨ Ĵ
Ġexplan ation
Ġsen ior
ĠA T
Ġbuild up
Ġwarm er
app le
ĠAny thing
inc luding
ĠD ark
ĠIn ter
inflamm atory
Ġf ails
Ġsurround ings
L et
Ġgr asp
Ġs its
Ġn oodles
Ġso ccer
Ġsp ons
ĠK ing
Ġstick ers
Ġtre nd
Ġflow ing
Ġanaly ze
ir ting
Ġdisplay s
ĠGener al
Ġsk etch
Ġstret ches
Ġworry ing
Ġshel ves
) {\
ĠAD HD
Ġneed les
du c
Ġpain ted
Ġd aughter
ark s
Ġrepe ating
n s
Ġter rit
Ġdepend ent
Ġmer ch
Ġthem es
Ġrequest ed
Ġfr ied
ĠP DF
ĠCh inese
Ġcontro lling
Ġaltern atives
Ġgen re
reg ular
Ġcitiz ens
Ġbuy ers
Ġcam eras
Ġcit rus
Ġholid ays
Ġj am
Ġtim ing
Ġcur ling
Ġmark ers
iat ric
Ġemphas ize
c he
Ġblock ed
Ġcrit eria
Ġarrange ment
Ġdr ives
ĠStart ing
Ġhur ting
! ;
t uce
v a
Ġas set
Ġbl ocking
Ġund ers
Ġgramm ar
A d
Ġpresent ed
ĠGo ing
I F
g ood
Ġch alk
Ġtub es
Al so
Ġj ail
Ġswitch ing
R E
Ġbarr ier
Ġref use
Ġlog in
con f
Ġcompass ion
Ġas h
Ġcont est
Ġent rance
Ġstraight en
ĠFire fox
l ow
Ġm ul
ĠC ert
int age
Ġpan els
Ġdefin ition
ĠSec ure
Ġcorrespond ing
Ġpl iers
ĠV al
Ġrect angular
Ġord ers
Ġ( "
enc ed
ĠReg ardless
Ġdemon str
Ġves sels
5 4
ĠEx cel
in yl
Ġg ate
ven ue
ian o
Ġtor t
y es
Ġst oring
Ġdehydr ation
Ġcabin et
Ġcyl inder
er ies
ĠT ex
Ġhand led
ĠOther s
Ġentertain ment
Ġsoci ety
el f
be at
Ġpharm ac
Ġcount s
ĠJapan ese
S e
Ġinform ed
Ġveterin ary
Ġworkout s
Ġhe l
Ġfoot ball
Ġbrace let
) .;
ĠFr iends
Ġgrate ful
Ġu l
Ġinh ale
Ġvoc abulary
Ġthous ands
ĠBe nd
Ġinv itation
Ġsw ord
Ġconf ig
S ave
Ġnight s
Ġevery where
Ġden om
ĠeB ay
Ġc ater
Ġhead ache
Ġconsult ation
in ator
Ġpres erve
Ġmar king
Ġadvert ise
Ġmill ion
Cl oud
Ġc uff
The y
Ġdrain age
8 6
Ġtw enty
Ġsl iced
Ġind oor
Ġmult i
Ġfem in
ip ation
ub s
Ġprom ise
Ġaccom pan
Ġsatis fact
ĠMus ic
Ġbol ts
o per
atch ing
Ġtit les
oll en
Ġsymbol s
Ġp ars
Ġp acking
om an
Ġfr izz
Ġse ar
Ġthr ive
Ġmill ilit
M S
c os
i ency
re ly
Ġw ife
Ġst ability
ĠIdent ify
Ġ vel
Ġforg ot
k ins
Ġsever ity
Ġiss ued
ĠReg ular
Ġban anas
i h
Ġb id
Ġl amp
ĠL ab
ree k
Ġsl im
Ġsl iding
Ġpost ed
ĠComm and
Ġfreed om
G o
Ġc raw
ĠTh row
Ġobs erv
Ġsatur ated
Ġg arnish
Ġch airs
Ġcons ists
ĠV e
Ġg ave
Ġmus ical
Ġtend ency
âĢ ľ
Ġ id
Ġte ars
Ġgu ilt
ok en
ĠS qu
ap ing
ci ent
A ll
Ġfold ing
Ġconfirm ation
3 6
Ġas pir
Ġsh all
ĠD ist
Ġcoo led
Ġpo le
Ġ3 6
iss ion
Ġlock s
ĠC ross
ĠP op
Ġsp ill
Ġcomple ment
Ġsal ary
t age
Ġexcept ion
Ġf art
Ġr ac
Ġal oe
ol ars
ĠP res
Ġprov iders
Ġsur g
Ġliqu ids
ĠMed ic
Ġcurtain s
Ġdisapp oint
Ġwater proof
ane ously
bu ild
ĠW orking
Ġbo ys
Ġins ult
ĠSh are
ĠFr id
Ġhunt ing
Ġwel come
Ġgr id
Ġreturn ing
Ġsoot he
Ġo v
Ġne ither
ĠP ol
ĠP ack
ĠH ar
ĠSu per
Ġc akes
ĠS y
pp ings
Ġno ises
ĠAltern ately
Ġantibiot ic
x x
Ġpencil s
Ġdut y
Ġly rics
Ġper m
ĠE l
ĠN on
Ġelectron ics
er ving
Ġsu ed
Ġdr ip
Ġoverl ap
Ġw arn
Ġst eep
Ġcry ing
Ġser vings
Ġreport ing
Ġcowork er
d en
Ġsh ares
Ġse ats
Ġgard ening
Ġinf ant
Ġhundred s
l ower
Ġkn ots
co pe
ĠForm at
am iliar
Ġwor ms
ĠDe velop
Ġsoak ed
Ġm and
Ġsad dle
Ġeffici ently
Ġt une
Ġcol on
Ġa uction
id al
Ġcar p
Ġam monia
Ġsex y
Ġ4 8
Ġrespond ing
Ġabsorb ed
Ġretail ers
ist ration
Ġbasket ball
fess ional
ĠC ats
Ġsil ic
Ġodd s
im en
Ġcr ushed
ĠTrans fer
Ġrepeated ly
on ym
im p
Ġpro long
Ġch ip
Ġn ative
ce m
Ġcontract s
Ġcollect ed
Ġgather ing
it ize
co al
o be
Ġconf using
Ġarrange ments
ĠA ust
Ġhead er
Ġarth ritis
Ġbuild ings
Ġdi ary
Ġlet tuce
Ġo int
ĠTh ings
Ġgu ides
Ġpig s
r ag
x ual
Ġwork er
Ġman aging
Ġdiagn osed
Ġshr ink
re ts
Ġf est
he me
Ġo val
Ġten nis
Ġearn ed
ab y
Ġfollow ers
Ġvis its
Ġkill ing
erson al
gl asses
Ġluck y
Ġp est
Ġpar as
Ġinject ion
S ign
Ġo mega
Ġm L
Ġr ail
ĠG ather
Ġpot assium
Ġfriendship s
P al
Ġcar bs
ĠRe f
Ġcolle ges
Ġirrit ated
Ġt read
Ġp el
Ġaw esome
Ch oose
Ġc ables
Ġdis like
Ġ3 00
Ġforg ive
Ġsur ge
ĠPro per
Ġscrub bing
N A
Ġtable ts
Ġcompens ation
h ab
Ġp ap
Ġfr ight
em a
she et
5 5
r ams
Ġflat ten
Ġrapid ly
Ġallev iate
Ġsyring e
st one
Ġperiod ically
at ers
Ġd ys
Ġatt rib
Ġpress ed
Ġpack ed
Ġsad ness
P r
Ġbe an
Ġde ce
ĠB ox
ag ger
Ġread ily
Ġk its
Ġinstru ction
Ġcolumn s
Ġpassion ate
Ġc ort
Ġg ly
Ġbow el
Ġgra vel
Ġdisappe ar
Ġtr acking
Ġv ice
Ġentit led
it le
ĠU lt
Ġbed s
Ġkiss ing
h a
Ġsu lf
Ġfit ting
pr int
Ġmoistur izing
Ġwe eds
Ġvent il
Ġto bacco
Ġg host
Ġor g
Ġsu icide
Ġsn ip
Ġfac ilities
ĠAc cept
Ġstrain er
w riting
ou bles
Ġfree zing
Ġreport ed
Ġvert ically
ĠComm un
I V
Ġwe ird
f all
Ġbe nding
Ġve gan
Ġmembers hip
Ġdispos able
ag ging
Ġdes pite
Ġdist ress
izz le
Ġut ens
asc ular
Ġsynt hetic
i en
ow ing
c all
Ġb atch
Ġneed ing
Ġnew er
Ġsus cept
ou l
es us
Ġl ash
Ġab usive
Ġspec ified
abor ate
Ġbrist les
h ome
m osp
Ġc ider
Ġcent ered
Ġadmin ister
Ġnumer ous
I S
Ġse iz
ĠH T
Ġinc om
Ġfit ted
Ġlangu ages
T r
Ġli es
st ery
Ġre new
Ġdisc onnect
Ġbeh alf
Ġro les
Ġtr aps
Ġs amples
Ġm it
Ġ3 2
Ġmillilit ers
e nded
ĠM P
Ġacid ic
ĠOpt ions
Ġde bit
ĠRe qu
Ġbur st
Ġinst antly
Ġtre nds
ĠQu ick
ĠM ail
Ġman e
Ġvisit ors
Ġmount ain
ear ing
Ġkind ness
Ġelect ro
Ġlegit imate
C D
n ic
Ġm ast
es ium
Ġdist inct
ĠT ouch
Ġcon e
Ġ" =
Ġbase ball
Ġr ug
Ġk il
ĠB lend
en ic
Ġl aser
Ġm ant
Ġtiss ues
Ġexpert ise
Ġble nded
Ġcontract or
Ġfig ures
Ġperman ently
j i
Ġst ance
ĠC ard
ĠW riting
ach ing
Ġpop corn
Ġoper ation
Ġnewsp apers
Ġowners hip
Ġw ar
ĠS P
ive red
Ġdi apers
ĠWe b
Ġconstru ct
Ġfeather s
Ġmod ify
Ġfr ustration
Ġtra pped
Ġpour ing
f ly
Ġun ion
ĠM em
Ġanswer ing
Ġpublic ation
c ode
f iber
Ġt aught
our s
ĠE lect
Ġpo et
Ġpen et
Ġcoc oa
Ġdiscip line
A S
E O
ch ar
Ġinvest ing
Ġtoothp ick
Ġsto pped
Ġpray er
Ġunh appy
ĠG mail
ĠV er
Ġcon sole
Ġcreat ivity
b et
Ġdec imal
Ġprodu cing
Ġappro aches
Ġview ing
ĠY es
Ġblog s
ĠA p
it ives
Ġp ans
ir ls
ce an
Ġac celer
Ġres cue
Ġser ves
Ġweak nesses
Ġclin ic
H e
Ġal ive
Ġen roll
Ġdiscuss ed
Ġenable d
Ġpu zzle
w orthy
Ġelectric ity
Ġpost er
Ġland ing
bre ak
Ġtast y
on in
Ġab normal
Ġdrag on
ĠExplore r
Ġsp ider
ĠR o
Ġpe ers
Ġsc ope
Ġair port
Ġchild hood
Ġd ump
Ġfore ver
Ġindic ator
Ġc y
le e
Ġat mosp
Ġpro ceeding
us ions
Ġtop ical
Ġreg ret
Ġcut ter
Ġ4 00
Ġcatch ing
Ġcomplain ts
âģ ¡
Ġgluc ose
ĠD oc
Ġbu nd
Ġrele ases
Ġbe es
ian ces
ĠCl ass
ĠIn vest
Ġinstru ct
omat ic
Ġex terior
Ġrespir atory
Ġaccount ing
Ġsens ation
Ġo w
at ically
Ġm ig
es tern
Ġcan s
as m
Ġco gn
ĠCh ances
Ġrep ly
Ġpsych ological
Ġover weight
Ġstr angers
Ġ ounce
Ġup s
stand ing
ĠSm ith
Ġcandid ates
Ġp il
ĠJ esus
Ġadjust ing
Ġdiagn ose
Ġasse mb
in ates
Ġenvironment al
pend icular
Ġdiscrim ination
ĠSh ift
Ġcord s
e ffect
Ġsu ited
Ġcount ing
min ute
Ġd uck
Ġfind s
Ġaut om
Ġdistract ing
T alk
Ġab ras
Ġcons erv
Ġcur ly
Ġappro val
Ġhal ves
C reate
ing ing
ter y
Ġinst inct
Ġshe d
Ġhorizont ally
Ġgr out
Ġassist ant
mark s
Ġcrack ers
ĠGl ue
b ow
i ac
Ġbe ats
Ġlay out
Ġcream y
an ing
Ġr if
Ġev apor
Ġcomb inations
Ġremed y
kew arm
ĠEvent ually
Ġp ens
Ġm os
Ġpo ke
Ġless en
Ġpack ages
Ġafford able
I C
Ġst yl
Ġr ig
ĠC lear
ĠW ashing
Ġph il
N ot
Ġdiet s
Ġwrit ers
Ġmic rop
Ġpou lt
Ġsc ream
Ġfl irt
Ġcre ep
Ġfin ances
Ġspray s
str ual
ĠP in
Ġgr ime
Ġbat hing
Ġfl ap
ĠIn v
Ġexpress ing
Ġprospect ive
Ġsuscept ible
p rodu
Ġn ipp
ĠS outh
ind le
Ġnew ly
Ġoccur red
Ġfle as
Ġgr ind
Ġrecord ed
ob ile
Ġtun a
Ġdist ingu
Ġgraph ic
Ġelder ly
gin es
Ġposition ed
Ġsqu at
ĠFe ed
Ġmetabol ism
ĠD ogs
Ġwas n
Ġm ad
Ġst ations
Ġan est
Ġv intage
Ġweak ness
ĠFin ish
Ġcush ion
ĠAc cess
Ï Ģ
Ġsc heme
ĠSer vices
Ġcontroll er
Ġass um
Ġstrong ly
Ġnutr ient
Ġdiagon al
Ġper pendicular
Ġcollect ing
Ġflo at
Ġvag inal
Ġdy nam
Ġdut ies
st ock
Ġnot ification
Ġche er
ĠTex as
Ġcal f
Ġinvest ig
Ġsusp icious
ĠBre ak
Ġfingert ips
ous es
Ġdifficult ies
Ġach ieved
ĠPh ys
Ġpepp ermint
ĠFrid ay
E S
Ġfluff y
p ower
Ġs ake
Ġm aps
Ġch ili
ĠW ar
fe eding
Ġoccas ional
Ġauthent ic
Ġb umps
an es
ĠI S
Ġwall et
ĠCour t
ĠF igure
Ġap ology
Ġpun ct
ĠJo in
Ġcos met
6 4
Ġth irty
Ġfo ster
Ġcondition ing
Ġintrodu cing
Ġh ats
Ġsil ent
Ġattempt s
Ġcamp ing
' ,
Ġspecial ize
Ġinterview s
Ġfau c
Ġalph abet
Ġw ing
Ġer ase
Ġpe ll
Ġca ut
Ġcalm ly
Ġswe ating
az z
Ġthread s
Ġresist ant
Ġp iano
ak y
Ġinstr uments
Ġremed ies
Ġn erves
Ġsubst it
D r
Ġc ues
Ġgr anted
Ġobtain ed
Ġp ond
Ġv inyl
Ġlu kewarm
i ated
pp ers
Ġaccur acy
Ġdro pping
Ġalign ed
ah oo
Ġvag ina
T S
ĠP S
Ġindic ated
Ġsupervis or
l ooking
in ent
Ġw al
Ġin n
est ed
ĠW ould
Ġcompre hens
Ġinst ances
Ġrecomme nds
Ġcontin u
ad d
ĠM ode
reat ed
Ġlimit ations
Ġindic ation
se ction
ĠG reat
Ġdress ed
Ġgrat itude
Ġmul ch
ic o
Ġpat ent
Ġdesign er
for ward
id av
Ġwr ists
Ġtrans mit
Ġlast ing
Ġpul se
Ġhun ger
Ġpart ially
Ġchar coal
Ġref res
Ġdim ensions
I P
x y
Ġkit tens
Ġstar ter
b an
Ġ _{
Ġremo ves
S p
Ġt ill
Ġo we
Ġv ote
p ur
Ġen gines
b one
Ġl umps
Ġbl ur
Ġimpro ves
x ting
Ġf ailed
ic it
ĠC ustom
Ġapproach ing
Ġcab bage
Ġobstac les
ĠFur ther
Ġnot ify
Ġfor ums
ict ed
Ġgener ous
Ġz inc
ane ous
Ġcalc ulated
b oy
Ġp ly
Ġreturn ed
Ġgre eting
Ġf ond
Ġallow ance
Ġhook s
ĠRec ord
Ġsug ary
per ate
Ġton s
Ġin ward
Ġgr ief
Ġcr unch
Ġencour aging
ĠT alking
ĠW in
Ġbegin ner
Ġbeh ave
ĠSe ek
ball s
Ġdom estic
Ġst encil
Ġbl ond
Ġvolunte ering
n ut
Ġreject ion
Ġceremon y
ĠL in
Ġfl irting
ĠAust ral
q rt
Ġimpro ved
rit ious
H ave
Ġi Cloud
Ġpars ley
Ġf res
ĠP ublic
Ġsl ides
Ġnice ly
Ġathlet ic
Ġlands c
b ra
Ġd izz
ol ution
Ġcl oves
Ġtim eline
Ġgra pe
ĠPay Pal
Ġbrief ly
Ġcel ery
pe l
Ġspe ct
Ġeyel id
Ġappoint ments
Ġw rench
oc ation
Ġ18 0
Ġsyn c
a ven
v y
ĠS atur
ĠM ot
Ġir regular
Ġseason ing
Ġan ts
Ġrel atives
f old
ul ing
Ġmail ing
n atural
Ġu ter
Ġr it
Ġk ale
Ġrep s
Ġdead lines
Ġparagraph s
Ġb ind
Ġ2 2
Ġstick er
Ġmaxim ize
Ġpip es
Ġpunish ment
t les
Ġb ust
Ġv ib
Ġres ent
ugg ed
Ġank les
Ġwithdraw al
Ġo ats
Ġst arch
ide o
Ġint act
Ġinf o
Ġd ad
ĠD ig
Ġsw ollen
Ġaccom pany
Ġthy roid
Ġhelp ed
ĠAr range
Ġfr ying
omet hing
Ġdistract ion
P C
Ġback s
ĠSo ak
Ġagre ed
ĠNet work
Ġeffect iveness
Ġnut ritious
ĠB rit
n ia
ĠA f
Ġr h
Ġup grade
anc er
Ġsepar ation
Ġconst ipation
br ace
Ġger ms
k en
Ġic ons
Ġcaut ious
Ġte xting
Ġsmo other
Ġweeke nds
Ġpubl isher
ĠR ock
Ġleaf y
Ġlicens ing
Ġst ated
ĠCan ada
ĠFed eral
Ġv ase
Ġpos es
Ġdram a
Ġvari ations
l ength
Ġc yst
ĠM ex
and on
Ġoff ensive
Ġqual ifications
Th ink
Ġhairs pray
Ġhistor ical
Ġconv in
T C
ĠS un
ĠL ow
ĠV iew
Ġpark s
Ġc av
ĠL ower
Ġcr amps
Ġdel ivered
Ġst aple
Ġdig it
Ġtrad em
Ġrib s
ĠM inecraft
Ġpe ak
Ġalong side
ĠPr int
R es
Ġpop ulation
Ġcommunic ating
Ġtack le
Ġcou ples
Ġcabin ets
Ġno str
Ġlock er
Ġantib acterial
Ġslee ve
2 9
at ched
ĠD ress
Ġoblig ations
Ġatmosp here
Ġw ishes
are r
ĠPr otect
Ġalm onds
ĠB ake
oc ol
Ġsens itivity
P l
Ġup coming
Ġthr own
Ġs on
Ġp y
ĠM ag
Ġs kew
ĠC ra
Ġreg ulate
Ġpass ive
Ġver a
Ġwh is
Ġext ent
Ġwarm th
Ġfresh ly
Ġcelebr ate
Ġb iting
Ġfocus es
ĠFl ip
Ġphotograp her
ĠW ell
Ġpast ry
ĠEm ploy
N ote
Ġequ ipped
Ġt int
ĠS chool
Ġpro h
Ġveget arian
ĠSw itch
Ġscenar io
v ascular
g ree
Ġwh ichever
Ġrece ives
ĠUn ivers
Ġappl iances
l ishing
Ġc ue
ain ed
Ġv ot
Ġbab ys
ĠRead ing
fr om
ĠF amily
ĠL aw
ĠFl or
Ġf ist
ĠSc hedule
Ġcra fting
A N
Ġr ank
ĠIt al
Ġcupc akes
ĠS uch
Ġmort ar
3 3
ict ions
Ġlawy ers
ĠS T
ĠTr im
m el
Ġl act
Ġcom ed
amb oo
Ġsequ ence
Ġbr ick
Ġimportant ly
Ġcar amel
In stead
Ġdumb bell
Ġhon or
ap se
Ġsmart phone
Ġcryst als
Ġp ist
Ġsun glasses
Ġinvest ors
Ġfulf ill
Ġagg ression
Ġepis ode
g ly
Ġbre w
Ġscal es
Ġor nam
Ġplay list
arn ess
less ly
Ġwarrant y
ed ia
Ġex empt
Ġsp awn
ĠE qu
Ġbe ard
Ġcom ic
Ġtest ify
Ġstock s
Ġlend ers
Ġsh aft
Ġcon vent
Ġrec ruit
Ġele g
Ġinstit ution
ĠAl cohol
Ġinvest igate
Ġvari ables
r ant
ro le
ĠG iving
Ġhead band
Ġgreat est
a way
Ġab andon
iv a
Ġdif f
Ġpol itely
the y
Ġcolle agues
Ġstain ed
m aking
an king
Ġequ als
Ġscr atches
Ġitch y
f oot
id th
Ġnot ary
re ement
Ġtong s
rof en
n es
t ion
ul as
Ġlight weight
Ġdisc olor
Ġnetwork s
Ġfranch ise
z ers
Ġl oy
quee ze
Ġa while
." ,
Ġbad ly
Ġimag ination
Ġback yard
m ill
ĠB at
Ġill nesses
f in
el ing
Ġtur tle
worm s
Ġvar iation
Ġantioxid ants
Ġrout ines
st ood
ro lling
Ġend or
yc les
ĠDiv ide
be red
Ġprompt s
b acks
Ġn orth
ĠOn line
Ġstub born
Ġg aining
Ġab st
ĠLe vel
rodu ce
Ġchem istry
at hered
Ġinteract ing
Al ways
r ix
reat h
Ġdon ation
Ġun known
Ġair line
Ġdeal ers
pre view
ĠK ey
Ġdisc overy
Ġaud ition
Ġfunction ing
Ġaer obic
Ġsurg ical
" ).
av ed
ĠTe xt
u k
Ġt rop
Ġprofess ionally
Ġmanage able
. ),
s in
ĠS al
Ġact ors
Ġinv iting
Ġstruct ures
ĠC a
ign ed
Ġsim ult
fl ower
o ir
ol en
un ci
up rofen
Ġcorpor ation
Ġdist illed
ĠCom p
Ġgraph ics
ĠSupp ort
Ġsp icy
ĠIt s
board s
Ġz oom
Ġ12 0
Ġphil os
h ist
Ġb ounce
ent ive
Ġro ses
Ġplan ner
Ġtrans form
ĠX P
Ġquant ity
e ge
Ġst all
Ġno body
Ġreg imen
Ġlo b
Ġsock et
Ġsty ling
Ġconsum er
Ġcult ures
Ġparticip ants
ĠC O
Ġmotiv ate
Ġguard ian
Ġch ains
Ġwe aken
Ġremind er
p d
Ġde fect
Ġdecor ating
Ġaccompl ished
ĠH ard
Ġpain ts
Ġinvest ments
Ġexpress ions
Ġquiet ly
Ġchann els
Ġchord s
ic ul
Ġst ating
Ġlist ener
Ġoper ations
t imes
ĠSt ret
Ġmar in
Ġod ors
N ew
Ġs outh
ic hes
st arch
ip olar
Ġcr amp
Ġvis ually
Ġaffect ing
ĠAd v
put er
ĠPer form
ĠSome one
Ġcur ious
ĠSec ond
Ġlaugh ing
2 1
it ors
Ġsc are
Ġopen ings
hel or
Ġcoup ons
( )
or a
Ġh oop
ĠEx pect
ĠFind ing
Ġparticip ating
Ġmen strual
Ġbenefic i
Ġhur ts
Ġpine apple
ĠExper iment
c a
sh irts
Ġtempt ation
Ġorg ans
b lock
or ge
qu it
Ġlower ing
Ġpositive ly
Ġsmooth ie
Ġrecogn ized
Ġgest ures
Ġsatisfact ion
role um
A D
Ġt ilt
Ġl adder
Ġch ap
Ġ2 8
Ġroom mate
ug ar
Ġvers a
C on
r i
Ġw aking
Ġm ites
ist ant
Ġlit ers
ĠDis ney
Ġmagn esium
p ing
il ant
Ġcentim eter
Ġsac r
Ġdermat ologist
b or
Ġl ump
ĠM S
Ġad here
Ġst ap
ĠP lease
Ġrep ay
ĠBl u
Ġtrad ing
Ġoccas ions
ĠRec ogn
ing le
Ġd ict
Ġpro s
ĠE duc
Ġliter ally
Ġaspir in
ĠCom plete
Ġformat ting
Ġfemin ine
Ġh ired
est ion
res pect
od ge
Ġgr it
Ġrest r
Ġpack s
ĠNot hing
Ġassoci ations
Ġembarrass ing
Ġgenuine ly
Ġc itation
Ġd ying
il er
up id
cept ion
Ġsch olars
s qrt
Ġg ross
ac er
ĠB ible
Ġhead phones
Ġred irect
Ġadjust ed
Ġspread sheet
R O
Ġm ug
am ination
Ġdo ses
ĠPl ant
Ġload ed
Ġtox ins
Ġl un
Ġst orm
Ġse ams
Ġfl ood
Ġbreak up
ount ain
Ġenviron ments
Ġacqu aint
4 8
I T
ĠB ig
Ġpartners hip
i ations
Ġw ary
Ġfor ces
Ġbit ter
Ġsun ny
app ly
Ġwh ipped
Ġex ceed
Ġopt imal
Ġb inder
Ġh arness
Ġst olen
Ġsh aking
Ġk et
Ġback ward
Ġstud io
Ġdiscount s
Ġelev ated
Ġbob by
Ġburn ed
ĠFlor ida
at ile
ol ine
Ġad apter
Ġfle a
Ġdeodor ant
ĠA P
Ġrele asing
ry ing
Ġtw ee
Ġinform al
Ġbegin ners
tt es
Ġr asp
Ġtri angles
Ġjog ging
Ġsubstant ial
Ġb inding
Ġcur ves
Ġspl ash
Ġfif teen
enc ing
ĠSpe cial
u ctions
Ġsmall est
Ġaff irm
Ġdistrib uted
Ġwip es
Ġgen etic
Ġens uring
Ġre he
ĠD M
Ġprotect ing
Ġply wood
Ġfl are
Ġnum b
Ġcross ing
Ġc ement
it ating
Ġex ists
ĠHT ML
Ġr ounds
Ġpers u
ty pe
arr ing
Ġassess ment
Ġp or
Ġdig its
Ġgau ze
Ġmechan ism
Ġplatform s
Ġdele ted
ĠLin ux
ĠH air
Ġquar ters
w alk
Ġsk ate
Ġag o
yl on
Ġeyel ashes
Ġtwist ing
ĠS ep
Ġle ver
Ġcour th
on ic
ch ild
Ġcl amp
Ġbl oom
Ġper imeter
te e
Ġstrip es
Ġvacc ine
Ġc er
ĠG ame
Ġdist urb
Ġ6 5
Ġspray ing
Ġfr ies
ur ation
Ġsub m
Ġaccomplish ments
Ġcogn itive
Ġcre ation
Ġenjoy ed
om ile
Ġcur ren
Ġincorpor ated
Ġwor ries
Ġclass mates
Ġsuper mark
Ġphotog raphy
Ġmanufacturer s
Ġenforce ment
Ġf et
Ġwor sen
Ġbra ids
Ġfer ment
Ġm art
ch at
ĠWear ing
Ġadministr ator
Ġb ou
Ġacc idents
Ġsol ving
st ream
ĠP ain
Ġno zzle
ht ml
Ġh ike
work ers
Ġl ids
all ic
Ġbr ass
Ġstr ay
spe cific
ĠL ife
Ġtransfer red
Ġlate x
Ġsilic one
t ling
Ġm arsh
ĠS il
Ġcommun ities
Ġrespond s
Ġsimpl est
ĠS and
qu et
Ġcat tle
Ġmy self
Ġkill ed
Ġunivers ities
O pen
b ling
ĠS queeze
Ġclin ical
Ġmicrop hone
Ġon going
ent imes
Ġfl oral
Ġdece ased
ĠL ive
Ġprotect s
ĠGerm an
Ġli king
ĠD O
Ġfl aws
ĠY ahoo
Ġmoment um
App ly
Ġsched ules
Ġw is
hes is
Ġaddress ed
Ġarm or
Ġlic enses
pe ll
Ġsc ars
Ġadm ire
ĠI r
Ġsh ame
ĠC at
Ġen erg
Ġo cean
ĠU t
Ġinit iate
Ġrecept ion
m ind
Ġth aw
Ġrec ur
Ġmain ly
ĠPr om
Ġt u
Ġs ores
en nel
Ġplay ful
Ġ3 60
ĠSh ake
Ġwiki How
ĠJ e
Ġshar pen
Ġl es
ential s
Ġtal ents
Ġbare ly
Ġaccompan ied
Ġpoet ry
on ts
ĠM aster
Ġco arse
Ġble nding
Ġdiscuss ions
Ġgest ure
Ġsimult aneously
Ġcon ference
Ġloose ly
Ġgall ons
Ġclock wise
p ace
he ld
Ġthe ory
ĠP arent
Ġfore st
Ġcardio vascular
Ġt bsp
Ġn od
Ġform ation
olog ists
Ġz ipper
Ġcupc ake
ĠA ud
ĠS und
A t
Ġto fu
Ġse ated
Ġsp oken
Ġble m
Ġsil ence
Ġfl akes
Ġhope fully
u ana
ro ck
ĠW ood
ure au
Ġarr ows
fit ting
Ġneat ly
Ġpharm acy
Ġunders ide
Ġche ating
Ġpract ition
Ġburn er
Ġexc it
Ġconsum ed
Ġl one
ĠV ir
aut ions
Ġvirt ual
Ġshred ded
ĠAf ric
u ary
Ġ ____
ac ent
Ġrad ius
Ġconfident ial
Ġhonest ly
he art
ar ate
Ġend ed
Ġinter face
Ġconf ir
Ġviol ation
ot al
Ġr ays
Ġsc am
Ġchick ens
Ġobst ru
ĠH it
Ġport able
Ġpropos al
Ġins ulation
Ġhard est
Ġinv itations
Ġmark ets
Ġcraft s
Ġprec autions
Ġmemor ize
Ġde ed
Ġche at
Ġcl utter
iz ard
Ġpers istent
Ġche es
Ġcor k
Ġart work
Ġquant ities
ĠPan el
Ġjurisd iction
S S
st ep
ĠT em
ĠE st
Ġann ounce
Ġeval uation
ĠAb out
Ġchlor ine
Ġperm its
B l
f ile
Ġp ud
ĠE nd
Ġy ards
Ġfl ats
Ġem o
Ġar c
Ġstud s
Ġhost ing
Ġped al
d on
al so
Ġdes ires
idav it
Ġw ick
Ġimm un
Ġeyebr ow
v ie
ĠC redit
Ġmust ard
atur ity
k ill
Ġfil ms
ĠEx press
ĠSh ort
ĠY e
en ers
Ġblow ing
Ġfauc et
ĠItal ian
Ġe c
Ġbur den
b in
p i
Ġint ro
ĠB all
Ġstat ic
Ġcorpor ate
Ġwh it
Ġman agers
bo ot
Ġdiv ision
Ġcart r
Ġwip ing
ograph ic
b ons
os ph
Ġdissol ved
Ġhop ing
Ġmim ic
H A
s we
Ġf iction
Ġsens es
Ġbrain storm
Ġmonit oring
5 50
h am
Ġm ats
Ġsh im
Ġel aborate
Ġgre et
Ġjack ets
Ġspin ning
Ġchart s
3 8
m bre
Ġwe ren
Ġloo s
Ġliter ature
Ġacknow led
is ible
ĠM ond
Ġbas il
Ġchar ging
Ġorgan izing
Ġcon gest
ĠE arth
ĠIn formation
ell o
Ġdig ging
Ġexte nding
Ġunc ertain
Ġvolunte ers
r ons
Ġj erk
Ġlength wise
2 50
gg y
vious ly
Ġinj ure
as ive
Ġch arm
ĠGr ad
Ġcompar ison
Ġhe ater
ĠA v
Ġpay s
less ness
Ġcred its
Ġsqu ir
Ġlog ical
Ġsh out
ĠP ark
ĠH ouse
Ġconvers ion
Ġpub lish
ga e
Ġterr ible
Ġexc uses
Ġtradem ark
1 50
Ġb ay
Ġd iction
Ġafter ward
Ġpres ents
hand ed
Ġimm ig
Ġmole c
Ġent ries
Ġexcit ement
j ud
Ġfing ern
no v
ĠB it
Ġsl ope
aph rag
Ġcrow ded
Ġguarant eed
Ġpromot ion
ĠBo ard
W ith
Ġb amboo
Ġnot ifications
ĠW arm
Ġcontain ed
Ġremain der
sc rew
Ġmoistur ize
Ġreject ed
u h
in ity
Ġw reath
Ġp om
ĠR AM
Ġ3 50
ym pt
Ġorigin ally
Ġrec ycling
Ġcustom ize
Ġcock tail
n an
., ,,
ĠH P
Ġfl ax
Ġlim iting
Ġbase ment
Ġrose mary
Ġclar ify
Ġpoult ry
act ions
Ġsk i
Ġwr ote
work er
Ġste al
Ġvary ing
Ġindic ating
ĠColl ect
Ġdis l
ĠBe at
Ġthr ift
P lace
t w
Ġnot ed
Ġmo on
Ġman ic
Ġredu ction
Ġaccept ance
Ġdescrib ing
Ġden y
ĠG roup
Ġtalk s
Ġrepresent ed
Ġgrand parent
ĠL ove
Ġach ieving
Ġrom ance
Ġorient ation
L L
d ep
Ġ |
Ġor anges
Ġcr ay
Ġstraight forward
h ale
al ine
ĠM a
t ails
Ġt id
Ġread s
Ġworks he
Ġassemb ly
m ers
Ġd ining
Ġbo iled
Ġpack et
Ġdem ands
cons cious
Ġw ounds
ll o
ol ic
ĠP V
Ġattach ing
Ġrequest ing
Ġden im
ĠWh ich
Ġsal on
Ġident ical
Ġexh ib
o king
ig er
Ġle aks
up un
Ġfin ishes
ĠSo ft
Ġleaders hip
d ers
ĠC ong
Ġbrows ing
Ġcult ural
ĠMan ager
Ġdivid ing
L e
N ext
Ġthe ater
Ġthe ft
ĠC and
Ġlight en
Ġspr ink
Ġbe verage
au nt
Ġdist ur
Ġble ed
Ġhyp ot
Ġtempl ates
Ġhes itate
Ġcourth ouse
r ine
Ġbother ing
Ġcitiz en
it z
Ġg olf
ĠS we
rou s
ino a
p ad
Ġn oun
Ġhair style
Ġprint s
Ġment or
Ġyell ing
Ġyou th
Ġattract ion
Ġgun s
r ac
Ġw ins
al og
if lower
Ġlook ed
Ġwall paper
Ġadjust ment
Ġthought ful
Ġtransfer ring
Ġflash light
Ġgrav ity
Ġd read
Ġdis pose
Ġunf amiliar
w idth
or us
ĠL a
Ġcook s
ĠĠĠ čĊ
Ġple asure
Ġintell ect
Ġcucum ber
I m
S c
de gree
Ġtom orrow
Ġpr un
Ġgre asy
Ġhighlight s
Ġcolour s
Ġr ipe
ĠS um
ĠD el
ĠAs king
Ġunderstand s
ird s
ĠMain tain
ij uana
Ġbr ighter
Ġacc red
Ġsa us
Ġapplic ants
Ġpen alty
ann el
Ġdehydr ated
Ġscen es
Ġanch or
ĠLim it
ĠSatur day
Ġh int
ic ians
Ġg y
ide press
Ġgl ove
Ġtrim ming
Ġo re
Ġcomp act
de f
B C
N S
W ind
Ġst ocking
as hed
ĠP ort
Ġsol o
Ġencour ages
ĠBel ow
8 8
P e
Ġp ic
Ġapp rais
P lay
r als
Ġout lets
Ġpre view
Ġdescrib es
Ġsumm ar
A P
head s
Ġtall er
Ġin du
Ġconstru ctive
Ġall eg
ĠâĢ Ŀ
Ġspe eds
Ġdi aphrag
ĠY og
Ġemp athy
m un
Ġm ur
ud es
Ġen l
Ġgr ace
Ġinvol ving
Ġpell ets
at ivity
Ġth irst
ill e
Ġtr oubles
Ġprefer able
pd f
l aw
Ġt ourn
Ġre hab
Ġex ec
Ġdes criptions
Ġhang er
d it
Ġcredit or
Ġinvest igation
Ġfro g
Ġseason ings
ĠInd ian
on al
et ooth
par agus
Ġch i
Ġcl ause
bre v
ver ted
Ġch ase
ĠC ome
Ġlo ads
Ġtrust worthy
or ient
pe ction
Ġcra vings
Ġdenom inator
Ġcontinu ously
Ġparent ing
Ġpet roleum
uff le
Ġcarr ot
ibr ary
g ie
ĠC or
rou nds
Ġconf use
Ġprogram ming
ĠDr ag
Ġfor cing
Ġsp iders
com es
Ġintent ions
ĠC ap
Ġgr ants
Ġconflic ts
Ġtoler ate
clock wise
Ġin fr
Ġout s
Ġcredit ors
Ġsau ces
Ġdistrib ution
hem at
c il
} {\
Ġthere by
Ġauthor ities
Ġdrag ging
osh op
g ent
Ġm oss
ro st
Ġcomp ounds
Ġsl ider
Ġasse mble
ĠD S
ĠD irect
Ġsc ents
Ġrisk y
Ġstat istics
Ġdro pped
ot ine
Ġst upid
Ġcl ues
ĠL ast
Ġevery body
Ġadv ised
,,,, ,,,,
Ġsick ness
Ġstraw berry
Ġsne akers
ĠRel ax
Ġj umps
Ġdis put
Ġsan it
orr h
ĠBreat he
l ands
z ed
Ġli ved
ĠH am
Ġmed iator
Ġdam pen
Ġsuper v
Ġoppos ing
Ġsubmit ted
Ġcl ing
Ġins erting
ĠIntern ational
Ġtrim med
Ġdefic iency
o h
Ġl amps
Ġref ined
Ġfu nding
ĠDr inking
Ġvir uses
Ġvag ue
Ġmarsh m
! !
Ġcamp us
Ġp ix
Ġcomm ission
Ġgl aze
Ġrece ipts
Ġspecial izes
Ġirrit ating
part y
/ .
c lean
Ġfl ies
Ġoccur ring
he ro
Ġsub sequ
ĠV ery
Ġintrodu ced
Ġintim acy
Ġdon ations
Ġag ing
Ġser vers
ĠK n
Ġdim in
ĠAdmin istration
Ġcer amic
= "
Ġsk im
Ġlist ings
Ġpass age
Ġsex ually
ym ph
ĠP ict
un less
Ġsince re
Ġdeb ate
Ġoint ment
ĠR ot
Ġkn it
Ġcorn starch
Ġvisual ize
Ġcurren cy
B S
Ġfart her
Ġg ast
ĠL arge
Ġg em
Ġhot els
wh ite
Ġpurs uing
Ġdiaphrag m
Y es
d ge
Ġc erv
Ġb omb
Ġl az
Ġfr iction
Ġres erved
Ġcomp aring
Ġcigare tte
Ġanticip ate
\ \
or ic
Ġl ent
Ġflo ating
Ġinsp ire
ĠFood s
m g
Ġl ing
ad os
Ġse nds
Ġreward ing
Ġfif th
âģ Ħ
B u
Ġkn ead
Ġcol ander
Ġl int
ot ch
Ġemb ell
Ġmane u
Ġmig rain
g reen
Ġaddress ing
Ġham sters
Ġinse cure
Ġbun ny
Ġpart ial
ĠTe ach
Ġster ile
ĠC ell
Ġdeterm ines
Ġshel ters
S ee
iot ics
Ġsurpr ising
Ġadvis able
ĠSt ress
Ġenjoy s
Ġcompet e
Ġto pping
Ġteen ager
Ġeleg ant
Ġcons ulting
Ġconnect or
Ġviol ent
Ġhighlight ed
B y
Ġd ense
Ġfun g
Ġcreat ures
In c
Ġunder stood
Ġlean ing
Ġdispos al
s ize
em ia
Ġste ering
Ġsaf est
w rite
ot hing
Ġcr ash
Ġthreat ening
Ġmos quit
Ġp unk
Ġd ow
op hy
Ġav ail
Ġexpect ing
E T
Ġm ol
ĠI I
Ġremember ing
Ġexpl icit
Ġseed lings
Ġcough ing
Ġshad ows
O U
Ġfor um
Ġatt acking
Ġsw ings
Ġmem br
Ġrepe ll
Ġor th
r un
Ġform ulas
Ġdist rict
Ġcred entials
c ore
Ġli ked
ĠO ld
ĠSe w
Ġappreci ation
Ġeyel ids
Ġsole ly
Ġbrack ets
Ġde er
ĠTh rough
iv ir
.. ..
on ing
Ġd ied
ĠS S
Ġstr anger
ĠJ ava
ĠChrist ian
Ġmicro fiber
Ġabras ive
c or
Ġinc lined
Ġref resh
Ġstuff ing
Ġdev ot
mind ed
ĠI ce
ĠE ast
ĠG reek
Ġgr apes
ru ff
Ġreason ably
Ġpriv ile
Ġaim ing
Ġencl osure
f a
ĠU K
Ġer aser
Ġsurge on
Ġb illing
Ġun pl
Ġagre ements
ĠTw ist
ast y
Ġcare g
Ġconnect s
ĠPut ting
Ġadvant ages
Ġfrag ile
-------- --------
Ġlone ly
S ince
Ġm ice
Ġle cture
ĠE ss
Ġref und
Ġconc ise
6 5
Ġ ib
pt ions
Ġqu art
ixt ures
Ġadequ ately
Ġfrustr ating
Ġinstit utions
Ġharass ment
} +
Ġb ail
Ġab brev
Ġbu g
Ġplan k
Ġbuild s
Ġtherap ists
Ġtor n
Ġe ats
ĠI V
Ġmed itate
Ġsear ches
ĠSP F
ĠPhys ical
Ġmat te
ĠSec ret
Ġ king
Ġa ids
ĠF ore
Ġequ ity
Ġstain less
ĠMen u
N ever
s ided
es ides
ĠT re
ir ation
Ġdec line
uc king
gg ings
Ġwed ge
ias is
in als
Ġres idence
ĠN av
r ors
Ġb ush
Ġn ylon
Ġk g
Ġcaul iflower
Ġte asing
Ġma ple
Ġisol ated
h our
Ġw ages
Ġl atter
ĠI ron
Ġresearch ing
Ġsuper vision
Ġspir al
Ġintellig ent
W hy
Ġp iles
Ġm aturity
Ġplug s
Ġflav ored
Ġpit cher
ĠMult ip
g ments
er ge
Ġf use
Ġg erm
ci ence
Ġimpro per
Ġhel met
S earch
Ġcl ippers
ĠH allow
ĠLike wise
Ġult imate
Ġconven ience
Ġmindful ness
row se
Ġheart s
Ġmount ing
igs list
Ġutens ils
Ġg am
Ġfe ces
od ka
Ġkid neys
Ġpim ples
unci ation
es ity
Ġg ay
Ġdr unk
Ġshampoo s
Ġstrict ly
? ;
w ide
Ġf ax
Ġh ill
Ġsw ipe
Ġaut h
Ġscent ed
Set tings
Ġterrit ory
Ġblond e
l og
m us
} ,
se ts
ĠP ersonal
Ġpr ison
ĠE gg
Ġins pection
erg ed
ĠEx p
Ġste er
ĠPro fessional
Ġhurt ful
Ġbrack et
Ġp ests
Ġso ph
ort ion
Ġint r
ĠH ist
Ġend urance
Ġdraw ers
ĠSt at
Ġrese mble
Ġsched uling
D own
m ons
ou red
Ġw iring
Ġb ipolar
Ġth umbs
Ġbar g
Ġtight s
Ġfight s
12 0
Ġch amp
Ġarm p
Ġtwee zers
u ity
Ġt ed
ent er
Ġan onym
il ized
ĠG ar
Ġty ing
Ġrif le
ĠT ape
Ġst ake
ge red
ĠC ode
ĠW et
Ġte as
Ġnew born
Ġgrad u
Ġepis odes
Ġwal nuts
af ood
Ġskill ed
Ġpolit ics
Ġpale tte
Ġme rely
w s
Ġsp an
Ġprofess ors
Ġuns afe
o ving
ic idal
Ġal gae
Ġsal iva
Ġdynam ic
ĠUnivers ity
Ġmon sters
ote in
Ġcounter top
Ġtub ing
Ġesc al
Ġped iatric
ĠSnap chat
Ġcr an
Ġbud s
Âº F
Ġrepet itions
Ġli ber
Ġfir ms
Ġtou ched
ĠHallow een
3 7
Ġl ux
ĠT her
Ġpr ime
Ġvers us
Ġut ilize
ĠStud y
Ġcelebr ity
Ġbrace lets
Ġadvent ure
Ġenthus i
Ġdistingu ish
) +
on n
Ġd ice
Ġd orm
am i
ĠS elf
ul pt
Ġpe er
Ġdr own
Ġdi pping
Ġinit i
Be cause
Ġdecre ased
Ġstre aks
Ġinsp ired
Ġabst ract
Ġcomple tion
Ġreg ions
Ġcour age
Ġpaint brush
Ġsh ovel
ĠO bs
Ġqu inoa
Ġearn ings
Ġlad y
l r
Ġg athered
ul um
Ġkn uck
Ġbl isters
Ġvol tage
ĠFl ash
Ġsubmit ting
d ig
Ġp aired
Ġwe ed
ĠWh isk
Ġdevelop s
Ġsimilar ly
Ġblue berries
Ġfine ly
Ġdiscour aged
S m
Ġs her
Ġlog s
Ġbutter fly
Ġknowledge able
Ġfail ing
ĠPhot oshop
ĠT er
ul ates
our ce
Ġfle e
Ġib uprofen
m bles
Ġspe cially
Ġdist in
Ġthick en
l in
he ated
Ġmar ijuana
ĠB ra
Ġlibr aries
R ead
Ġunder go
ĠK ids
ĠCom pare
G ener
ve t
um er
Ġho ver
Ġhair cut
Ġfin an
Ġtank s
Ġtarget s
Ġp aws
ĠM ary
Ġbas es
ĠMond ay
b f
Ġbe ating
gg le
Ġmet als
Ġmet allic
Ġbreast feeding
9 5
Ġto ppings
ĠT im
Ġqu itting
Ġthan ks
Ġmedic ines
Ġdigest ion
Ġpro secut
Ġsp aced
Ġcould n
Ġed ible
Ġmouth wash
Ġinterview er
Ġreflect ion
ĠCal c
ĠVol unte
ĠIS O
/ (
c ards
Ġl ane
Ġr ic
ĠRe fer
Ġopp onents
Ġoffic ers
Ġpure e
Ġnit rogen
ĠC am
Ġsp am
ci ously
Ġdes irable
Ġactiv ated
Ġ6 4
Ġign oring
Ġthy me
Ġcham ber
ĠRecogn ize
ĠSund ay
y n
he el
ĠT ravel
ul se
Ġtw ine
Ġfloor ing
ĠSc reen
Ġc asting
Ġlarge ly
Ġcontin uous
y les
Ġr ising
Ġclean se
Ġgener ic
Ġdist ances
Ġrese ar
Ġsand ing
Ġexpl oring
Ġexh ibit
ay ed
ib ble
ĠH ope
Ġstr iking
Ġinter pre
ĠPlay er
Ġins urer
Ġtalk ed
Ġtrans mission
7 7
Ġr iver
Ġr anges
ĠS D
Ġsupp ress
gg les
Ġide ally
Ġfinanc ing
pur pose
b el
Ġcr umbs
Ġsty lish
Ġfem ales
Ġcrack ed
p in
Ġc ul
ĠF ish
Ġsp erm
ĠE ye
Ġind ul
Ġtrans parent
uc ch
Ġinf est
Ġacqu ire
Ġcris is
Se lect
4 4
Ġb isc
Ġsn akes
Ġant idepress
Ġseason al
Ġpeace ful
e zing
Ġsp inal
ĠAdd ress
ĠInv ite
ympt oms
ll s
Ġpl ugged
Ġtrans actions
SA ID
Ġadministr ative
O r
P re
Ġt art
ĠP o
Ġopen ly
Ġprof its
Ġsou ps
Âº C
ĠHum an
r in
v ic
Ġmo p
Ġres erve
Ġho llow
Ġcost ly
Ġste pping
Ġdest ru
Ġunf old
Ġfrag rance
Ġrig id
Ġte ase
Ġrequ iring
Ġinstall er
Ġrib bons
Ġbac helor
O R
er get
Ġas paragus
ĠS omething
Ġcl umps
Ġk ills
our ces
Ġen erget
Ġdis respect
Ġmemor able
t ub
Ġpo inter
Ġspr out
Ġev il
Ġinh ibit
ĠSaf ari
Ã Ĺ
Ġ1 000
Ġinc ons
Ġbl ister
Ġclass ified
ĠMed ical
G ood
o bs
Ġc ass
Ġbe et
ab s
Ġmild ew
Ġhosp itals
ĠBet ter
Ġp ushed
ood le
ĠAn sw
Ġsmell ing
Ġreinforce ment
oster one
C an
Ġh ind
Ġad verse
Ġbr isk
ren ce
Ġposition ing
opt ional
Ġsoph istic
Ġb ooking
Ġpl aque
Ġreflect s
Ġblind s
ĠOb viously
A re
ch o
Ġkn itting
Ġcr ib
Ġgl ob
ĠBl ood
Ġbi king
Ġfinan cially
Ġt il
Ġr ides
Ġpre y
Ġrot ating
ĠRed uce
Ġsandw iches
estic ides
âĢĻ âĢĻ
Ġexpl os
c ycle
Ġin ac
et ime
Ġab user
ĠSt ill
Ġdi vers
co very
Ġpeel ing
Ġimper fect
Ġprolong ed
4 00
Ġ âĪ
on ly
Ġl ice
Ġex agger
Ġpr ide
Ġorder ing
Ġspr outs
ĠSm ile
ĠMan age
L A
ĠS an
ĠP age
Ġam p
J ust
ĠD ata
Ġk icking
Ġpres erv
zz les
ĠBlu etooth
al ties
te nding
ĠTr ust
Ġdy es
Ġcrop s
l aces
ist le
op hen
Ġdep ress
Ġstrong est
ĠStay ing
Ġdram atically
L E
o am
ant a
Ġdr aining
Ġcomp ression
ĠRe fr
Ġsell s
Ġprom ises
Ġcalc ulation
ĠReal ize
Ġdu pl
Ġflatter ing
ar ians
ĠG irls
ft entimes
vel oper
Ġcr acking
Ġcold er
Ġcleans ing
ustom ed
Ġcher ry
Ġs arc
ĠT ight
ĠT ax
id get
ĠA M
aw are
ĠTr ad
Wind ows
Ġauth ors
Ġa is
re y
Ġperson nel
Ġsl ipping
Ġind ent
Ġass ault
ump ing
Ġjud ges
Ġexcept ions
o z
w ill
Ġs ke
ĠT ur
Ġsk ull
Ġem brace
Ġ2 6
Ġball oons
Ġhem orrh
Ġscreens hot
Ġs ip
Ġm aker
Ġis land
pl ane
Ġfun nel
Ġteam mates
Ġview ed
Ġspir its
Ġyol k
mel on
Ġin box
Ġch ore
Ġve ins
Ġman if
Ġproduct ivity
be h
Ġcas ually
r at
t est
Ġwh ip
ĠB ody
Ġover head
Ġdecor ation
Ġbre ach
Ġcommit tee
Ġtail or
Ġmuse um
) "
i el
Ġm ate
Ġallerg ens
math bf
Ġcrisp y
Ġan swe
ĠS IM
Ġpar am
Ġdiscolor ation
b est
s chool
ve ys
os it
ust er
Ġbel ts
Ġbat he
Ġsevere ly
Ġelim inating
Ġtuck ed
a us
am ents
Ġle th
Ġtheir s
Ġbr ide
ĠÂ ¾
Ġsimpl er
Ġdiscour age
Ġcaul k
w ind
Ġbe e
id ges
ort ed
ub le
Ġaccess ed
ĠSp ir
Rem ove
d i
Ġd ensity
Ġout comes
Ġpan e
ĠLe ft
Ġtrail er
ĠRe ach
Ġloud ly
Ġsurv ival
Ġavail ability
3 4
ĠE ar
Ġpart ition
Ġadminist ered
ĠLink ed
Ġt angles
Ġc ave
ist ance
Ġv ast
Ġtrans plant
ĠCl ub
employ ment
Ġin ev
Ġpot ty
Ġob taining
mer ge
ĠCom puter
Ġsell ers
Ġcontrib uting
Ġstrugg les
iat rist
An other
Ġblem ishes
Ġanswe red
s l
ell ing
Ġtechn ically
Ġrepresent ing
Ġoverl apping
ĠTool s
g ling
Ġg ems
ge l
Ġref lex
Ġrese mbles
Ġloss es
Ġang led
ĠC y
Ġart istic
ph ins
Ġvers atile
ĠSim ple
ĠHold ing
Ġsou l
Ġâ ħ
ucch ini
2 6
Ġkn ob
Ġoff ense
Ġreview ing
Ġuncom mon
ĠScr ub
Ġenerget ic
it ched
ĠF il
Ġco il
amin ophen
ĠGr and
Ġunf air
Ġgloss y
Ġmarin ade
l ink
w ar
Ġv odka
ĠM ich
ĠSt reet
oth y
Ġdecre ases
Ġgear s
ĠT om
ur ities
ĠC oun
ĠL ooking
Ġmob ility
Ġmuff in
Ġproh ib
Ġad j
Ġver ification
Ġperfect ion
by e
Ġult ras
Ġwond ering
Ġcomprehens ive
Ġp aw
Ġal oud
ĠW est
Ġgl ad
Ġsal ads
Ġsw ap
nd ant
aw ai
fl ix
Ġfall en
Ġour selves
ĠBr own
Ġadvertis ements
Ġqu ad
ĠLe an
Ġinject ions
ĠBas ically
b at
ig an
ĠC T
Ġfun eral
Ġrout es
se mble
Ġbottom s
Ġachieve ments
Al though
Ġcere als
amb ling
ĠBrit ish
A A
m p
Ġa est
Ġc ous
Ġto ner
un ger
ĠK indle
Ġsocial ize
ffe red
ĠSp ot
Ġsport ing
ar get
ie vable
Ġstr ive
Ġcarr ied
Ġmask s
ĠSk ip
Ġvirt ually
ĠD eep
Ġpr ize
ru its
Ġclear ing
co at
Ġhabit at
Ġflight s
lim ited
Ġmas hed
N T
c olor
Ġl oses
âĢĿ )
Ġfoot age
Ġcompet itors
Ġpubl ishing
effect ive
Ġdizz iness
c up
m es
n ity
is p
Ġbe aring
ĠT oss
Ġsp ills
ĠR uss
ful ness
Ġacc ustomed
Ġfin ance
ĠPhot os
ric ular
Ġinvest ed
Ġflu ct
Ġrent ing
Ġsquee zing
Ġelectro ly
ro ach
Ġgo ggles
ĠJ an
Ġleg umes
ĠOr der
Ġstret ched
ĠSm ooth
Ġthreat s
Ġadvis or
ĠA ff
ist ing
Ġhigh l
aste red
Ġport s
l ining
Ġrhy me
Ġconcentr ated
^ {\
p ill
Ġw arp
it a
Ġso aps
ĠB en
Ġsc ulpt
per t
Ġshe ars
Ġcoord inate
Ġparas ites
he lp
is y
Ġst air
ce eds
Ġle ggings
Ġch illed
Ġwe ave
ĠO lder
Ġtest imony
ĠSet ting
Ġwed ges
Ġconvin cing
b ound
Ġp ry
ast ics
Ġarr ives
Ġdefe at
Ġph osph
Ġfir ing
Ġrece iver
Ġpost ers
Ġpattern ed
Ġp esticides
ir s
ĠB esides
Ġtext book
Ġexcess ively
Ġcra ving
ugg age
Ġcross ed
Al tern
Ġvir al
Ġdepos its
Ġassert ive
u gin
ep ad
Ġsl ots
Ġprom otes
Ġver bs
Ġrot ation
Ġc ycles
Ġor dered
Ġdo ck
el ess
Be fore
ĠSoc iety
Ġdiction ary
ent ine
Ġout lined
iz on
Ġcre ases
Ġrun ny
Ġgain ed
ĠTe chn
Ġpe ach
Ġdis aster
Ġexfol iating
Ġsin us
Ġtext ures
Ġneg ativity
ĠSh op
ĠCon st
Ġcontamin ated
h tt
Ġse gment
ĠO ftentimes
av ailable
Ġcre w
Ġsn iff
Ġcommunic ations
Ġintellig ence
c ard
ad ed
ĠTh ree
ever al
Ġloc ally
Ġes oph
Ġcontrib utions
Ġeffici ency
Ġvigor ously
A c
Ġd owel
Ġg ig
Ġst aring
Ġadd itives
Ġman aged
Ġmind set
gan o
Ġmel ts
Ġtail ored
Ġconduct ed
icular ly
Ġvend ors
Ġlent ils
% ,
P M
Ġe ast
out hern
ĠN atural
ru g
con nect
r d
ĠF it
ĠR aise
Ġut ilities
Ġpossess ion
ac c
Ġse asons
ook s
ĠL ightly
Ġmagn et
ĠDisc ard
Ġventil ation
n on
el ve
Ġapplic ant
Ġfore arm
Ġmaneu ver
k m
Ġre n
ac le
ĠM r
act s
Ġappear ing
Ġfact ory
Ġdel iber
Ġstitch ing
Ġsurround ed
Ġmal es
O h
a pped
f ill
or p
Ġtr ays
ist a
Ġj un
ĠD ue
ĠH IV
Ġ2 50
Ġbar be
Ġworks h
Ġrespect ively
Ġcongest ion
Ġembell ish
Ġsho ots
Ġbath tub
Ġbat ches
Ġcircum ference
Ġmechan ical
Ġuter us
Ġd ive
Ġab road
Ġover d
ĠTry ing
uck s
Ġobject ives
Ġur inate
Ġsatisf y
Ġexfol iate
Ġcham omile
ĠCra igslist
ast ers
Ġspecific s
Ġbud dy
Ġremind ers
Ġstation ary
Ġl uggage
ic an
Ġkn ew
Ġdis abilities
Ġbl az
Ġ2 3
Ġemb ro
ĠPV C
Ġ iv
Ġpass ages
Ġfast est
Ġappreci ated
ĠF resh
Ġside ways
lic ations
Ġmanip ulate
ĠUlt imately
A nd
Ġr ats
ĠP ract
ick ets
Ġhair line
Ġunder t
Ġfre el
: \
it udes
Ġcan cell
Ġse afood
Ġgl ands
Ġdisplay ing
Ġstim ulation
Ġin ability
Ġh ack
ĠL G
Ġhard en
Ġdiam onds
Ġnur s
Ġcryst al
F ile
en a
ab ies
Ġlim bs
ĠSl ice
Ġtun ing
Ġconfig uration
re ls
en g
Ġl bs
Ġcan al
Ġdry wall
ĠDr agon
ĠAustral ia
G ive
f ield
f ruit
z ema
Ġn ation
ast ed
Ġinv al
Ġinv ited
fer ably
ĠPl ug
Ġinfl amed
Ġteen agers
Ġmis under
Ġresol ved
Ġhaz el
Ġpul p
r ated
z ym
Ġt ug
Ġo ve
op en
ĠCh apter
Ġear ning
Ġestim ated
ir i
ĠL ic
Ġanti hist
ĠStand ard
Ġbund le
4 7
ing ly
Ġf aced
cr ast
arr iage
Ġrad iation
ĠPlay ing
Ġnipp le
f unction
at is
se ed
ain e
ĠD a
Ġsl ack
Ġprof iles
Ġref uses
,,,, ,
Ġpsych ologist
ĠVis ual
Ġpud ding
e an
Ġg aming
Ġcertific ates
ĠOut look
ĠFeel ing
grad uate
Ġlaz y
Ġd and
if ted
Ġam pl
iver se
Ġfear ful
th rough
ious ly
Ġaccount able
Ġscreen ing
Ġneck laces
Ġaltern ating
Ġprior ities
Ġblo ating
Ġsu ing
Ġ( âĢľ
Ġref rain
Ġfull er
Ġdraw s
Ġelev ator
Ġdemand ing
Ġtutor ial
O M
ĠP en
Ġ2 7
Ġref ill
Ġhaz ards
Ġwe alth
ol er
ĠR oman
ĠAl most
Ġsal ts
Ġpow ers
Down load
r ad
ĠWi i
Ġfav our
Ġconj unction
Ġdepart ments
p orts
w ax
Ġp us
ail ing
oy s
Ġpot ting
Ġpublic ations
dom inant
Ġsubs cription
b ought
t alk
Ġm ash
Ġcl ue
Ġkn ives
Ġres c
Ġag rees
ĠCh oosing
ĠV ideo
Ġz ucchini
Ġencourage ment
Ġload ing
Ġdil ute
Ġinc ur
orm ally
Ġind irect
ex e
Ġcounsel ors
Ġvacc inations
Ġclar ity
Ġretr ieve
conf idence
Ġnurs ery
en ne
Ġend less
uc ent
Ġcopy ing
Ġpad ding
Ġpanc akes
H i
ĠT itle
Ġr anging
ist ur
Ġsp a
ĠSe ason
Ġreason ing
por ary
Ġfro gs
Ġforgot ten
Ġst are
Ġal imony
ĠC old
Ġcr ank
Ġwood s
Ġagg rav
Ġtact ics
M an
r ays
Ġ Î
am ines
ĠL uck
ĠPop ular
Ġconserv ative
P N
c licking
Ġw avy
le g
Ġbr ittle
Ġwild life
ĠDes ign
Ġcoup on
Ġfung us
3 9
E dit
h ole
Ġmod est
Ġalcohol ic
Ġtur meric
Ġadopt ed
Ġdev ote
Ġendor phins
R I
ot y
Ġad ren
op ath
Ġsand als
Ġengage ment
Ġrestrict ed
om nia
Ġcomp artment
Ġwin ner
Ġdrain ed
Ġintimid ating
Ġvibr ant
U p
ad vant
Ġso fa
Ġlove ly
Ġemphas is
Ġhe n
est one
est ones
ĠP sych
Ġcomb ining
upun cture
( (
P ay
f acing
Ġsh ifting
Ġwe ld
Ġwater melon
Ġaccommod ations
ĠRequ est
Ġchap ters
Ġm astered
Ġl ymph
Ġte e
Ġread ings
Ġplan et
Ġra ises
}} \
ĠEurope an
Ġcass er
L O
T A
ĠF our
Ġfl aps
Ġro ads
Ġcond ens
ĠApp lication
Ġtrad itionally
L og
g rounds
} =
ĠI ll
ĠB ad
ĠE aster
Ġdr ipping
Ġcop ied
Ġmagn ifying
Ġpean uts
Ġroast ed
Ġproport ion
Ġrit ual
g iving
Ġ( $
Ġqu e
Ġperson s
Ġrec re
Ġform ulated
Ġdry ness
Ġparent al
Ġsol vent
ĠSh ould
ffe inated
ĠMed ia
Ġreserv oir
Ġsophistic ated
P D
st ar
ĠD I
Ġbl ues
Ġbel ieved
Ġshut ter
Ġpoll en
Ġquot ation
ing es
fe ed
Ġregist ry
Ġseiz ures
Ġsubsequ ent
S he
Ġl ately
Ġne ur
Ġsp aring
ck now
Ġfill er
ĠPe el
Ġpassword s
Ġexpress ed
Ġtread mill
Ġmant ra
Ġintellect ual
i ences
Ġre boot
Ġst ing
ĠB ro
Ġcar ries
Ġprov ision
Ġsal ty
Ġsubst rate
Ġfunction al
Ġemb ed
Ġmoder ation
Ġbull ied
ĠStret ch
ĠEduc ation
E G
ment al
ĠL ocal
Ġtw elve
Ġsec uring
Ġmind s
head ed
Ġarg uing
Ġsumm ons
Ġcigare ttes
ĠLinked In
Ġform ats
Ġban king
Ġretail er
Ġvom it
ĠYe llow
s ome
Ġcan e
Ġsu ffered
Ġr amp
ĠJ ack
uc cess
Ġf umes
ĠS ure
Ġco aches
Ġcont em
Ġro y
we ed
Ġdeal t
Ġra is
Ġcalc ulating
Ġmir rors
ĠNet flix
Ġinn oc
p ical
u zzle
Ġw asting
Ġl on
Ġl en
Ġre venue
ong s
Ġapp arent
ĠPro cess
ob ody
ĠY ear
Ġtarget ed
Ġpoison ing
Ġtrop ical
U sing
ond ition
Ġca res
Ġencour aged
Ġsuper ior
ĠNew s
Ġv est
Ġqu ail
Ġmel ting
ĠRep ort
Ġaccred ited
g on
in j
Ġb oun
Ġd ies
Ġg aze
ut y
av ings
Ġro asting
Ġskin s
Ġarr ay
Ġdisp ens
pres so
Ġw ines
Ġu mbre
ĠC oc
ult s
Ġcomm a
Ġgel atin
Ġnic otine
R A
b ones
Ġc ycling
Ġcar b
Ġsens ations
Ġmor al
Ġrandom ly
Ġsu cc
Ġhome own
Ġdep r
ĠDe lete
Ġvol unt
Ġchat ting
Ġscrap s
Ġspell s
g ot
l ux
Ġr acing
ĠO ur
Ġmon ster
Ġsal ine
sh ield
Ġcompl aining
Ġbra kes
Ġannoy ed
Ġstruct ured
Ġt ails
Ġsh in
il itate
Ġsp ont
Ġdefe nder
Ġpip ing
Ġultras ound
b ag
se y
Ġbec ame
Ġown ed
io let
ask et
Ġant is
Ġfig uring
Ġmas king
Ġsaus age
r own
Ġt ens
Ġg ains
ĠW estern
ĠU ber
hes es
Ġaccess ory
Ġant ivir
Ġtrain ers
Ġforg iveness
Ġsnug ly
8 5
b ro
Ġn our
ren gth
Ġcor re
Ġwarm ing
Ġhor n
Ġarr anged
Ġsem ester
Ġstyl ist
ĠFurther more
Ġsubm erged
it ated
irc le
um per
Ġv oid
iz able
ĠR ad
Ġsuff ice
ĠInc re
f o
v an
Ġm ine
Ġe ager
Ġsp acing
Ġfo ll
Ġsk ipping
Ġappe als
arr ow
Ġprob ate
Ġconsum ers
Ġden ied
Ġalign ment
Ġben z
6 6
O N
k top
en gers
ol ving
Ġexp osing
Ġsun flower
Ġmod ified
Ġterm ination
Ġpig ment
Ġclim ates
Ġclin ics
Ġnap kin
Ġdil uted
r ator
} \
re f
Ġo ct
Ġnot icing
Ġjud ging
Ġtor rent
Ġbroad cast
Ġbes ides
Ġcraw l
Ġpunct uation
c ro
l ass
Ġtr iple
Ġgr inder
Ġthreat ened
Ġtan ning
h o
Ġg ren
ol ored
Ġpo pping
ĠLe aving
Ġexte nds
Ġestab lishing
Ġpenet rate
Ġd iced
ĠF iles
ĠB al
Ġrel ation
ĠCh art
s on
Ġh inge
ig e
Ġ7 2
Ġbond ing
ĠAccording ly
Ġstap les
Ġtid y
Ġw ander
ay enne
Ġr ou
ĠW all
Ġqu iz
Ġroll ers
ĠSp ace
Ġdiagon ally
Į ĺ
ne a
Ġconsider ably
." ;
Ġ5 5
Ġpract iced
Ġill usion
Ġperce ived
call ed
b ate
l aws
Ġl ake
Ġchar ger
Ġbar king
Ġsuff ici
ĠInc orpor
ĠInc rease
Ġcheap est
j ob
Ġp hen
ĠO cc
Ġadopt ing
Ġreve aling
Ġfant asy
< /
og ram
Ġarbit ration
ĠW ed
ĠL ie
Ġcle ared
Ġcontin ued
ik a
Ġtransl ucent
se ct
Ġen zym
cl osure
Ġfat al
ateg ory
ĠRun ning
f inger
Ġt ighter
Ġl ure
ill as
Ġup hol
Ġsl ipper
Ġlong est
Ġshe ep
als a
Ġlo af
ĠEx cess
cl aim
Ġtrust ee
) *
S pe
u itive
Ġs aves
Ġatt ire
Ġtest osterone
ĠAn imal
Ġmat hemat
Ġdip l
Ġul cers
! ).
e ye
on ia
ic oster
Ġab used
ĠC reating
ĠTh ank
Ġest rogen
Ġguard ians
Ġbored om
Ġger b
w hen
ot onin
ton es
Ġcal ves
Ġdraw ings
Ġz ones
ĠMass age
P ut
nd a
ar ger
ĠS everal
Ġes presso
Ġshort ly
Ġpol ished
ĠHe art
In stall
ĠPre ferences
Ġtick s
Ġbi ological
Ġsne ak
Ġwis dom
ĠMultip ly
Ġcl utch
Ġdes perate
ĠAl ong
Ġinv isible
Ġaff idavit
ĠSpe cific
Ġelig ibility
Ġgrav y
R eg
Ġc ows
oo ps
Ġshow ers
Ġob esity
Ġca f
pr il
Ġimprove ments
ĠWe ight
Ġadminist ration
Ġtime ly
Ġgr ated
Ġlif etime
ĠSh aring
Ġfast en
Ġbreed ers
Ġrev ise
Ġhazard ous
h ire
Ġre vers
ĠB est
ater al
Ġinter val
Ġir re
Ġgen ital
Ġinqu ire
Ġcitizens hip
ĠHope fully
Ġm erc
an o
ĠI M
ie vers
Ġover board
ĠL o
Ġswe ets
ĠApply ing
Ġupload ed
Ġal k
Ġdis advant
Ġqu een
Ġaccount ant
Ġinf ants
Ġgroc eries
Ġore gano
1 80
a ver
im m
lud ed
Ġgu ards
Ġrun ner
Ġret reat
Ġpol es
ĠMe et
ĠFollow ing
Ġtun nel
rol og
ĠMo ving
ĠSep arate
Ġr is
ĠC ast
pr otect
Ġcalc ulations
Ġhonest y
ĠSk in
Ġsettle d
ad ian
ove ls
Ġapplic ator
Ġur inary
Ġmother board
Ġalb ums
âĢ¦ âĢĿ
Ġbou quet
Ġoff set
get s
Ġball et
Ġsun burn
ok ed
Ġpron unciation
Ġcrab s
Ġb room
ult ure
Ġmin ced
Ġrep rodu
Ġspecific ations
Ġgen res
Ġsuffici ently
t or
ĠC ool
Ġv amp
ip her
ĠR out
Ġapp rent
Ġfl ows
ract or
Ġreact s
ĠMess enger
t ip
Ġan emia
Ġr ugs
ĠB ureau
ĠEx amine
Ġcontin ually
Ġsens ory
Ġstrengthen ing
person al
Ġobstac le
Ġsher iff
d rop
Ġrest s
Ġleft overs
Ġhorm onal
Ġincreasing ly
Ġtact ic
Ġl inger
Ġre use
Ġpresent ing
Ġauthor ized
Ġunc ons
Ġsweat ers
Ġbe gan
pe lling
Ġpre cious
ĠQ ue
Ġseal er
Ġvictim s
Ġfond ant
ul ent
ĠP O
Ġbr icks
Ġbl ess
ĠN ight
Ġbet ray
Ġdet ox
Ġprom inent
ĠNe ed
Ġdecre asing
Ġstab ilize
Ġdisappoint ed
ĠNav igate
Ġwith hold
ĠS pl
ul ators
ol ves
Ġexp iration
Ġequ ations
Ġexplain ed
De pending
Ġfav ors
writ ten
ĠWashing ton
ĠL ord
ĠL ibrary
Ġam end
Ġent ers
val uate
Sh ow
Ġconver ted
Ġpil ot
Ġfres hen
res istant
ast ically
Ġpe eled
Ġpull s
Ġanim ation
Ġrepresent ation
Ġfix ing
Ġec zema
A llow
ast s
av ior
Ġcomp ly
Ġput ty
Ġlot ions
Ġswe ats
not e
ĠCom mission
Ġconsult ant
Ġfulf illing
g ame
Ġac ute
Ġdes ert
Ġpack aged
umb lr
Ġfer ret
Cont inue
Ġmand atory
E M
Ġc ages
em ail
Ġun install
Ġdr iven
Ġsym met
Ġpair ing
Ġweak er
Ġimpress ive
Ġcoo per
cal orie
Ġpel vic
x ic
Ġbath s
Ġrefriger ate
Ġtransl ate
Ġfract ure
Ġpharmac ies
6 7
Ġup gr
ree ze
Ġplan ks
Ġant ique
Ġtra it
uls ive
Ġattrib utes
Ġinac cur
ĠB rowse
reat ening
ĠDr ain
Ġhur ry
T ell
Ġto en
oth s
cr ow
ats App
Ġpersonal ities
Ġill ustr
Ġexec ute
f are
Ġb ows
Ġan ten
oc ated
Ġany time
Ġpr icing
Ġimp aired
Ġsl it
ock et
Ġspeak s
Ġnarr ative
Ġincorpor ating
Ġacqu ired
ĠâĨ µ
Ġvend or
Ġprun ing
u a
Ġre el
Ġad ject
Ġcomp osition
ens itive
Ġmy th
Ġmodel ing
gu ard
O ut
Ġre cess
ĠB B
Ġ9 9
Ġund o
Ġjealous y
Ġscenar ios
) }
P ress
Ġpl umb
Ġout look
os c
omet ers
Ġcoll abor
Ġhumid ifier
Ġswallow ing
Ġspo il
p ay
ĠT erm
Ġun used
Ġgr illed
Ġwa iver
cl ip
Ġsqu ats
iot ic
Ġtodd lers
Ġencl osed
Ġworkshe et
Ġsparing ly
ot hed
Ġli able
ĠB le
ĠO h
pl oad
Ġsec rets
Ġfly ers
Ġcapt ion
ĠProgram s
Ġs ap
ĠT od
Ġup front
Ġnon profit
ĠWith in
Ġrefer rals
Ġarch ite
Ġtamp on
Ġling ering
O ff
Ġle ague
Ġhas s
Ġday time
ĠRes p
Ġweb page
bal anced
Ġengine ering
Ġow ed
Ġconvent ional
N ame
Ġst roll
Ġne u
Ġcont ag
Ġwho ever
ors hip
ĠSe al
unt u
Ġbread s
Ġfert ility
ĠDM V
Ġf t
Ġr ises
ĠM uch
Ġpe g
Ġinter vention
Ġcool s
Ġappro ve
Ġpim ple
Ġperce ive
b i
Ġad ap
ĠAd obe
Ġprop osed
Ġr ational
ect ion
ĠWh ole
Ġve in
light s
Ġprior itize
Ġox id
ept ic
ilant ro
al istic
Ġcomp ressed
Ġins ist
ĠK it
Ġincre ments
Ġver se
Ġprompt ly
Ġbelong ings
Ġlandsc ape
M e
w orth
Ġp orn
im ental
Ġfl ick
hes ia
Ġbu zz
rop h
ĠPr ior
Ġ iod
ĠD J
Ġcl asp
Ġval ued
Ġass uming
Ġmy stery
ĠIs land
Ġven ues
ĠHist ory
U s
o pping
Ġf onts
Ġst aining
ro ot
Ġsp it
Ġgo at
Ġtour ist
ĠYog a
Ġpediatric ian
Ġl ig
Ġfl aw
Ġcond om
ret ion
Ġmusic ians
Ġaccum ulate
0 8
Ġw arts
Ġp arr
al igned
Ġn ude
ĠA cknow
Ġunder graduate
Ġent ity
Ġview ers
let ter
12 5
ĠSm oking
icy lic
orient ed
Ġf el
Ġsu icidal
Ġal ien
Ġpe e
Ġam ple
ĠV ar
Ġtow er
Ġstream ing
ĠHD MI
Pe ople
o ch
x iety
Ġp ouch
all ows
Ġnot ices
Ġstr ikes
Ġpersonal ized
Ġslow ing
Ġadjust able
Ġten ants
Ġsued e
P I
l a
Ġf ired
ĠS ymptoms
Ġbl ouse
âĪ Ĺ
A cc
à ¤
ĠM arch
Ġdown wards
omet ry
Ġloc king
Ġcam ps
Ġabsor ption
Ġrod s
Ġt ant
ĠA pril
ĠW alking
Ġj azz
Ġsp ike
Ġen amel
ĠWh atsApp
Ġshort en
Ġfac ilitate
Ġtrig gered
ĠZ e
Ġprincip les
Ġt aut
Ġpro crast
ĠH awai
ĠR ose
Ġbro ke
Ġworth while
Ġpath s
Ġdra fting
Ġcompens ate
l ied
Ġc asing
Ġl atch
if iers
Ġdr izzle
ĠB ull
ag o
ĠE v
ĠG en
Ġref lux
Ġpopular ity
Ġnav y
Ġprem ature
Ġr aces
ĠM al
ip er
Ġen ables
Ġgl ued
Ġpay check
Ġabs ence
Ġacet one
ĠSpir it
Ġb om
or se
Ġl ou
Ġl aces
Ġn aked
Ġnot ch
Ġcard stock
hy l
Ġbleach ing
ĠUnderstand ing
Ġash amed
ĠLG BT
m ake
or ize
Ġn ick
ĠT H
am as
ĠD am
ĠĠĠĠ čĊ
Ġgu ided
Ġlim b
uc aly
Ġrepl en
Ġpu zzles
Ġrepet itive
Ġrestr aining
ucaly pt
Ġt ro
Ġe ll
Ġle aking
ĠF ound
vent il
ont in
Ġl an
Ġre build
Ġ( -
Ġremo vable
fr ame
ĠSim s
Ġrecogn ition
ĠInd ivid
Ġhop es
Ġpermit ted
Ġthous and
D S
F ollow
Ġw orthy
ĠIm pro
roid ism
es ame
Ġd unge
ix ed
Ġdi verse
Ġtraum atic
Ġfant astic
Ġphilos ophy
ĠGrad ually
Ġh atch
ĠW as
Ġfeed er
Ġz ig
ustr ial
Ġofficial s
Ġshim mer
R ec
Ġs que
op ard
Ġstat ute
Ġtort illa
Ġpractition er
Ġ( .
Ġte ch
Ġz est
ĠInd ia
sor iasis
Ġwise ly
st ring
ro ke
ce nding
ĠC licking
ĠM ic
Ġwr aps
ĠCh ina
Ġman ners
Ġdirect ors
Ġdef enses
Ġtrad ition
Ġmount ed
Ġmultip lying
Ġpred ators
Ġcomed y
Ġembro ider
a fter
st art
ĠB aby
Ġpers ist
ans ion
Ġdr ains
Ġcomm er
Ġsn aps
Ġobs erving
Ġexhaust ed
Ġg iant
st ones
Ġnot ified
Ġover se
ign ment
ĠN obody
Ġdec ides
Ġpass engers
Ġair craft
ung al
ĠAut o
Ġavoc ados
Ġwig gle
ucalypt us
A ny
c le
on i
Ġre pt
ĠT uck
ke ys
ab ling
ĠP ur
Ġche f
Ġins omnia
ath on
iss ions
Ġcommit ting
Ġpsych iatrist
Ġproceed ings
Ġpron ounce
Ġoccup ied
p ic
Ġso cially
ĠB ur
Ġpass ions
Ġair lines
Ġpick s
Ġfamiliar ize
Ġket tle
Ġm ous
Ġout going
ĠP ron
Ġdi agram
Ġsteam ing
Ġresent ment
Ġsupermark et
he ating
Ġte aches
Ġsc arring
Ġback st
Ġrest room
Ġband ages
Ġvigor ous
ĠAT M
onn aise
ĠAnsw er
Ġw est
Ġl acking
Ġn u
Ġr ake
Ġdist ant
Ġsepar ating
Ġrat ings
Ġpsych ology
TS D
ĠJan uary
Ġin her
ĠT arget
us ively
Ġv ents
ĠN ut
pr ints
Ġrespect ive
stick s
Ġrect angles
Ġcoord ination
Ġcartr idge
. {\
C all
f illed
Ġm ason
ĠP ub
Ġdes cript
ost ic
de pending
here nt
Ġsight s
Ġlin en
Ġmart ial
Ġdisput es
Ġf ool
Ġex ch
ĠC ost
Ġwor m
ĠL ED
Ġimp ressed
Ġser otonin
Ġmy ster
Ġsound ing
yc led
Ġvo ices
Ġboil er
Ġindepend ence
ias m
Ġstere o
Ġp umps
Ġperspect ives
Ġyol ks
S ometimes
l iness
Ġf ixtures
Ġl amb
Ġat e
ci ple
Ġattack er
Ġacet aminophen
Ġfol iage
Ġcav ity
6 00
Ġis olate
am ble
ĠG ames
Ġiniti ative
c ooked
s k
Ġinc l
ĠL ock
Ġcons on
ĠJ une
Ġnight time
Ġaccept s
umb ling
ĠMore over
J o
S im
Ġo ste
Ġb ik
Ġf oul
ĠTh anks
ĠH as
ĠCh anging
anc ial
Ġwind shield
Ġresid ency
Ġcroc he
ĠPhot o
Ġath lete
C ut
c ings
m ar
s uit
er ning
ort hern
ĠD NA
Ġhome less
Ġla un
Ġmold s
Ġtou g
Ġrepay ment
Ġg own
qu al
Ġreg ional
Ġcater pill
Ġhighl ighter
E very
Ġfr inge
ge nd
Ġsol ar
Ġ8 00
Ġpad dle
Ġmerch ant
" ;
Ġn asty
ĠI T
Ġr ated
Ġgl uing
Ġcare ers
ĠCom pl
Ġliqu or
ĠDes pite
Ġw rest
Ġpl atter
Ġj ot
th ink
Ġpet ting
Ġbright en
ĠSign s
Ġdessert s
Ġreass ure
i ol
Ġgr inding
ne um
ĠRe lease
ĠRem oving
mon th
ĠPro ject
Ġexplain s
Â ½
Ġ 00
ĠS ound
Ġpro pr
ĠL ittle
Ġbl unt
mediate ly
ĠBl ock
Ġintention ally
P oint
W rite
es an
Ġl amin
ĠM c
th reatening
sec ond
Ġcher ries
ĠMex ico
Ġcontag ious
re c
ĠW ild
ĠP y
Ġwor s
ĠG PS
Ġcur ry
Ġbehav i
tt i
Ġfire place
b ars
Ġsub merge
Ġyear ly
Ġsoft ly
angu age
Ġrein for
ĠAdv anced
im er
Ġv owel
Ġdisc overed
Ġconsider able
urt les
Ġmaintain ed
Ġgrab bing
Ġindepend ently
Ġrecover ing
Ġpromot ing
Ġcloud y
Ġtoler ance
Ġdisinfect ant
Ġspect rum
igh ters
Ġpro state
Ġsome how
Ġclass y
Ġret ention
Ġprevent ion
f iction
h um
un icip
ĠB ank
Ġreal izing
Ġbul ky
Ġrecept ive
ĠRot ate
Ġst akes
Ġcl aws
ĠL atin
Ġcut ters
ĠCar ry
Ġrins ed
On ly
Ġais le
r ust
s upp
t here
Ġo ak
Ġto ll
Ġl umber
ĠS ugar
ĠSt raight
ĠAs ide
me g
ĠEx change
Ġkick s
Ġsle ek
Ġscar ves
Ġcru ise
Ġbron zer
Ġcramp ing
F orm
Ġc ilantro
Ġto ggle
it ative
Ġbe gun
ĠS ide
ĠS cience
Ġcl an
Ġte aring
we lling
fl ies
Ġelect ion
Ġbal ancing
Ġbro ch
orn s
Ġresid ents
Ġathlet es
ĠLab el
Ġc ayenne
is l
is ol
Ġor ch
ĠS alt
ĠC ivil
ĠP M
op ed
Ġunt reated
Ġlif ted
Âł Ġ
Ġparent heses
Ġstraight ening
Ġheart beat
ĠAny one
Ġglob al
Ġbe am
ang ling
Ġfact ual
Ġhost s
Ġecon omic
Ġmang o
C opy
Ġh ints
Ġse ating
Ġle mons
Ġany body
Ġact or
Ġ3 1
Ġclass ical
Ġcent re
ob ia
Ġgold fish
Ġrecip roc
ĠÃ Ĺ
d og
m at
Ġch ron
Ġreg ain
arm esan
ĠRes pect
Ġtut oring
Ġnumer ator
ĠColl ege
ĠBuild ing
4 6
at al
ur able
Ġout standing
ĠM iss
ag he
Ġpe els
Ġqu ilt
ĠN SAID
ical s
Ġrein stall
Ġchunk y
b ad
ur ches
ĠF ast
Ġunder water
Ġbrown ed
Ġsweet ness
Ġflavor ful
Ġbi kes
ĠDec or
ĠHigh light
Ġmuff ins
Ġincorrect ly
C IS
h alf
Ġw itch
Ġb ury
Ġpe aches
Ġbreak down
-- -
Ġpod cast
( "
B ut
w et
Ġb ins
Ġn iche
ĠT ra
ĠS anta
ĠH R
Ġrel uct
Ġcur b
Ġquick est
ĠDes cribe
Ġinternship s
Ġpr ank
op ic
Ġpo ems
ĠAl t
Ġrespect ed
ĠEvery thing
Ġpool s
Ġnegot iations
ĠBas ic
Ġenthus iasm
cem ber
Ġbenefici ary
= \
Ġs age
Ġn arc
Ġlo ver
Ġbottle d
Ġpen alties
Ġinfest ation
Ġadj acent
aghe tti
E A
l am
ar ound
ĠF ull
Ġadd itions
ific ate
Ġgrad uation
Ġtrad itions
Ġded uctions
agon ist
Ġcontr asting
Ġthank ful
ĠUp date
Ġimmig ration
Ġl ather
Ġde veloper
Ġcl ove
Ġmix es
Ġste aks
Ġconst it
Ġseal ant
Ġdatab ases
Ġrehe ars
Ġgrandparent s
Ġhass le
e ff
Ġh ue
il itation
Ġcho king
Ġlemon ade
Ġtutor ials
Ġtamp ons
ĠVe get
Ġrasp berries
Ġf idget
oc ity
ass y
dd ing
Ġsore ness
Ġconcl usions
F l
M ore
Ġt asting
ow ered
ag ged
Ġlit igation
Ġter rain
Ġlog ic
Ġmother s
Ġslipper y
S V
Ġm oles
se ll
Ġwith stand
Ġhe x
iv ation
ĠTr aining
Ġmar ble
Ġconduct ing
Ġnav igation
Ġunlock ed
1 000
Ġst amps
ct o
ant ing
Ġcut icle
Ġmel ody
ĠWe bs
Ġdestroy ed
Ġblaz er
P T
id el
Ġex acer
Ġprot ocol
Ġess ays
Ġtar p
ĠRuss ian
l it
Ġthem ed
Ġsign atures
Ġself ish
Ġcheese cloth
ĠTe am
Ġvent ure
ĠCD s
Ġscrap book
ĠSte am
Ġconcentr ating
Ġdefect s
ĠEst ab
f ood
Ġre apply
Ġst ra
ĠG al
Ġ9 5
Ġappl iance
Ġge ck
Ġtwist ed
Ġgall ery
Ġconce al
ĠCount y
Ġchees es
Ġ ^{
il izing
el iness
ĠP hone
Ġhydr ation
Ġdissol ves
ĠBo il
ĠCur rent
Ġacquaint ances
C lean
Ġw age
if ice
iv ities
Ġent ert
Ġcap abilities
cent ed
Ġprin ciple
ĠBu ying
ĠIm age
Ġrais ins
t urn
ĠO il
ĠL ead
Ġrel ates
Ġmed itating
read ing
Ġfun gal
Ġair plane
Ġcompet ing
Ġdebt or
Ġstre ets
ĠSu ggest
ĠMet hod
ĠProm pt
Ġleth ar
E C
ow ers
ver bal
Ġsp ool
Ġass ure
Ġur ination
Ġpier cings
Ġprecise ly
Ġstalk s
Ġs alsa
Ġm uzzle
or ous
ow els
Ġinc ision
Ġdr illing
Ġhair st
ps y
Ġheart burn
Ġcolle ague
Ġattach ments
Ġrock et
Ġcush ions
Ġecon om
ĠAp pe
Ġumbre lla
3 1
W ork
l n
m ilk
Ġb inge
Ġsp ikes
cour se
Ġtwe et
Ġexcl usive
Ġbic ycle
heart ed
Ġpic nic
ĠObs erve
Ġuphol stery
c ount
z a
ĠT umblr
Ġuse less
Ġbr ightly
Ġsl o
Ġdec ay
ell a
Ġcontact ed
Ġphys i
ĠSl ip
Ġupset ting
Ġpump ing
Ġsteam er
zy me
Ġdow nt
} -
ust rate
ĠP IN
ĠV ict
ĠLet ting
ĠTr ain
Ġsum mon
Ġjudge ment
Ġinh ib
Ġspons or
- $
m ia
ay a
ĠI gn
ĠC reat
Ġcl ump
Ġcont ing
Ġdr ows
Ġhome page
ĠJ uly
ĠLe g
Ġbur nt
Ġhes it
Ġdict ate
D es
R ed
Ġp soriasis
ĠF act
ĠH on
ĠJ ud
Ġbel ieves
Ġaud it
Ġsatisf ying
Ġmargin s
Ġnostr il
Ġbarbe cue
ĠDI Y
r ances
Ġl unge
Ġex ert
pt ic
ĠU nt
we ek
ĠPl astic
Ġsoft ened
Ġing rown
bal ance
Ġdistin ctive
Ġanten na
5 9
B r
R ep
X X
i w
qu er
Ġmay onnaise
ĠO k
ĠE le
Ġser um
Ġcat ches
Ġind ig
ator ies
ĠSc an
ĠSk y
? ,
Ġf ixture
ot tle
Ġcan ola
Ġtr aces
Ġwor ship
Ġco b
Ġac hes
ĠSc oop
Ġadvertis ement
Ġmarking s
b a
k g
Ġm unicip
Ġan us
Ġcon ferences
Ġprot r
Ġsod as
ox y
ĠCut ting
Ġpant ry
Ġpanc ake
Ġunre alistic
ĠHar ry
ĠR ab
ĠL arger
Ġrest rain
Ġjourn als
Ġre lying
ay be
Ġcon form
ĠP TSD
Ġpre ced
ĠG B
cent imeter
Ġterm inate
Ġexpand ing
U D
u per
Ġst ats
ĠW ik
ra ising
Ġun st
Ġcomp osed
Ġfin s
Ġpen is
Ġpink y
Ġunc overed
ĠSw ipe
Ġoverwhel m
Ġliter ary
Ġcosmet ic
ĠAfric an
ĠSecret ary
l ap
Ġl od
al ysis
im eters
with out
Ġle ct
ĠF at
ĠF ortun
Ġsp ong
Ġun screw
Ġimp air
Ġhold ers
Ġemploy ed
Ġarr ival
Ġtum or
Ġskew er
Ġentert aining
D is
N D
b ands
Ġ )
ĠC ro
Ġout lines
ĠP interest
Ġqu ir
Ġacc us
Ġcur ric
ps om
Ġfill s
Ġpressure d
Ġthr ows
Ġdim ension
Ġverb ally
ĠC F
Ġint oler
Ġsc all
Ġaff air
Ġoffic ially
Ġmoistur izers
Ġbi as
Ġbull ies
Ġmagn etic
pell ed
Ġalleg ations
H old
d a
d x
t ics
Ġt et
Ġc oop
ut or
Ġne on
Ġr acks
ĠP oke
Ġproblem atic
ĠCom pany
Ġflu or
ĠIm mediately
ĠLay er
Ġcloud s
Ġexcl usively
Ġflee ce
b ly
Ġl as
Ġli z
ie ver
ist ically
Ġgl and
Ġmood s
Ġbound ary
Ġwond ers
Ġanest hesia
o il
Ġw olf
ĠT en
ĠS iri
Ġrec onnect
Ġrain bow
) /
Ġp awn
Ġv apor
Ġk ern
lp h
Ġover view
Ġfl ipping
ck s
Ġlook out
Ġev olve
Ġaut ism
Ġing est
Ġinteract ive
Ġmass aging
Ġobs erved
Ġsimpl ify
Ġintegr al
Ġimper ative
Ġw atches
or ation
Ġn er
Ġatt ain
Ġno isy
Ġcomple tes
oun ced
Ġcond oms
ĠPro duct
Ġdepos ition
Ġpropr iet
s lee
Ġr anking
Ġtr ails
ĠL emon
og enic
Ġconf id
Ġste w
sh ot
Ġoper ator
hold ers
ĠSay ing
Ġecon omy
Ġlubric ant
Ġlen gthen
Ġenzym es
im ens
iv als
Ġsk et
Ġam ino
idd ing
Ġnegot iating
Ġembarrass ment
Ġpel vis
2 40
Ġp ir
Ġch im
ther net
oc key
Ġgl ance
Ġvar ied
Ġlearn s
Ġanal og
li kes
Ġvacc ination
Ġdumbbell s
re r
iv ot
Ġhas ht
gg ed
Ġbreak outs
Ġprob ation
Ġsleep y
app ro
Ġsat in
Ġtrend y
Ġiod ine
t al
Ġt aper
Ġre arr
ĠP air
Ġ20 15
Ġgar ments
Ġfavour ite
re th
Ġhe llo
ĠS ept
ol ved
ĠH oly
Ġem erge
Ġmin us
be gin
Ġpast el
Ġcharacter istic
Th ank
amin a
Ġbutt ocks
Ġtri angular
Ġnegot iation
ĠIR A
Ġgast ro
7 6
L ist
Ġh ub
op es
Ġgard ens
oot ing
Ġrepet ition
pat ient
Ġdash board
Ġsh ifts
ĠA ug
ĠS ing
Ġpl uck
Ġinc on
Ġpre heated
Ġnum bered
Ġwa ff
Ġdesign ing
Ġport al
Ġ9 11
Ġsuggest ion
Ġaff ili
Ġign ored
Ġmanic ure
E P
S end
c ost
l ive
Ġre ins
Ġdeterm ination
Ġess ence
ĠAmeric ans
Ġbi ology
Ġhal ter
Ġmush room
Ġ,,,,,,, ,
Ġaward ed
Ġb io
Ġacc ord
ax y
ĠJ ourn
Ġob ese
Ġtrans fers
ĠApp lications
Ġeduc ate
ĠDis play
ĠMed itation
Ġdiscl ose
Ġfingern ails
z ip
ur ricular
Ġcom bo
ĠDe cember
cl ass
Ġsocial izing
Ġcommit ments
Ġshower ing
Ġdeliver ing
Ġves sel
Ġassum ptions
Ġtransmit ted
z es
ĠC it
Ġad mission
Ġback ed
Ġcollect ions
Ġcontrib ution
rof oam
rac urricular
Ġdevot ed
E m
re al
st op
Ġtyp ed
cr ipts
Ġapprox imate
Ġunw illing
Ġlou der
S T
b untu
Ġf aint
Ġl ick
ĠT own
ĠTh read
omet ric
Ġdr astically
Ġdrug store
Ġscan ning
Ġmotor cycle
Ġflag s
ĠCP R
: "
u pt
Ġg oth
ting u
red ict
Ġwas hes
Ġdisc retion
Ġvis ibility
Ġspl int
ĠIns urance
Ġclog ged
b ul
ĠS AT
ĠL ots
ĠCh op
anc ers
Ġswe ar
Ġtrave lling
Ġexist ence
Ġcelebr ities
Ġsummar ize
Ġprosecut or
ed ar
Ġpl ugin
ip edia
Ġco zy
Ġunder ground
Ġdress er
oll y
Ġabsorb ent
De lete
Ġdescript ive
f ix
Ġcan ce
ge bra
ĠYou ng
ĠD iet
od ies
Ġher pes
Ġsl ows
Ġmon et
Ġcontro vers
Ġund es
Ġunc lear
Ġfashion able
Ġfarm er
Ġbod ily
alm art
Ġresident ial
Ġloy al
Ġmous se
k ind
Ġf uss
Ġh oof
Ġbe ars
Ġso iled
um my
ĠP aste
Ġsusp ension
Ġpoison ous
Ġpear ls
Ġpharmac ist
d ings
ou st
Ġw izard
Ġf are
Ġf ocal
ĠAs ian
Ġprevent ative
Ġrecogn izing
ĠSaf ety
tw o
c d
n ies
ĠS SA
ol s
Ġall e
Ġinc entive
Ġdec om
Ġgener ation
ĠApp s
Ġconscious ness
c ases
w a
Ġen velop
Ġ6 00
Ġaccess ing
Ġstren uous
Ġreview ed
Ġsteam ed
Ġcart oon
ott om
a e
ate red
ĠD og
act ing
Ġun pro
Ġun limited
Ġcost umes
Ġfavor ites
Ġspread s
En ter
in ters
al d
il st
ick en
Ġsp y
Ġen list
ĠL ess
Ġgood bye
Ġag ed
Ġar ter
Ġdi oxide
Ġconnect ors
ipp ings
Ġlaugh ter
ĠPart y
Ġscan ner
Ġfract ions
Ġornam ents
dig it
ĠD utch
Ġsp oons
ĠAc adem
Ġinde ed
Ġcheek bones
Ġcucum bers
Ġmerch and
f y
Ġf ountain
ĠS am
Ġar ises
Ġdark ness
day s
Ġsuccess es
Ġreact ing
Ġcloth s
Ġmar athon
Ġseason ed
Ġspoon ful
Ġintegr ity
Ġinstruct ed
ĠTight en
Ġesoph agus
C C
a el
Ġh inges
om as
Ġl ax
Ġn odes
Ġhe dge
ĠM ilk
ĠO per
Ġper ception
Ġcle arer
Ġlif ts
Ġhard wood
Ġgener ated
Ġbreak age
Ġbag gy
Ġnut meg
port ant
ores cent
Ġple asing
Ġiron ing
Ġrad iator
Ġcort icoster
ĠMag ic
it t
Ġsu ction
ĠS pending
ĠC hem
Ġsomet ime
Ġnight m
Ġharm less
Ġunc heck
Ġul cer
ean or
t ra
Ġd iving
ain ting
Ġtr ous
ĠM atch
Ġbr im
Ġsub mission
Ġclick er
br own
com me
Ġfore finger
ĠUS A
Ġâ Įĺ
Ġded uction
Ġunivers al
Ġguidel ine
Ġoblig ated
icul ous
Ġsanit izer
T ime
a o
g ener
g ression
s ur
ĠT or
Ġso les
ĠM ind
Ġun iverse
Ġconsider ate
Ġop aque
ĠEng ine
Ġemerg encies
Ġd rape
Ġse ep
ag en
Ġpre tending
Ġshe er
Ġpublic ly
pend ent
ĠFl at
Ġol ives
Ġstim ulating
Ġcru el
Ġcrunch y
Ġs esame
ch air
Ġsh avings
Ġex otic
Ġbr as
Ġcut icles
Ġbas in
Ġhour ly
ĠAn n
Ġref in
uff icient
Ġfau x
7 8
h ou
ĠS afe
Ġde em
ĠP aper
Ġcomp r
Ġstart up
Ġtrave ls
cer in
Ġgro ove
Ġder iv
Ġdeter ior
6 2
p her
Ġa wards
Ġde af
Ġad oles
Ġsm ud
ĠN ear
Ġcall er
Ġfil tered
Ġur ban
Ġcompan ion
Ġmass ive
ĠDep ression
ios ity
Ġcub ic
Ġimperfect ions
w in
ge nder
Ġch urches
us able
Ġbl ast
ber ty
Ġshow ed
Ġpass code
Ġdesign ate
ex per
ĠCont in
ĠSc rew
Cl ick
Ġproport ions
Ġwhit ening
Ġmanif est
et erm
Ġso ggy
Ġout wards
Ġall ot
Ġsk ating
Ġrec on
Ġgl am
ĠV en
atur ated
Ġlength y
Ġfair y
S ub
s ub
Ġan cient
ĠA ction
Ġex tingu
ĠF all
ĠB ased
Ġdr ift
Ġman ure
Ġrecord er
Ġnon stick
Ġcontract ing
Ġtight ening
Ġsusp ic
Ġpoll ution
Ġsacr ifice
Ġantis eptic
I A
Ġn ovels
ĠM ax
ĠD ust
Ġspe nds
ĠG ard
Ġwater y
Ġcat he
Ġleg isl
Ġant if
Ġirrit able
Ġprin ters
Ġwax ing
Ġrefriger ated
ĠAg reement
ĠInt roduce
Ġder ived
Ġintest ines
Ġrefres hing
F F
H ello
Q u
Ġo mit
is ons
Ġfe as
Ġsp aghetti
ag ne
ĠCh allen
Ġbow ling
ĠCon verse
Ġstack ed
ĠManage ment
o ven
ul us
Ġad missions
ĠIn put
Ġhand ed
ĠSpe ed
Ġdo zen
ry pt
Ġback grounds
ĠV PN
Ġcomfort ing
Ġmen op
Ġadv ocate
ĠAr m
ĠRes ist
Ġelev ate
Ġnostr ils
Ġy o
ic ides
Ġbe ings
ĠW almart
ull e
Ġprin cess
ĠSee ing
Ġbra ve
Ġscrap ing
ĠBook s
Ġcasser ole
b ie
Ġpro ps
Ġtr ains
Ġwr ing
Ġdet ach
Ġmouth piece
gress ive
Ġforget ting
Ġdy ed
ĠPict ure
i ability
Ġv s
Ġcont our
ĠV ac
Ġcoll ars
Ġbat ting
cons uming
Ġaccent uate
R un
ĠD ead
Ġhand held
Ġdownload s
Ġpow ered
Ġdrive way
Ġgrad ual
Ġlaws uits
Ġstrip ed
Ġblo oms
Ġobserv ations
Ġacknowled ging
Ġmembr ane
Ġh ives
Ġn om
ĠP inch
Ġover load
Ġside walk
Ġspecial ists
Ġvi able
Ġhost ile
ĠClean ing
Ġgro in
Ġparam eters
Ġd angers
Ġd well
en ch
Ġpl unger
ĠH alf
Ġ2 000
Ġrec ycled
Ġcr umble
ĠJ ump
Ġhead ings
Ġstud ied
Ġbit ten
Ġ8 5
Ġinstru ctors
Ġmold ing
Ġtown s
Ġlaptop s
Ġseiz ure
4 2
4 9
Ġint ensive
Ġpr une
ĠG row
Ġbet a
ĠBe h
Ġcho ke
Ġ20 16
ĠUS CIS
ĠPar is
) ^{
W here
Ġp m
om es
Ġbe ets
Ġg orge
ĠC ategory
ink s
Ġpain ter
ĠDr ill
Ġcast le
Ġstimul ates
EO C
S ay
Ġo vere
Ġj acks
th ank
ĠB udd
ĠApp roach
Ġtre asure
ĠShow ing
Ġdil ig
ĠExt end
E F
p ost
ut ic
Ġun employment
Ġrec ycle
Ġexp ed
ĠV ista
Ġcred ibility
Ġexpl o
Ġ> >
ĠConf irm
ĠMedic are
Ġloy alty
Altern atively
Ġembroider y
h ill
Ĭ ŀ
Ġout right
ond on
Ġmar gar
ĠAr ch
Ġcertific ations
Ġfarm ers
Ġgrape fruit
Ġtint ed
Ġabandon ed
cto ber
4 3
Ġthe r
or i
Ġl b
ĠT ues
Ġrel ating
work s
Ġenjoy ment
Ġscr aper
ĠEm ail
Ġsyll able
Ġplumb ing
T y
w heel
ĠC amp
Ġfe ll
pl ate
ade qu
Ġimpro v
Ġgym n
Ġsubs crib
Ġintest inal
Ġinterpret ation
Ġthirst y
er sey
Ġw aters
at tered
Ġp neum
st ores
Ġr ushing
ĠD ab
ĠB irth
ĠIt ems
gr ain
Ġbreak er
ĠDe fe
Ġcleans ers
Ġric her
Ġbisc uits
ã ģ
Ġa pt
Ġu gly
ĠT bsp
Ġst amina
ct s
Ġwh oles
Ġr ashes
ain ted
ĠC orpor
ĠF DA
ĠB MI
iv ated
Ġover s
gr own
Ġchar itable
Ġcontract ions
Ġexecut or
Ġpa j
Ġmuse ums
Ġrehab ilitation
V iew
b rew
l ain
w atch
Ġhe ats
ĠS ch
ĠH im
Ġimp ulse
Ġsw irl
Ġcondition ers
Ġcounter clockwise
Ġtrial s
Ġdelay ed
Ġsnip er
A b
p ractice
Ġo ath
Ġre dd
Ġ2 9
Ġconc erning
Ġrefer ring
Ġbuck le
ĠUp on
orr ower
ĠMet al
Ġinaccur ate
Ġan ec
ĠA ge
Ġpre n
ft y
Ġchar ities
Ġmen us
bl ack
Ġanec d
A F
Ġoff line
ult ural
Ġpain s
Ġsens or
ĠList ening
ĠCP U
l ate
Ġext racurricular
Ġhard ship
Ġlay ered
Ġbat tles
iqu id
Ġtor to
Ġmill ig
ĠVir gin
Ġpix els
Ġdupl icate
or ice
Ġd ual
ch lor
ĠB I
iz ational
ĠO mega
Ġdis gu
Ġbet ta
sh ine
ĠStud ents
Ch ange
Ġevalu ated
Ġindu ce
eff icient
Ġslo ppy
Ġther most
Ġg al
Ġg els
ct ory
ĠD ate
ĠN E
Ġrel ieving
Ġsn ails
Ġabs ent
Ġerr ands
Ġoblig ation
" ),
A r
Ġf etch
ac ept
im als
Ġcom ics
Ġcl aw
Ġbr ushed
Ġcons olid
Ġboard ing
Ġdiv or
M ac
T urn
ĠT imes
Ġcon secut
ĠF em
ĠF ruit
Ġhand writing
Ġinvest or
Ġcourse work
Ġax is
Ġstere oty
ĠDrop box
Ġcray ons
hero ids
Ġenthusi astic
t ic
et c
oid al
Ġsal icylic
Ġcoll age
Ġchick s
Ġclaim ing
Ġattack ed
Ġcomplex ion
Ġunp redict
ĠAcknow ledge
M A
e ither
t ract
Ġthe at
ar ized
ĠM oney
au ce
Ġcle ver
ĠPl acing
Ġfeed s
Ġmeat balls
ĠSpr ing
Ġwaist band
Ġbell s
Ġcreep y
ĠLuck ily
A ut
k ers
Ġre im
ĠD om
Ġcr am
Ġcheck list
ĠHe althy
Ġsweet er
Ġtrip od
ĠTe acher
Ġtor ch
Ġparticip ation
Ġoffe nded
Ġcontr acept
Ġfright ened
Ġcosmet ics
Ġdestru ctive
ĠS ection
ĠC e
Ġgo d
ĠH oney
Ġsc oring
ĠĠĠĠĠĠĠĠ ĠĠĠĠĠĠĠĠ
ask a
Ġwilling ness
ĠSil ver
Ġbehavi our
O D
Ġa pert
at able
is or
Ġit al
Ġpe a
Ġrun ners
Ġwarm ed
Ġpow ders
Ġpin point
Ġinterview ing
Ġviol ations
Ġnic er
Ġwarn ings
Ġrepell ent
at onin
vers ion
ĠCom ment
Ġaim ed
Ġearr ing
Ġarrest ed
Ġenl ar
Ġantidepress ants
) ?
z ens
Ġc ite
Ġw ok
at te
Ġe go
Ġse gments
Ġcont amination
Ġgr ieving
Ġnow here
Ġvo ic
Ġnur ses
weet ened
Ġtruck s
ĠOrgan ize
Ġcareg iver
Ġreluct ant
d ress
m ber
all ey
Ġcon g
ĠP ers
ĠSt one
Ġagree ing
Ġmini ature
ĠDVD s
Ġunp aid
keep ing
Ġrecur ring
Ġhesit ant
M ed
T P
f ashion
r ates
am ental
Ġcont ests
ĠL y
Ġdown side
Ġcomm ute
Ġline ar
Ġbook mark
Ġshort ening
Ġdel ays
Ġma iled
ĠTe a
Ġden ial
Ġsuppl iers
Ġhighlight ing
ĠFin ancial
cont rol
Ġcort isol
Ġuncons cious
b ite
w est
ot ion
ac ious
ac cept
Ġint ric
ip ed
ip ers
Ġcat alog
Ġnecess ity
ĠDe ath
Ġhor r
Ġregard s
Ġâ Ĭŀ
Ġresid ual
Ġstove top
Cont act
Ġevalu ating
ĠParent s
7 2
D ear
Ġre nder
am per
Ġpl aster
ĠM ir
ĠB and
Ġpe ars
Ġadd ict
Ġun e
Ġsweet eners
Ġbrows ers
Ġsold er
Ġaggress ively
S ystem
b ru
o v
or ial
Ġpr izes
ĠG PA
Ġdisc s
Ġgir ly
Ġview er
Ġimag inary
Ġsurv iv
ĠContact s
Ġpor ch
Ġlon eliness
G B
t one
Ġal ike
Ġad ul
Ġbl oss
Ġres in
Ġprov isions
ĠCh ic
ĠCert ificate
Ġanonym ous
D uring
l asting
Ġre de
ce nd
Ġspray ed
Ġsexual ity
Ġdiscount ed
ĠGu ide
Ġcoord inates
Ġpu berty
ĠAnt i
Ġmac ar
Ġgran ola
Ġvel ocity
d iv
Ġst un
Ġfr own
Ġle nding
Ġcr ickets
ax is
ason able
Ġbroad er
Ġlabor atory
ĠSmall er
Re peat
Ġpops icle
Ġtang led
Ġinnoc ent
ar ium
Ġe ucalyptus
pe red
Ġse aling
ĠM aps
ĠD em
Ġdon or
ĠU buntu
Ġbar ley
Ġbath rooms
Wh o
Ġbask ets
Ġupload ing
Ġgy ms
htt p
= (
b ud
c ream
ĠT able
as ionally
Ġcom pelling
Ġj ug
ĠR ound
ĠL ondon
Ġbl u
ĠBe come
play ing
Ġdress ings
Ġneck line
Ġfore arms
Ġabsor bs
Ġthumb n
Ġcelebr ation
ĠPower Point
Ġsweep ing
Ġpy ram
. '
Ġc act
Ġw art
ĠD C
Ġacc ents
Ġsing er
ĠSm art
Ġtattoo s
ĠVal entine
Ġtu ition
g ate
ul ative
Ġpre fers
Ġsales person
etch up
Ġswing ing
ĠVolunte er
ĠPract icing
* *
c am
ing les
ĠS ol
Ġli abilities
Ġdon ating
Ġexam ining
Ġsl ouch
Ġsuc king
Ġcap ac
Ġbrown ies
ĠAtt or
point s
ĠCo at
Ġmolec ules
Ġgorge ous
ig ma
ĠP upp
ĠB urn
Ġimp at
Ġkit ty
Ġcarbohydr ate
writ er
Ġhen na
t ake
Ġt rench
ar ter
Ġhe aled
Ġse min
ĠM ach
ĠB er
ĠE EOC
ĠBe ar
Ġind ustrial
Ġmon olog
Ġarm y
Ġretain er
Ġdisag reement
pat hetic
Ġlan tern
j o
r ika
u ke
Ġc rou
Ġf ires
Ġcon es
Ġex pend
op sy
Ġval ves
Ġpol ishing
Ġdrop down
Ġmile age
ĠMex ican
Ġexplicit ly
T e
Ġg ambling
ĠP a
Ġco ast
Ġsc ams
Ġro pes
Ġcomp os
Ġbet s
Ġwr ink
Ġcar n
ĠRe ward
word s
aint aining
iqu ette
Ġprogress ive
ĠCan adian
Ġpup ils
Ġcurric ulum
ĠAug ust
9 1
Ġsp as
Ġpe b
Ġbl aming
Ġpain kill
Ġcur iosity
Ġpass enger
amm a
Ġcompan ions
Ġfulf illed
Ġlin ers
Ġoverse as
c ake
Ġsh aker
Ġtr acing
ĠW ere
ĠP os
Ġpre heat
Ġclear ance
Ġelect rons
Ġmat rix
ĠPr otein
Ġsweet ened
Ġdust ing
Ġsav ory
Ġcorresp onds
D D
o ved
Ġf udge
Ġch orus
Ġtr action
Ġday care
Ġjo ined
az ed
Ġworks pace
Ġclos ure
Ġcarr iers
Ġelectron ically
Ġtum my
Ġnarc iss
ĠSept ember
Ġcathe ter
b id
z ag
Ġsh ore
Ġdo zens
ĠF requ
op ing
fl av
Ġimpact s
Ġbun s
ĠDes ktop
Ġstool s
ĠCong rat
Ġb arn
ot ton
ur ous
Ġpre jud
Ġcor ros
Ġlar va
Ġinf in
Ġmis con
Ġattend ance
Ġinvolve ment
Ġinflu ences
Ġdemonstr ates
Ġdistur bed
l ifting
n ip
an ium
ĠC ould
og en
ru ct
gr at
St op
Ġtit led
Ġsacr ific
Ġembellish ments
in is
Ġf ences
Ġh ills
ĠB ase
Ġen zyme
Ġ3 3
Ġbus hes
ĠRe v
Ġcent ury
Ġhot line
Ġcoun ters
sh ould
ĠTr ade
Ġintrodu ctory
Ġinvent ion
Ġstiff ness
st ress
Ġat om
Ġat oms
Ġpro x
Ġal tered
Ġfl amm
Ġdr ips
Ġtw ists
ual ity
Ġegg plant
Ġrepresent atives
Ġshot gun
ĠPot ter
Ġdys function
8 9
u able
Ġt ac
Ġa qu
Ġto night
im ming
ver ts
Ġch asing
ĠD ise
ĠL and
Ġsm ear
cept ions
com b
Ġmaintain s
Bu y
i ently
Ġs ieve
Ġb orders
im on
Ġpro active
Ġpro gression
Ġinc ub
the less
Ġrespect fully
ĠCon cent
Ġadvert ised
lay er
Ġhyper t
stru ct
Ġsyll ables
Ġrefres hed
Ġmyster ious
Ġtrous ers
V ER
Ġs way
al o
ĠM ini
ick et
ĠG oth
Ġfind ings
Ġmess aging
Ġsmooth ies
Ġvisual ization
Ġoffe nd
ÂłÂłÂłÂł ÂłÂłÂłÂł
Ġobserv ation
B I
H ere
ĠT ask
ra ise
ĠE ffect
Ġover flow
Ġfl ashing
Ġsal v
Ġlow ers
Ġdep reci
ĠAt tend
Ġfrizz y
0 1
E E
h arm
Ġb red
Ġso lic
ĠP erm
Ġinc ap
Ġrel apse
Ġ3 4
erg ency
Ġpack ets
Ġteam mate
ĠHe avy
Ġple as
Ġaest hetic
Ġbom bs
Ġreplen ish
Ġmillig rams
Ġt urtles
Ġg ang
ke l
pe ople
Ġun natural
ove mber
ĠN ormal
Ġar oma
alth ough
Ġless er
ale nd
Ġdiet it
Ġirrit ability
Ġfac ult
Ġremind ing
ĠOb ject
Ġdisappoint ment
Ġmarshm allows
d ra
d ia
z u
at ar
Ġf encing
ĠS ize
Ġli en
ĠĠĠĠĠĠĠĠ ĠĠ
ĠMed ium
Ġfeature d
part ial
B ack
as ma
ad er
est inal
ĠF ro
Ġsp here
ĠO ctober
ĠE IN
Ġfl ames
ĠIn hale
Ġatt itudes
Ġcr umb
Ġcare d
Ġfin er
Ġret in
Ġpast ure
Ġorgan izational
Ġpick up
Ġhor ror
ĠTr ace
Ġfurn ace
Ġstruct ural
Ġpossess ions
ĠMon itor
Ġscream ing
g oogle
er ate
Ġre ven
Ġsu spe
Ġex cel
Ġch oo
fect ion
Ġam en
Ġsupp ose
Ġman us
Ġinv asive
Ġspr ings
ĠInst itute
Ġhum mus
Ġachieve ment
Ġreflect ive
Ġshr ubs
Ġdiff user
Ġfluct u
H aving
l ists
ĠS ell
Ġtext books
Ġtechn ician
Ġhang s
Ġtax i
Ġur gent
ĠAre a
Sh are
Ġhero es
ĠSqu are
Ġhairst yles
T hen
Ġp oop
or ax
Ġre charge
qu are
Ġup beat
ĠD isk
Ġdis likes
Ġown s
erg lass
Ġtrans it
Ġspr int
resh old
Ġcompet itions
Ġbright ness
Ġfort ified
Ġapprent ices
h ard
Ġg oo
Ġfor wards
ĠS weet
Ġun related
Ġsur veys
Ġvis ited
Ġspl its
ĠGl ass
Ad v
aunt ing
i enced
m other
Ġ Ð
ll y
Ġhe als
ation ally
Ġr ider
Ġr uff
Ġch ic
un a
ĠB ac
ĠIn side
Ġatt ic
Ġlight ning
ĠFind er
Ġwed dings
Ġboo ster
Ġven om
omb ie
Ġincred ible
Ġglow ing
Ġtort illas
ĠTher apy
war f
ĠFortun ately
. }
C ons
E at
L R
g ative
Ġt ulle
le ading
Ġin adequ
Ġse als
ĠTh inking
Ġdif fers
Ġscr atched
Ġrab ies
Ġhall way
h og
al a
od ont
Ġover time
oy l
Ġinter course
Ġtrans itions
Ġneg lig
Ġspl itting
Ġsweat y
Ġster oids
Ġcritic ize
Ġbelong s
Ġbrist le
Ġaccum ulated
Ġunpl ug
in et
ĠM agn
ĠB aking
Ġtem ples
pr ing
Ġquestion na
Ġbrok ers
Ġdiagn ostic
Ġaccomplish ment
Ġinqu ir
Ġov ulation
ĠMa jor
Ġd welling
âĢ İ
ight ing
od ing
Ġext rem
Ġbel ieving
Ġpat io
Ġattract ions
Ġdefin itions
Ġesc aping
Ġtalent ed
Ġvel vet
child ren
Ġdisrespect ful
ĠFound ation
ul ine
Ġtr ic
Ġv arnish
ĠB ob
Ġpe c
ĠG I
Ġsl ick
Ġsol ved
Ġpet al
Ġfast ing
ĠFr ance
Ġsil hou
ĠAr my
Ġabsor bing
Ġded ication
ĠM er
iv acy
Ġap ric
ĠCh anges
Ġexp ansion
Ġir rig
Ġscr unch
Ġbra iding
Ġbeat en
Ġamong st
Ġpremium s
Ġmigrain es
Ġfoll icles
Ġflamm able
6 1
re p
Ġl ac
os her
ĠM or
ĠM il
un ches
ip ing
ak i
ĠE nt
int ensity
ĠSt y
Ġsmo ker
Ġphys ics
Ġmod ification
Ġfu zz
Ġpen ny
Ġdecor ated
ĠGold en
Ġcarp ets
Ġarmp its
Ġdunge on
Ġr ural
Ġco ding
ĠO wn
Ġdr astic
Ġstr aining
Ġdes erves
Ġrest ed
Ġsw itches
be e
Ġchem otherapy
Ġmar ry
Ġcas he
Ġinflu enced
Ġmechan ic
Ġdele ting
ĠProper ties
ventil ated
Ġlect ures
E ach
G M
c ap
m outh
r id
Ġd ips
Ġd Ã©
Ġh ib
ot a
ur a
Ġset tling
Ġev ac
Ġlog ging
Ġsuit case
Ġinflamm atory
Ġalert s
Ġweigh ing
Ġtang ible
char ged
ĠBat tle
P art
c at
p op
s ometimes
Ġd rew
ĠC ream
ace a
ĠIn spect
Ġsa ut
Ġinter ven
Ġbeh aving
Ġprob iotics
Ġabs cess
amm ers
Ġboil s
Ġped als
ĠBet ween
Ġtoast ed
Ġdipl oma
Ġparr ot
d ream
Ġp ups
Ġg our
Ġle is
Ġv ivid
Ġcl ots
Ġca ffeinated
Ġret aining
Ġcomb ing
plain t
Ġz oo
Ġbro iler
ĠDef ine
Ġjurisd ictions
y a
Ġc edar
Ġle ar
Ġab und
ĠB an
Ġfl or
av oid
ĠAn aly
Ġtable cloth
ĠLe gal
Ġconv icted
Ġintest ine
Ġevapor ate
Dr ive
Ġenvelop es
Ġsaut Ã©
b read
Ġ q
Ġp ent
ĠF ruits
ĠCh urch
Ġcal oric
com ed
Ġaut umn
Ġart ic
ĠDe vice
Ġexpl ode
Ġur inating
Ġviol ated
pre ferably
Ġhumor ous
Ġdismiss ed
Ġrh in
Ġcerv ix
O ver
Ġin effective
ig ating
Ġwh istle
est r
ĠV oice
Ġthin ning
Ġchick pe
Ġinh aling
ĠPart icularly
Ġdiabet ic
Ġtum ors
Ġiv y
f irst
Ġs ail
Ġsh ingles
Ġcon grat
Ġpl um
ĠR om
ĠE thernet
ĠAn ge
Ġcourt room
Ġsqu irt
Ġport ra
}} =
Ġneutral ize
bru ary
e ys
f ord
Ġw ore
en n
Ġg on
Ġg arn
Ġre usable
ĠT ab
ĠB right
ĠG lo
ink y
ĠDe v
Ġble nds
Ġste aling
ĠY OU
Ġvacuum ing
Ġcock at
Ġcaps ule
Ġalph a
Ġinsult s
Ġfreel ance
Ġarter ies
t em
ĠC le
Ġbr ine
ĠCl ip
In s
Ġupd ating
Ġvacc ines
Ġeth ics
ĠCalc ulate
ĠWik ipedia
Ġmerchand ise
Ġthermost at
h ots
Ġin ad
Ġin nov
se x
se ason
ag le
ĠO CD
Ġcre vices
ĠV el
Ġconf ess
Ġsmo ky
Ġapproach able
âĪ «
Ġdest inations
Ġfract ures
o ften
Ġpe aks
Ġfo x
Ġrem em
Ġunder m
Ġground ed
Ġport ray
Ġbal d
ĠSp orts
Ġmist aken
Ġbuff er
Ġtwe ets
Ġsulf ate
Ġscholars hips
Ġles ions
Ġdimin ish
5 2
j u
ĠT apping
Ġ1 40
atter ing
br id
reme nd
Ġaccident al
ĠGu ard
Ġadmit ted
Ġexecut ive
Ġconcert s
Ġted dy
Ġincon ven
Ġconsecut ive
? )
S ec
Ġt remend
ĠH ind
ĠL abor
ĠJ ew
Ġterm inals
Ġnap kins
ĠAut hor
Ġskate board
Ġexhib its
Ġpreserv atives
Ġcl amps
Ġ1 60
Ġsleep over
Ġbrown s
Ġlayer ing
Ġfly er
gl ass
Ġclar ification
Ġcorrespond ence
Ġvib e
Ġbenefici aries
Inc lude
ing ling
il ization
ĠU r
Ġun int
hes s
Ġexp ort
Ġconsider ations
Ġpress es
Ġob ed
Ġtap ing
Ġminim izing
Ġcult ivate
Ġreward ed
Ġdeterg ents
Ġmut ually
Ġpant y
Ġpap rika
Ġapert ure
F ocus
b irth
i encies
s kin
Ġh ockey
Ġor ally
ĠW ire
ĠH ide
down load
Ġpun cture
ĠQu est
vis it
Ġlob ster
Ġtart ar
Ġcous in
appro ved
6 8
r ary
ase line
ĠG round
ĠFor ce
Ġbot hered
Ġstr ains
ĠCh ocolate
Ġcreat ure
Ġswe ll
Ġdesign ers
Ġcool ant
Ġver ified
Ġmoistur ized
Ġmeant ime
ĠCam era
Ġhelp er
ĠE psom
Ġpract ically
Ġcontract ors
Ġnervous ness
Ġcu is
Ġlact ose
Ġenerg ized
Gener ally
C P
M P
d ated
u cc
Ġw ob
om bies
im ity
her s
Ġch a
ĠM art
rou ps
Ġfl aky
Ġlif es
Ġpain tings
Ġcoll apse
Ġlow ered
Ġcirc ulate
Ġ20 10
Ġbur gers
Ġteen age
Ġmount ains
ĠUs er
IN G
Ġgerb il
ĠTerm inal
i P
il iate
ĠC V
Ġk etchup
Ġres on
Ġdr ums
Ġsn ail
pr om
Ġmod em
Ġmat ched
Ġimag ery
ĠDi am
Ġembed ded
ĠChic ago
Ġsuspe nded
h i
ĠS ingle
pl us
Ġrec onsider
ĠBe ware
Ġend e
.âĢĿ ;
be cause
Ġ20 13
the ta
Ġloo ser
Ġer a
ams ung
Ġthreat en
Ġconv iction
ĠStr ong
Ġbru ise
Ġconfir med
P er
u ah
Ġpro ving
ĠC arr
Ġper t
Ġrel ies
Ġbo ats
Ġcur led
Ġ10 40
Ġage nda
Ġcross es
Ġmis beh
Ġvacc inated
Ġcig ar
ĠMark et
Ġeth nic
ĠClass ic
I I
P ractice
Ġse wn
Ġv owels
ĠO R
ĠN ormally
Ġem pt
Ġpot ent
Ġpres chool
Ġtrust ing
Ġunw ind
Ġdetect ed
ĠCert ified
ĠDoc ument
Ġlun ges
Ġfluor ide
Ġc umin
Ġb orrower
Ġp ivot
Ġab rupt
os ures
Ġpo king
Ġunder tones
ĠJ ane
Ġet iquette
Ġrid iculous
Ġflower ing
Ġregister ing
Ġtour s
imp act
Ġinstinct s
Ġove reating
Ġspont aneous
Ġpaj amas
, {\
t aking
Ġr ails
el es
Ġspr itz
Ġru ining
Be ing
Ġmis c
Ġsubt ly
Ġorient ed
Ġmonet ary
D id
ver b
ĠA ctive
Ġpro fic
ĠL iving
Ġrem arks
int estinal
ĠSt yle
Ġindic ators
Ġheight s
ĠTell ing
Ġspark ling
Ġmonit ors
employ ed
Ġscholars hip
Ġcul pr
Ġinev itable
ĠDa ily
b ian
ot ional
ĠM el
Ġk ite
able d
Ġen ch
Ġprob e
Ġiss u
ĠPr ivate
ĠEm pty
Ġhydr ate
Ġdetect or
Ġpillow case
Ġimpress ions
Ġsimmer ing
Ġvill ain
Ġnumb ness
dep th
Ġindul ge
Ġgeck o
G r
c ross
ĠA S
Ġro cking
form ed
Ġsl its
Ġsl ips
ĠSt ring
ĠAn g
lo or
ĠPro of
Ġarr ived
Ġdoll s
ĠPart icip
Ġfarm ing
Ġpromot ions
Ġbarg ain
Ġrecre ational
T V
ed ed
Ġnot or
ul atory
Ġal gebra
ĠM id
ĠD en
ater nity
Ġdr ills
Ġam mo
Ġhot ter
,,,, ,,
Ġprec ision
Ġsuspect ed
Ġtack y
Ġisol ation
interest ed
Ġnipp les
H ome
r isk
v ia
ĩ §
Ġf asc
Ġsh uffle
Ġj et
ĠM om
ĠP il
to xic
Ġbook store
Ġdi pped
Ġpoly ester
Ġadvent urous
Ġdeduct ible
V is
ed ent
ĠC ooking
ĠW a
Ġjust ify
Ġcor rel
ĠBut ter
Ġflu orescent
ann a
Ġforg iving
Ġpunch ing
Ġslot ted
Ġbrainstorm ing
c uss
i ar
out ube
ĠM aintaining
ud ing
Ġpe at
Ġtem ple
ĠSe a
Ġquestion ing
Ġessential s
Ġdead ly
ĠCol umn
Ġrum ors
ih uah
ĠIr ish
ĠOcc asionally
ĠBI OS
Ġfacult y
C R
r is
x ia
Ġ ion
Ġp int
ut ches
Ġso ber
gg ing
Ġed ition
itch ing
uc ing
ĠBl ow
Ġpier ce
Ġtourn ament
Ġlux ury
Ġelectroly tes
Ġmenop ause
Ġunpredict able
W ear
v ol
Ġinc ent
ĠR ow
Ġbl and
Ġ3 8
ĠJ ones
ĠPro b
sc ale
ĠTreat ment
Ġbron ze
Ġmosquit o
ĠEar ly
job a
in ner
ĠL ater
ĠN ovember
Ġem it
ĠPro file
Ġmel on
ĠAr ab
Ġcounter part
Ġdrag ons
Ġrecip ients
tr aining
Ġelim inated
Ġgather ings
ĠExerc ising
ĠExt ra
ĠRef lect
Ġburst s
best os
f ed
Ġ @
ie v
Ġint ra
ĠR ob
ĠG irl
Ġcar c
ĠDo ctor
ficult y
Ġstress ors
ĠUn ion
Ġcounter act
Ġfib erglass
Ġcontrib utes
Ġprogress es
Ġsuppl ier
Ġconsequ ence
ĠMus lim
Ġconj ug
car b
Ġpyram id
f ound
Ġto ned
Ġth reshold
as a
ĠIn it
Ġatt entive
com p
ph p
Ġhook ed
Ġdetail ing
quar ters
Ġber ry
Ġreserv ation
Ġreserv ations
ĠWed nes
Ġfeas ible
d oc
m ain
m ount
s ite
Ġf ading
Ġp all
ĠP al
ail ure
Ġqu ery
Ġexam ined
Ġmin ing
Ġcoll agen
Ġfoot wear
Ġseem ingly
Ġtherap ies
}} ={\
St ud
?" ,
Ġdefe nding
Ġpret z
Ġfail ures
Ġban ner
Ġautom ated
b red
Ġm amm
Ġsh ading
Ġrem ark
az ole
Ġinterrupt ing
Ġpod s
Ġsulf ur
ĠExcess ive
ĠVict or
ĠF re
un ct
pl ants
Ġser ial
Ġside bar
ĠCh am
Ġinv ites
Ġinter sect
Ġcharacter ized
sp ace
Ġbur ied
off s
Ġ< /
Ġcompassion ate
9 8
Ġc udd
al g
ud dle
ath ize
Ġrep aired
Ġentire ty
}} {\
wh o
Ġgrad ient
Ġflavor ing
Ġharm ing
ĠPlay ers
Ġjourn aling
Ġge ared
Ġedit ors
Ġmechan ics
Ġtransl ation
Ġincom ing
Ġknuck les
ĠCoc onut
ĠQue en
Ġbik ini
Ġpneum onia
Ġdietit ian
f ocus
p ers
Ġc ents
es y
Ġn urt
ig her
Ġwh ilst
Ġr ipped
Ġtr owel
Ġmusc ular
Ġsignific ance
hold er
str ings
bur se
Ġbru ising
Ġsprink ling
osit ory
uccess ful
u ition
Ġh i
ic ates
Ġsh ark
âĢĻ .
ĠTh urs
ĠD one
ĠP rop
Ġke en
Ġgr illing
og rams
Ġbo oth
Ġcar ve
Ġreg ulated
Ġsym pathetic
olog ies
ĠPh il
Ġbarr iers
Ġsquir rel
ĠChallen ge
Ġleis ure
4 1
a ic
Ġb ir
Ġl acks
Ġg ates
ut tered
ĠL ocation
ia z
Ġtender ness
ĠRout e
O L
re ach
Ġf ict
om er
ĠC up
ĠC ash
Ġgener ator
sh i
ĠAllow ing
Ġcorpor ations
Ġsustain ed
Ġinval uable
Ġenlar ged
F e
Ġbe ige
ĠP ast
og ne
Ġeven ings
Ġcard iac
Ġtext ured
ĠCom mit
Ġobs cure
ĠMo vie
Ġvot ing
A B
d uty
i i
s it
ic ating
Ġtr ib
ĠTh or
Ġj ig
Ġk ennel
Ġcount ies
ĠSp ider
Ġcollect or
ĠAltern ate
Ġmal ware
Ġmasc uline
Ġconfront ation
Ġdirector ies
ĠPres ent
Ġmarshm allow
w r
Ã Ń
Ġa il
Ġthe rape
Ġon set
Ġpro xy
ĠM obile
Ġac upuncture
ck les
form al
Ġinform ative
Ġgl obe
Ġcoll ateral
Ġmoder ately
Ġhydr ating
Ġexperiment ing
Ġhyd ro
ĠVe h
ĠDise ase
9 6
c ook
f our
Ġn aps
Ġsu do
ong est
Ġbl own
Ġun fortunately
Ġper ch
Ġstr um
ĠDo ctors
Ġident ifies
orn ings
Ġmail box
Ġbi opsy
ĠFe bruary
ĠSub st
Ġaffection ate
bor ne
ĠMich ael
Ġantihist amines
Ġtoug her
Ty pically
Ġc ape
Ġp ushes
ĠM other
iv itis
Ġdec edent
Ġsweet ener
Ġdisl odge
izon a
Ġcommer cially
ĠAcadem y
Ġchoo ses
O k
Î ¸
ar in
Ġar rog
Ġsl am
Ġcol ogne
Ġpin ching
Ġcutting s
Ġformat ted
Ġharvest ed
cur ities
Ġbees wax
Ġnoun s
Ġprivile ges
Ġre nov
ad y
Ġcon du
Ġpro ceeds
Ġcl own
Ġby pass
âĢĿ ).
Ġar tery
Ġshe dding
Ġcor al
Ġbre wing
Ġsurf ing
Ġcorrect ed
ĠTr ack
Ġfinger prints
pos ure
Ġann ually
hydr ation
Ġrhy mes
ograph ical
Ġantioxid ant
Ġdepart ure
Ġmigrain e
Ġlarva e
S l
c ert
Ġown ing
Ġel ong
Ġtemper ament
Ġinse curities
Ġcomprom ised
Com mon
Ġhomeown er
fashion ed
c ool
Ġc ured
Ġcon vention
Ġv ines
Ġsm iles
Ġres il
Ġper ks
anc ies
be an
Ġcell ular
Ġbread cr
Ġdye ing
Ġ40 1
ĠSw iss
Ġguit ars
Ġgro oves
Ġcompar able
Ġsyll ab
L ike
W ould
d ies
t ical
Ġ ~
it les
Ġl icking
Ġal arms
ol ina
ĠM iddle
ĠO ffic
Ġhead ed
Ġext ras
Ġtax able
Ġann ivers
__ _
Ġstead ily
Ġcoach ing
Ġentertain ed
Ġmetabol ic
Ġpist ol
Ġchamp agne
Ġtherape utic
à ®
am ation
Ġli vest
Ġv ig
ĠP oly
un s
Ġro am
Ġve ctor
Ġsmo othing
Ġfunction ality
Ġcomplex ity
Ġdoub ts
Ġapprais al
ĠTues day
Ġvoic email
Ġun cover
Ġjust ice
Ġdisc olored
Ġprot agonist
Ġspr inkles
Ġmen stru
ĠOr ig
Ġarr anging
Ġdefin ite
ĠBal ance
Ġh inder
Ġtr ump
Ġsp ouses
ĠSt ory
Ġcal mer
Ġsoft ener
Ġdraft s
Ġarch ive
sm all
H P
i ary
r atic
ay er
ĠD ire
ĠB abies
act ivity
ĠH em
ĠE r
Ġag itated
Ġschool work
Ġcompl iance
âĪ Ĥ
Ġmultip lication
ID S
Ġcyl ind
Ġgly cerin
Ġlivest ock
F ree
O A
ab ras
are lla
ĠH all
Ġsl icing
Ġexp ired
ric ts
Ġbad ge
Ġrepl icate
Ġcalc ulators
Ġanaly zing
Ġornam ent
ĠNSAID s
W ell
l inary
s ign
en ame
Ġn ib
Ġne ct
Ġtr amp
Ġsure ly
Ġdown s
Ġdisc reet
ĠRe ally
Ġref using
Ġhum ble
Ġmar ital
ĠSub tract
Ġorth odont
ĠEstab lish
Ġchim ney
Ġhypert ension
a uses
Ġb anned
it as
Ġh ol
ot ive
im ize
Ġim itate
Ġform ally
Ġdifferent iate
Ġscr amble
Ġbal ances
ĠâĢĺ âĢĻ
Ġfraud ulent
Ġpersu ade
ĠCand y
Ġstocking s
Ġhemorrh oids
ĠIncorpor ate
Ġin herent
if iable
Ġsl ing
Ġam ate
Ġadv oc
Ġcust oms
Ġperiod ic
ĠPre tend
Ġunc ont
Ġrag s
Ġfund amental
ĠVac uum
F irst
f ive
f ull
t an
Ġl ava
Ġle verage
os cope
ĠH earing
Ġhard ened
zz arella
Ġrain y
Ġfund raising
Ġaccompany ing
Ġundes irable
d em
h air
Ġan at
ner gy
Ġcat ar
ute red
mer se
ob ics
Ġkill er
Ġreflect ing
Ġimag ining
Ġmicro s
ĠRab bits
slee ved
F in
e ches
Ġfl air
Ġshow case
Ġtem po
Ġuns weetened
Ġcaps ules
Ġshortcut s
Ġpear l
ĠSleep ing
Ġestim ates
Ġanest hetic
ĠTod ay
pic uous
Ġm ornings
ar ations
ĠS amsung
ĠM ention
th ree
Ġbl ink
Ġun available
Ġins ulting
ener y
Ġair flow
Ġlearn ers
Ġphot oc
olog ically
Ġsun shine
Ġlic orice
Ġinh al
Ġshut tle
Ġflash y
Ġcontrovers ial
ĠCongrat ulations
Ġmanus cript
U nder
Ġstr ide
Ġmon key
ex isting
val ue
ey ball
Ġmultip lied
bl ue
Ġtransl ates
Ġsin uses
bet a
Ġdistur bing
ĠEgg s
Ġconfid ently
T F
is one
Ġpre lim
ble m
Ġsit ter
rop yl
the med
Ġz oning
ĠAr izona
ĠSer ver
Ġpou red
ĠMot or
Ġweaken ed
ĠAfric a
I nd
i ators
s um
Ġr ushed
Ġag ric
ĠV aseline
Ġpres ident
Ġshort ness
Ġwind s
Ġi M
Ġbase line
Ġarr iving
Ġmal practice
ĠGu ys
ĠAut istic
ĠAss ess
sec ution
ĠST D
Ġexempt ion
Ġescal ate
Ġinhibit ors
W atch
Ġ ...
an ny
ĠM ountain
ĠN ur
Ġcheck box
Ġveget ation
Ġcustom ized
Ġill ustrate
Ġparticip ant
Ġstrateg ic
Ġster oid
Ġbon uses
Ġoptim istic
ĠHawai i
ĠGal axy
Ġinad vert
Ġnect ar
p athy
Ġ //
or ry
om ather
ut ral
Ġr ind
Ġtr iv
Ġmo ck
ĠR ain
Ġfigure d
Ġgas oline
Ġwheel chair
pre p
ĠRel ations
ĠBel ieve
Ġmonit ored
Ġaggrav ate
ĠUnt il
7 9
t as
Ġg n
Ġr an
ĠF un
ĠM ad
ĠN or
Ġair way
br ushes
ĠPro fess
Ġinsert s
Ġded icate
Ġlamin ate
Ġmunicip al
C OS
I nt
a ution
r ational
Ġg asket
ĠD E
Ġkn ocking
ĠSp in
Ġremind s
Ġcra ve
Ġpure ly
Ġmer ge
Ġeth ical
Ġnest ing
ĠCoun cil
Ġcancell ation
ĠTeacher s
Ġintric ate
L S
L ear
b earing
h s
et he
Ġwh ining
ĠCh at
ĠCh ain
Ġjud ged
Ġeduc ated
resp ons
Ġsubs cribe
Ġpromot ional
Ġmush y
ĠCr ack
Ġconver ter
Ġsuperv ise
Ġdand ruff
U I
c atching
Ġm ates
Ġsu shi
Ġfr aming
Ġnot arized
Ġbr ill
Ġper pet
Ġpos itives
me aning
Ġrecord ings
Ġstandard ized
Ġfire arm
ĠÂ °
ĠPre heat
Ġbuck ets
Ġpray ers
ĠDoc uments
ĠProtect ion
Ġknuck le
Ġvamp ire
. (
T w
z one
in ery
Ġw asted
im age
ĠF ont
Ġsc enery
ber g
ĠAvoid ing
Ġinject ed
ĠCo ffee
Ġspell ed
ĠQuick ly
Ġboun cing
ĠDecor ate
Ġpeb bles
f fere
w orld
Ġr am
ĠF air
Ġpr iced
Ġinc idents
ous ing
Ġdec ree
Ġinv oice
ĠCom ple
Ġmouth s
ĠOr ange
Ġclos es
Ġpriv ately
ogn itive
Ġrid ers
Ġimm ature
Ġboost s
Ġsink s
Ġwra pper
Ġsne e
ĠInt erest
Ġknock ed
bur st
Ġfingern ail
Ġspong es
Ġt ai
Ġan ime
Ġk er
Ġcour te
Ġca fe
Ġfavor able
Ġhang ers
Ġsmell y
Ġcit ations
ĠFocus ing
Ġoccup y
ĠOrgan ization
Ġhorr ible
b usiness
b ottom
z il
ou p
Ġg ait
qu ire
Ġint rig
Ġcl auses
., ,,,
Ġ1 10
Ġrel oad
ool s
Ġbook marks
Ġsol ids
Ġprep aid
Ġox ide
Ġast ring
Ġconver ting
Ġacquaint ance
Ġaffirm ations
Ġflax seed
protect ed
Ġprelim inary
+ â
K now
Â ®
Ġb reeze
Ġcan ine
ĠS at
ĠP erson
Ġher d
Ġcons ciously
Ġloc ating
ĠJ u
Ġmean ings
Ġlim p
Ġcell phone
Ġign ition
ĠPer iod
ĠStand ing
Ġsan itary
rox imately
ĠCommun ity
Ġconstruct ed
Ġtoen ails
P aste
ĠA V
ĠB ill
ĠAdd itional
Ġblood stream
Ġbar bell
St ation
Ġfac ilit
Ġmention ing
Ġster ilized
pres ent
Ġpap aya
Ġsymmet rical
H elp
c asting
d irect
Ġb out
om ed
Ġgu ild
ĠJ am
to othed
Ġblack heads
}} {
Ġbull ets
Ġcrow ds
ĠKing dom
Ġsarc astic
0 2
u el
w ire
Ġw att
Ġp ies
Ġn ape
Ġnot ing
ist ed
Ġpr a
pl aced
Ġun ions
Ġpos itivity
Ġcenter piece
Ġpin ned
Ġbur ger
tr ans
Ġkiss es
Ġdefic iencies
Pr int
Ġsquir rels
atte nded
y cl
Ġs ab
Ġg ad
as semble
am ous
ate ll
ĠD ream
Ġco als
iv ating
op ter
Ġstr ipping
Ġ3 7
Ġgl ide
Ġcard igan
Ġred s
Ġfore cast
pro v
Ġpig e
Ġmort g
Ġflash cards
Ġvir gin
ĠSub mit
Ġsustain able
Ġworksh ops
ĠdÃ© cor
A G
he ast
Ġs ixt
Ġh ugs
ot hes
Ġre fere
ĠA er
oc ular
Ġ" -
Ġbr ides
Ġplay ground
Ġcr imes
gr an
Ġcho pping
Ġfeed ers
Ġinde fin
Ġvill age
Ġmosquit oes
Ġadren aline
( -
R T
e lect
y er
Ġs outhern
Ġc ache
Ġw ired
le vant
ore xia
ĠS us
Ġback p
ise xual
ĠSt ock
Ġdec ades
Ġ- >
Ġpresent ations
cent er
roll ed
ĠEng age
ĠTurn ing
Ġfund rais
ĠAb ove
Ġtoss ing
Ġcomplement ary
Ġpublisher s
f amily
ar b
ĠR oom
Ġpoint y
Ġext ro
Ġweight ed
Ġmod es
Ġsuggest ing
Ġlisten ers
Ġmol asses
Ġb ib
at rix
se arch
ĠC alend
ol in
ĠM RI
Ġcl uster
Ġsc hem
Ġimp art
ĠAl ign
Ġdist ressed
Ġtrans cripts
Ġfound ations
Ġpick y
Ġexpect ation
Ġgre w
Ġsort ed
Ġcampaign s
Ġutens il
Ġdealers hip
ĠCell s
Ġrept ile
comme nded
ĠPos itive
) -
F r
P lease
â ĭ
Ġw ished
ot ype
Ġcan ning
Ġcan cers
Ġsh ove
Ġse l
ĠS od
Ġpro pose
Ġsc ans
ĠL anguage
og ly
ĠRe ce
fr iends
Ġhum ane
Ġtask bar
Ġacid ity
ĠPre vent
Ġstar ters
Ġintegr ate
Ġsch iz
c est
Ġd aunting
Ġyour selves
Ġbe nds
Ġle ap
Ġch is
ĠTh ai
ĠM ont
ĠB ow
ĠE p
Ġkn obs
Ġover coming
Ġbet ting
Ġap nea
Ġsn acking
Ġsn ugg
Ġperform ances
ĠGo vern
Ġoccur rence
ĠBl og
Ġoverl ooked
Ġsimpl ified
Add itionally
Ġpuff y
Ġsurprising ly
ĠEss entially
ĠSpot ify
ĠResp ond
ĠCro hn
0 5
c het
h ones
it ably
Ġh one
ĠW rit
Ġimp ed
Ġpo ker
ĠSt rength
Ġcheck mark
Ġlay s
Ġconversation al
end ers
Ġmill imeters
Ġshr ub
uls ion
Ġexplan ations
Ġresear chers
dra wn
r int
re as
ad ays
Ġpl ural
ĠP armesan
ast es
ĠE X
form s
ne ck
Ġclick s
Ġmel atonin
ĠMe an
Ġnews letter
pie ces
Ġsequ ins
Ġwand ering
Ġfright ening
Ġrit uals
Ġbabys itting
Ġsupermark ets
Ġimmun ity
Ġneu rolog
Ġchickpe as
or ters
ĠT otal
ĠS now
ust ed
ĠO ption
pl an
ĠG host
00 00
ost on
Ġvo ll
ĠAd opt
Ġthread ed
Ġep oxy
Ġdur ability
ĠCent ral
Ġbron ch
ĠSy ndrome
ĠIgn ore
Ġcong reg
Ġrede em
Ġprox imity
s n
Ġin fer
Ġn ause
Ġcan n
ch a
ĠA lp
ĠB i
Ġen vision
Ġun attended
ĠBe coming
Ġprob ability
Ġdef rost
Ġblock age
Ġtend on
Ġtravel ers
Ġsne ezing
Ġapolog izing
Ġacceler ate
Ġduck s
ĠExp and
Ġalk aline
Ġincent ives
8 2
C E
C T
ou pe
Ġs iding
Ġf eline
it ution
en ol
Ġen for
Ġsm udge
ĠN PC
Ġwalk ed
Ġcoun cil
ĠZ ip
abet es
Ġassess ed
Ġcontr ad
Ġproof read
Ġmechan isms
sec ured
Ġlear ner
R est
h on
h irt
ut ation
Ġfe at
Ġk iw
Ġpe gs
Ġqu izz
Ġgr am
Ġwash able
ĠGr ass
Ġassemble d
Ġarmp it
Ġcorre ction
Ġexacer bate
Ġquestionna ire
l oss
v o
v ar
at hetic
Ġe ject
Ġj agged
Ġinter personal
Ġ20 12
Ġ20 14
app iness
Ġvisit ation
Ġviol in
Ġmanufact uring
Ġprofit able
Ġcran berry
Ġmathemat ical
Ġmonolog ue
r ition
he res
Ġp oo
ad le
Ġpro ves
ĠP ear
Ġcl ipping
ĠB ing
Ġsecond hand
Ġmoist en
ement ia
rib ute
Ġexc lude
ĠSelect ion
ĠSer ies
Ġbother s
Ġfest ive
ĠThanks giving
Ġgastro intestinal
A Y
n osis
Ġo h
ĠC as
ine gar
pl ing
Ġfl annel
ĠIn f
int end
ĠDo e
gr ass
ĠV eter
St ay
Ġsens ible
Ġbreath able
Ġcompet ent
orce lain
ĠVis a
pare n
Ġbear ings
Ġdishw ashing
Ġabnormal ities
Ġloos ened
Ġshout ing
Ġredd ish
Ġcourte ous
C O
N et
v ille
at ical
Ġcan es
um bers
ol uble
ĠTh ick
and el
Ġback side
Ġsl ang
Ġclean up
Ġhigh way
Ġrest less
Ġcot tage
Ġlabel ing
Ġdro ppings
org ia
Ġweigh s
Ġdestro ying
Ġfatig ued
build ing
M R
Ġg ene
Ġpl ugging
ĠW inter
ure th
ĠP oor
ĠO N
Ġbr ains
Ġfl ashes
Ġpers ists
round ed
Ġprodu cers
Ġir rational
pr on
Ġcash ier
^{ -
Ġexpand ed
ĠFold er
Ġaer obics
mb ling
bet ween
Ġhypot hesis
yn c
Ġantivir us
ĠZe al
ethe less
r ise
it an
Ġas bestos
Ġmo zzarella
Ġsp ur
ĠR a
ĠL ou
Ġsl ime
ĠK ill
Ġclass mate
br ist
ik ed
ĠAtt ack
Ġdecl aration
Ġgran ulated
Ġsubstant ially
Ġvolunt ary
Ġreprodu ctive
Ġmargar ine
H S
I G
P ick
Ġt ul
Ġpro st
ĠF ather
Ġk osher
ĠE valuate
Ġsing ular
ĠTe en
Ġdefin itive
ĠCa ffeine
ĠTrad itional
Ġmerc ury
Ġbreadcr umbs
w hether
z he
Ġw atered
Ġh oses
Ġcom fy
ĠC ry
ĠAl aska
Ġdeep en
aut hor
Ġshap ing
ĠSk etch
Ġsnow fl
Ġindust ries
Ġcerv ical
d les
g ain
n it
r ar
t oo
ab sor
Ġsp oke
ĠL ib
Ġins ulated
Ġsol uble
Ġru pt
Ġreflect ed
Ġund erest
Ġcontem porary
Ġsilhou ette
Ġpert inent
f ind
he lf
Ġthe ore
ter one
pl aces
ĠR ib
Ġfl irty
gr ow
Ġquest s
ges terone
Ġdark en
Ġfre ak
Ġlog os
St and
bre aks
ino is
Ġster ilize
Ġelement ary
Ġstur d
ester day
ĠDiv ision
Ġcro ck
Ġoint ments
Ġdisconnect ed
Ġbabys itter
RO W
Ġski ing
Ġchi rop
Ġphen omen
Ġadject ives
A V
Ã ¡
Ġo me
Ġo vals
ĠO TC
Ġed ited
Ġir ons
Ġver te
Ġbooks helf
Ġmach inery
Ġmill ions
Ġfest ival
Ġfest ivals
Ġsuperv ised
Ġimproper ly
bro ken
P G
P ass
Ï ī
Ð µ
Ġl aps
ĠR ules
Ġsc out
ĠSt ack
Ġins ufficient
ĠK ore
erc ise
Ġwax ed
Ġdoll op
Ġalt itude
Ġwel coming
Ġblot ting
Ġuncertain ty
ĠLa unch
Ġdeliber ately
ĠVel cro
A m
l oc
l isher
ed ge
Ġsu ffere
ome ga
Ġch ocol
Ġover heating
ber t
ond er
gr it
ric ting
Ġpat ties
pr ise
Ġfore closure
Ġru ined
Ġaw ful
Ġmis er
Ġcapt ured
ĠWatch ing
Ġmicros cope
brist led
5 7
Ġb ats
il a
ie val
ĠP SP
Ġsp illing
Ġper ipher
ĠCh annel
Ġinter fer
Ġwind ing
Ġrelig ions
but ton
Ġorigin als
Ġphotographer s
Jo hn
ĠConcent rate
Ġinadvert ently
Ġd ated
Ġu reth
ĠS itting
ĠM ap
ĠD emon
ĠB oston
Ġco d
Ġpr iest
ĠE ver
ĠIt aly
ĠAl oe
ĠRe covery
Ġconf ined
ĠAfter wards
co ll
Ġcomb ines
Ġdem eanor
Ġrecogn izable
Cont rol
ĠVer ify
Ġconvent ions
Ġenl arge
Ġstroll er
Ġliz ard
Ġrearr ange
F ood
Ġc hess
Ġle gend
ĠC orn
Ġout dated
Ġsc or
ĠL augh
Ġju ic
ĠAll ah
ĠMo istur
Ġscient ists
rox en
othy roidism
Ġindig estion
Ġkern els
b es
b ird
r ink
Ġw atched
ight s
Ġtr ot
ĠB ud
ĠU pload
ance l
Ġword ing
Ġbutter flies
ĠFr iend
Ġattract ing
pos ition
Ġsix th
elt a
Ġflav our
ĠEast ern
Ġprohib ited
Ġfel ony
M ix
ou fl
re ne
Ġn aming
ct ic
Ġsh ipped
ĠN O
Ġstress es
Ġfre ckles
Ġseed ling
Ġobsess ive
Ġdispens er
Ġinher it
imens ional
F old
W ash
f ollow
h op
he avy
Ġb ore
âĢ ²
ir lo
Ġhe pat
ĠO re
ĠG arnish
ĠN F
Ġinter rog
ĠV ital
Ġdi ure
Ġbag gage
Ġwid est
Ġpad ded
Ġnarr ower
Ġsurpr ises
Ġcuis ine
Ġh ugging
ĠH E
Ġrest ored
ret te
Ġmess es
Ġsalt water
Ġassoci ates
ĠFr ank
ĠSc orp
Ġeyel ash
tr ack
Ġstrain ed
omather apy
M D
i ages
s ugar
se xual
Ġcan ister
ĠS en
ome gran
ĠC otton
th y
oc cup
og rap
Ġnew est
Ġcred ible
pr ime
Ġdiet ing
Ġperform s
ĠSpe aking
Ġintegr ated
Ġgramm atical
Ġbullet in
Ġunst able
Ġinterven e
H igh
ot ics
ke rel
ch ron
ib les
ĠH el
pl ugs
Ġun l
ts y
Ġbutter milk
Ġfar ms
Ġspeed ing
ĠAd vert
Ġgen et
Ġoppos ition
Ġsort ing
Ġprec aution
Ġmid night
Ġgraph s
dry er
organ ized
ĠVal ue
Ġpest icide
Ġuter ine
Ġwhis king
Ġemo ji
c urity
Ġb og
or able
Ġl anes
Ġhe lic
ard ines
one lla
Ġres umes
Ġpay able
Ġhead line
Ġselect ions
ĠSh ower
Ġtend ons
Ġrespons ive
ĠTr ue
Ġoper ates
Ġshoot er
bre aking
Ġprem ises
Ġdiscip linary
cem ia
Ġacceler ation
Ġcyst s
ĠVirgin ia
ĠSty rofoam
B lock
s ay
al ted
ow der
ĠC ath
ĠM ill
ĠB on
Ġim aging
Ġover power
Ġdis g
ĠJ ames
Ġev iction
Ġkind ly
ĠAd ults
Ġboost ing
Ġassess ing
Ġdivide nd
Ġaccommod ation
ĠAustral ian
Ġchees y
ĠRefr ain
Ġbenz oyl
Ġtorto ise
ĠWednes day
S er
k not
r ue
he ll
an us
Ġh oo
ion ed
her om
Ġen orm
Ġtw igs
ĠV ill
ĠV irt
fic ial
the se
Ġpun ches
Ġ200 7
Ġshad ed
Ġventil ated
ĠAud io
Ġobed ience
S k
n els
t i
if ferent
ter ing
ĠA ch
Ġwe an
ĠP ages
ĠâĢ İ
Ġsw ift
Ġdef ining
Ġcourt esy
Ġdevelopment al
Ex ample
icro soft
ĠDif ficulty
Ġadministr ators
ĠPol ice
Ġtant rum
S it
in ology
Ġbe aches
se en
il age
Ġk h
Ġcar ving
Ġsub po
Ġinter section
ĠCom pan
Ġshampoo ing
Ġment ions
Ġatte nded
Ġitch iness
Ġmall et
Ġintimid ated
Ġcav ities
Ġcran berries
Ġsuspic ion
Ġpainkill ers
ĠThurs day
* (
C onnect
E Y
H T
b um
Ġf ists
ant ically
us c
Ġag ility
Ġhot test
Ġdef ines
Ġmusic ian
Ġterm inated
Ġdefe c
ĠSm iling
Ġcontrib uted
Ġallerg en
Ġreve aled
Ġast ron
Ġgradu ated
ĠRefr iger
ontin ence
Ġmortg ages
= âĪĴ
p ants
Ġt eles
im s
Ġdo lph
us k
Ġco ils
ĠL os
Ġgr ips
Ġreg ulation
ully ing
ian a
ĠIm m
Ġfrag rant
ĠChar acter
Ġincom plete
A ct
Ġd ementia
ro se
ĠG em
Ġdr ier
akes pe
Ġrep orter
Ġpull ey
Ġsocial ization
ĠNot es
ĠDr izzle
Ġtarget ing
Ġpal ate
Ġboss es
Ġoffe nding
Ġdivide nds
Ġalter ing
ĠMar io
Ġcontamin ants
Ġneglect ed
Ġunre asonable
ĠStat us
Ġtro ops
Ġfict ional
Ġtramp oline
W ater
Ġw il
Ġw oven
ic on
Ġst ump
if er
ĠA A
Ġpl ush
oc ial
ans as
Ġcr unches
Ġexp ire
Ġprot est
to e
Ġcount less
uck y
Ġfig ur
ĠSc rape
Ġmanufact ured
mo ji
Ġborrow ing
Ġlin ens
Ġinsight s
Ġinfr ing
Ð ¾
Ġal right
Ġkn e
cess ed
Ġbl ows
ĠN ail
ont al
Ġ4 2
ĠAn xiety
Ġnecess ities
Ġinfect ious
Ġaren a
Ġann uity
Ġroot ed
Ġwit ty
ĠMedic aid
ĠCompl iment
Ġamate ur
paren cy
akespe are
Ġto aster
Ġne utered
th an
Ġco y
Ġrel ievers
row ave
Ġtight ness
ĠÂ £
Ġtele port
Ġapples auce
Ġimpl ies
ĠPres ident
Ġpractition ers
Ġprivile ge
5 6
w heat
Ġn uc
ĠT ip
Ġde eds
ĠW izard
Ġpr ick
Ġadd icted
ĠSt uff
ows er
Ġins ides
ĠWh ichever
Ġconf igure
ĠSe vere
Ġ10 1
Ġold est
Ġexpect s
ĠSet up
Ġspot ted
Ġcarpet ing
spe ed
ĠMod ern
Pro gram
keep er
Ġdemonstr ating
Ġpersu asive
Ġnour ish
Ġthumbn ail
. âĢĻ
M om
b oth
p ed
r ating
ac ements
Ġor bit
Ġsh ips
ap hor
Ġhand book
ren n
Ġlif el
Ġplan ter
Ġhands h
Ġequ ip
Ġmil estones
ĠFl u
Ġce ase
Ġsto pper
Ġwip ed
Ġharvest ing
Ġdiscard ed
Ġbroker age
ĠBra zil
Ġdisgu ise
e le
h aired
s im
Ġd ancers
st ud
Ġpl ums
Ġde fer
ĠF avor
Ġac oust
ĠL oss
Ġdec ongest
ek s
Ġinter mediate
Ġclick ed
Ġdem ographic
Ġirrit ants
ser vice
Ġdivers ity
Ġexagger ated
Ġupgr ades
ĠWebs ites
Ġimpat ient
Ġa uctions
Ġout ing
th ird
ĠD ance
ĠP ink
Ġloc als
sh ape
Ġspot ting
Ġhear ings
Ġexpress es
Ġbur row
Ġunc ooked
}}} .
Ġunnecess arily
ĠWord Press
Ġprospect s
Ġax e
Ġobsess ed
exper ienced
zhe imer
- |
Ġf rench
ĠS oon
ĠM elt
ĠB ed
ĠB oy
ĠL SA
Ġfl ake
ĠG all
ish able
ĠPl ants
Ġsmo ked
Ġspray er
ĠWind ow
Ġfire works
Ġfinal ize
Ġgen itals
Ġimpact ed
Ġmotiv ations
Ġmicro ch
phas ize
Ġinterrupt ed
Ġmanip ulation
Ġax le
Ġadminister ing
Ġcling y
ĠIncre ased
ĠPupp ies
E xt
b ear
l ocal
ĠP ac
ĠB oot
Ġun ravel
ĠCl in
ĠCl oud
ĠCont ract
ĠSp oon
Ġaff airs
pre ne
Ġmemor izing
Ġjudgment al
Ġspark ly
ĠElect ric
Ġredirect ed
clean ing
Ġdeem ed
/ -
B D
D V
h ave
w iki
Ġa unt
Ġc ited
Ġg oof
Ġre write
as ers
Ġ( â
Ġpe renn
Ġper missions
Ġday dream
ĠAs ia
ren ia
Ġfin es
Ġhard core
Ġreal ized
Ġtap ed
ĠBr ushing
Ġoverl ook
ĠOut line
ĠGe orgia
ĠSwe ep
Ġinterpre ted
Ġhepat itis
E N
O P
m L
re ements
is er
Ġd angling
ep h
ĠF ix
Ġjo joba
Ġpop up
ĠCar olina
Ġ,,,,,,, ,,
Ġrust ic
Ġnotebook s
ott we
Ġstimul i
Ġdizz y
ĠGar lic
l ie
o kes
Ġt ame
ic ts
Ġan gel
ĠF arm
Ġcl ust
and a
Ġco al
ĠH ero
Ġsc uff
Ġspe eches
Ġdet rim
ĠV an
Ġselect ive
Ġic ed
ĠMe at
Ġcast or
Ġfloss ing
ĠPet ition
Ġloos ening
Ġcaterpill ar
m d
Ġp ac
Ġm ower
Ġh ic
Ġe rect
al able
Ġre nd
Ġse nder
ab it
Ġcom for
ĠC ancer
os er
ind ex
ĠH or
Ġac ron
Ġover h
Ġres ide
ub arb
ĠCh icken
Ġhard ly
Ġmod ifications
ĠLe af
ĠPre p
Ġrect um
Ġhoriz on
Ġsquee zed
gy pt
Ġfault y
Ġbru ises
Ġlig aments
Ġpren atal
Ġamen ities
Ġlifes pan
e gr
he e
re prene
Ġf ern
Ġp um
Ġp orcelain
Ġm ating
Ġl ag
Ġst acks
all erg
Ġpl aid
Ġcomm od
ĠAl zheimer
Ġair ports
Ġstress ing
Ġcust ard
Ġing ested
ĠZ one
Ġuns cented
Ġemp ower
ĠAss uming
ĠBreat hing
Ġsubstit utes
Le ave
ĠThrough out
Ġcact us
ĠZeal and
8 1
B ring
f ied
h at
n ames
in qu
om ing
Ġl oun
Ġtr out
ĠF ive
ĠF ailure
Ġint ens
fe w
ĠD av
ĠH igher
ĠR ent
Ġstr ipper
ru ce
Ġ5 2
ĠSh ampoo
ĠY et
Ġprice y
Ġspl inter
ĠEd itor
Ġsurv iving
Ġcock tails
ĠOb tain
ĠChe cking
Ġterrit orial
Ġcartr idges
Ġnick name
Ġmiser able
Ġdetrim ental
D L
d ust
g or
Ġbe ak
ĠT u
Ġst unt
Ġsh aved
os ity
th s
Ġbut cher
op or
ci er
Ġgl are
Ġadv ances
ĠEng land
Ġmag ical
ĠPlan ning
Ġadvent ures
ĠDist rict
S IN
r ups
on est
ch ief
ĠP ause
ĠE asy
Ġcol oured
Ġpost age
Ġqual ifying
ĠSh ape
sh ake
asp x
Ġtun er
Ġstream s
17 28
Ġcompat ibility
ĠArt icles
Ġattrib ute
Ġapprais er
Ġvig ilant
A meric
C F
G u
l ove
p owered
Ġp udd
Ġg out
ĠD u
Ġsc ored
Ġact ed
Ġrec l
Ġcup board
ĠRem ain
Ġele ph
Ġham bur
Ġchallen ged
ĠUS DA
Ġgroom er
Ġsarc asm
Ġfuzz y
e ffic
Ġb a
Ġb isexual
om ial
Ġe cho
st im
ge e
Ġwe arer
ĠD ad
ĠB order
Ġen abling
Ġem eral
Ġpersonal ize
Ġsun set
Ġcrit ique
ĠTe le
Ġinse curity
ĠComm ercial
Ġhyd rox
Ġgrand mother
Ġdecl are
Ġsupervis ors
Ġmembr anes
ĠPron ounce
ĠProduct s
ĠMach ine
Ġchocol ates
+ +
N e
ar ia
al ph
ac id
ĠF ield
ag ic
ress es
Ġim balance
ĠH ost
Ġinc ontinence
Ġun m
ĠBe yond
Ġav atar
Ġtrust s
Ġbud dies
Ġindic ative
ĠReg ister
Ġfrag rances
Ġcomprehens ion
Ġworksh op
Ġweld ing
Ġtheat re
Ġmisc arriage
m and
p ub
r ows
t ry
ĠT ilt
ĠC ond
th on
ĠD NS
ĠL iquid
Ġcor rupt
ell ed
Ġfill ets
Ġthin ly
Th ough
Ġz ombies
ĠNot epad
Ġdoor way
ĠPlay Station
Ġsolid ify
Ġsuppl ied
Ġlibr arian
Ġrat ios
Ġdeck s
Ġelev ation
Ġwel fare
Ġvegg ie
Ġguardians hip
ĠThor oughly
v oc
Ġw re
is bee
us ers
Ġli que
Ġneed y
ĠE nergy
Ġimp urities
Ġunder going
Ġstud ios
Ġroom mates
Ġfil t
be ans
ĠSh akespeare
ĠPre gn
Ġelim inates
she ets
reg ard
Ġdisappe ars
Ġled ge
Ġgren ade
ĠSpl it
olly wood
Ġallot ted
i am
i oc
Ġm alf
Ġin verted
st roke
Ġr age
th ood
ĠE gypt
ĠG inger
Ġche dd
Ġfun ky
Ġtrans cript
Ġprotect ant
Ġlater al
Ġaud itions
Ġcatch y
Ġthird s
ĠPre m
Ġimm ense
ĠFree ze
ĠMult iple
ĠSoft ware
Ġantif ungal
flav ored
Ġcorros ion
Ġdepreci ation
Ġinadequ ate
opor osis
Ã ±
Ġs izing
Ġp ing
Ġm akers
Ġd ances
ur ized
Ġbr ag
Ġres ize
Ġplay time
Ġcur se
Ġpot ted
ĠRe cent
Ġband ana
ĠExt reme
Acc ount
Ġconson ant
Ġschem es
Ġchedd ar
! ),
7 4
C o
S w
d imensional
g ue
Ġt ingling
en gage
ĠT ree
Ġhe nce
ĠC irc
ĠDe b
Ġprotect or
Ġvers es
ok u
ĠGr ip
Ġsupplement al
Ġnav igating
Ġguess ing
Ġdorm ant
Ġchis el
M ove
O f
S ync
er ness
Ġb age
on ies
im um
Ġdo sing
Ġnot epad
ĠF ry
ĠR ing
ĠL ip
ĠN ook
Ġsk ates
Ġ3 9
Ġhealth iest
iss ing
Ġfil ming
Ġear plugs
ĠAd ult
Ġdin ners
ĠTe aching
Ġquarter ly
Ġmac kerel
ĠLast ly
ĠIndivid uals
wet ting
Ġmacar oni
Î ²
Ġn ests
Ġre ap
Ġdo dge
ĠS outhern
Ġpl ag
os a
Ġus able
ĠR ottwe
ĠL oo
Ġcomp ose
Ġatt aches
Ġrec reate
lo at
Ġpeel er
Ġkeyboard s
Ġpier ced
ĠSur round
Ġrenew al
Ġconting ency
intend o
b ase
Ġh ors
Ġn orthern
Ġg unk
ĠA L
Ġr igor
Ġout break
ĠW ars
Ġcl ipped
ĠR ap
Ġpre val
Ġwr inkle
Ġve ts
Ġsub c
Ġhapp ily
Ġsqu ared
Ġgre ased
Ġvol umes
Ġnet ting
Ġcollect ors
Ġdem o
Ġaff iliate
Ġroutine ly
Ġquiet er
Ġrepe l
Ġdiss ip
Ġ} \
Ġspark le
Ġsoci et
Ġrul ing
Ġbob bin
Ġtwe ak
Ġmang a
ĠRecord s
cd ot
ĠAttor ney
T aking
ar ity
Ġe uth
Ġse ctor
Ġover r
Ġun aware
Ġam use
Ġcat al
Ġcat nip
ĠJ im
Ġappe ared
Ġret al
Ġconst rain
Ġtrad es
Ġattract s
yl enol
Ġge ographic
Ex amples
Ġfrustr ations
ĠMain e
Ġstamp ed
ĠVeget ables
Ġsyllab us
A rt
Ð °
Ġd ign
ly mp
Ġhe ars
ĠM use
ĠO live
Ġconst rict
Ġblock ers
Ġdream ing
Ġstraw s
ĠJo e
Ġcart ilage
Ġcompliment ing
Ġsubs ide
Ġjail break
Ġwarn ed
ĠPict ures
Ġdepress ive
ĠSpecific ally
Ġapprentices hip
Ġinterfer ing
Ġfilt ration
U T
h an
m ap
Ġh ues
oo st
ver ty
ĠS ort
Ġsc attered
ĠE lim
ĠL oad
Ġper k
Ġpo verty
Ġchild care
Ġcr utches
ract ion
Ġconf ron
Ġvac ations
ĠOpen ing
Ġemp athetic
ĠMess ages
ĠAC T
Sp heroids
Ġmisunder stand
Ġnightm ares
ju ven
o ise
t ale
Ġre per
ĠT ai
Ġan cest
ĠS cient
Ġint uitive
ĠL oose
ĠIn form
Ġdr illed
int uitive
Ġsl ur
Ġref ocus
Ġdel ight
Ġtrave led
}} }}
ĠBr ain
Ġmagn ets
Ġfert ile
Ġclip board
ĠProv iding
Ġspas ms
F rom
a j
a ways
g ic
Ġc uring
Ġth ieves
Ġbe ams
Ġre visit
ĠT O
Ġst ale
ĠC BT
ĠF oot
ip es
Ġbel ievable
Ġsn apping
Ġvisit or
Ġstock pot
Ġthr ottle
ĠZ IP
Ġrepair ing
ĠPass word
Ġreim burse
accept able
Ġquizz es
A im
b irds
Ġ ÏĢ
Ġha unt
Ġst if
ĠF ever
Ġdon ated
Ġdes p
Ġlight ening
Ġob ey
ĠSh ih
Ġsubject ive
ĠFr anc
pro fits
Ġjur ors
Ġreass urance
ĠDig ital
Ġadoles c
Ġdivor ced
Ġpec ans
Ins ert
Ġastring ent
9 3
C H
I R
v ation
ĠD rug
ĠP ure
Ġdef lect
ĠEn viron
fl u
Ġsing ers
Ġtend encies
ĠRes ources
Ġattend ees
Ġhar bor
28 86
AR T
Ġcy ber
inj a
ĠPa ul
Ġintra ven
âĭ ħ
Ġvoll eyball
Ġhoo ves
N ow
it ic
Ġp herom
le ton
ĠTh ird
ĠM ental
Ġcl uttered
Ġpre ppy
Ġclean liness
Ġopen er
ĠV IN
Ġoffer ings
Ġest eem
do ing
Ġvi olate
att ach
Ġkick ed
Ġexhaust ion
Ġdermat itis
ĠJourn al
Ġcashe ws
Ġartic ulate
C ur
m oon
Ġs ag
as ion
ĠA B
Ġ" .
ĠBe aut
Ġlot tery
Ġbox ing
Ġpol ka
Ġphys icians
Ġworld s
nam ic
Ġtrigger ing
Ġtoothp icks
Ġpray ing
Ġinsp iring
ĠDownload s
Ġinvestig ator
Ġdampen ed
Ġted ious
ĠâĪ «
Ab out
Ġadul thood
E ng
f i
r ants
ĠT aste
as ia
Ġnot able
Ġint uition
Ġsome place
ĠR oad
Ġbr idges
Ġdon ors
Ġday light
Ġcar go
Ġtest imon
Ġdist ort
Ġrelax es
ĠAd vent
Ġfair s
ĠMe eting
Ġund ue
Ġguarant ees
flow ers
ĠHy d
ĠCopy right
ĠLic ense
9 2
C S
W ow
d el
g ive
Ġs id
Ġf ennel
st ret
ot ta
Ġpro gesterone
ist ical
Ġout we
Ġbr id
Ġpre fix
Ġsm arter
Ġgr ieve
Ġpot ions
ĠSe x
ĠEx hale
ĠDe al
Ġmess ing
Ġpar aph
Ġsent imental
Ġoper ated
ik er
Ġassist ants
ĠDis order
ĠRep l
oph il
Ġwasher s
Ġwhis per
Ġinev itably
Ġaddict ive
} (
} ^{
Ġt ucking
Ġs ardines
Ġb idding
ĠM at
Ġwater color
ci a
Ġprob able
Ġcook ware
ĠCons umer
.) ;
Ġtor que
Ġswim suit
Ġcelebr ating
Ġvalid ate
Ġcart on
Ġgroom ed
Ġdehydr ate
onym ous
ca using
b ig
w rap
Ġw estern
Ġh utch
ig ious
Ġde ploy
Ġfe cal
Ġsp out
Ġfl ute
Ġcr ates
arch y
Ġhy brid
In tern
Ġcam oufl
Ġbub bling
Ġdev ast
ĠMem bers
Ġconvin ced
ĠTrad itionally
ĠPub lisher
L im
c hem
â Ĩ
Ġt ad
Ġb unk
Ġm aze
en ium
ot r
Ġcan tal
Ġab ortion
Ġun secured
Ġavoid s
Ġass ured
Ġprep arations
Ġjud gments
Ġgreen house
Ġra pp
Ġinsect icide
Ġrack et
Ġexecut ed
Ġassum ption
Ġconfir ming
Gener al
PT O
Ġextingu isher
Ġportra it
U t
i ander
Ġw are
Ġm ow
Ġm uted
ĠT ips
ut ors
ut ional
Ġch ops
est ab
Ġv ic
ĠL avender
Ġwork load
Ġun avoid
Ġgr ipping
og ue
Ġent ails
Ġreal istically
Ġpar alysis
Ġcontract ed
Ġmarket place
Ġfamiliar ity
Ġwra ppers
Ġ} {\
Ġcro oked
organ isms
ĠBit moji
Ġdeliber ate
osc opy
Ġgymn astics
Ġsnee ze
C al
n c
Ġin wards
Ġwith drawn
ĠA x
Ġse vent
Ġv ou
ĠN intendo
Ġpay roll
Ġtrans gender
Ġclaim ed
pos ing
Ġbur rit
ĠNever theless
ĠUs ed
Ġfrost bite
Ġtherm al
ĠAccount s
comed ogenic
Ġrapp ort
6 3
D isc
R el
i ates
i els
Ġt am
Ġs ought
Ġf aded
Ġn oses
Ġr anch
ĠS M
ĠS MS
ĠW or
Ġco ax
Ġover sized
Ġbr an
Ġset backs
Ġexper iments
Ġrep osition
Ġunderstand able
ĠNe gative
Ġpin ning
Ġfire arms
Ġham strings
Ġwaist line
Ch ild
Ġreve als
oph renia
Ġfertil izers
ĠAdmin ist
ĠUt ilities
ureth ane
Ġhandsh ake
A nt
C he
v ity
in um
Ġo o
Ġy esterday
it amins
Ġg ing
Ġsh akes
Ġout breaks
fe it
fe ree
Ġcl ippings
Ġser v
ĠK ick
oun ters
Ġev olution
Ġmult iv
ĠFr ont
âĪ ŀ
Ġring worm
Ġgra ham
Ġcritic izing
ĠVol ume
Ġproh ibit
Ġdrows iness
Ġcompr ised
c ies
t ogether
w arm
Ġd art
us sels
ĠW ay
so d
Ġk m
ich Ã©
ave l
ract ive
Ġhandle bars
Ġsand y
Ġharm ed
Ġtrim mer
Do es
Ġtag ged
16 8
Ġvict ory
Ġlandlord s
ĠRet r
Ġadmit ting
Ġnit rate
Ġwors ening
d ark
Ġb iod
Ġout lining
ĠF ort
Ġtim ed
ĠIn come
ĠU T
ĠN Y
Ġher s
Ġrec overed
Ġexp onent
atur ally
Ġwind y
cl ose
Ġpin ched
ÂłÂł Âł
Ġrod ents
Ġlad le
Ġinspect or
Ġautom otive
Ġbabys it
supp ort
M s
b ugs
c hest
m al
Ġn ud
Ġbe ers
ac les
if ter
as se
Ġwe aving
Ġv ial
os aur
Ġrec ite
Ġhand stand
old s
Ġthick ens
Ġbrown ing
ĠQ uit
Ġgrass es
Ġuns alted
Ġcalend ars
Ġshy ness
Ġreass uring
mun ition
Ġgerm inate
ĠMich igan
ĠBeh avior
ihuah ua
Ġas p
ĠD ial
ag rams
ra pped
Ġfl ushing
ĠSt raw
ĠSt rain
Ġair ways
Ġart ich
hy thm
ĠSh ut
Ġdom inate
Ġattend ant
ĠEm ergency
Ġmal icious
Ġsus pend
Ġvill agers
Ġskew ers
Ġwhis key
Ġcountertop s
Ġtil ted
ĠCreat ive
Ġlifel ong
m eter
Ġb apt
Ġre ed
ĠC PA
ide os
Ġv iolet
ĠP ed
Ġun load
Ġun att
Ġgr ap
Ġcomp ile
we e
Ġent reprene
Ġrep roduce
Ġed its
ĠSh oot
agn a
Ġrid ge
Ġeight h
ĠCr ush
ĠExper ts
Ġmac ro
udd en
Ġshad y
Ġamb ient
ĠGe orge
Ġdemonstr ated
Ġpor ous
Ġjun ior
Ġunavoid able
C ar
U P
Ġf ainting
im portant
Ġr ape
ess age
ĠB road
Ġme lee
ĠR are
ĠR ich
Ġsc rolling
ĠN uts
Ġem ulate
Ġinformation al
ĠEx fol
St ream
Ġcateg or
Ġmemor ized
Ġnap roxen
Ġsyn ced
Get ting
Ġintent ional
Ġincur red
Ġarrog ant
Ġannivers ary
Ġanat omy
prep ared
P h
t able
t reat
ll ip
en o
Ġin experienced
Ġl ye
Ġre juven
Ġwhe ezing
ĠW ant
ag a
ĠO lymp
Ġmain stream
ster oidal
Ġmel an
Ġthread ing
Ġblog ging
yst ers
Ġsold iers
Ġbirthday s
ĠMo ist
Pro per
Ġrasp berry
imm une
Ġcooper ative
Ġirrig ation
R et
m n
Ġh ier
Ġst ern
ers ed
ĠF lex
Ġpe ek
ĠG IF
ĠN ic
ĠSt itch
ĠSh oes
Ġscr ipts
Ġfinger print
Ġcheese cake
Ġund one
Ġpump kins
Ġborrow ed
Ġcounterpart s
b ath
c ondition
k it
in ches
at ts
Ġd warf
al cohol
Ġre un
ĠI BS
il on
Ġfr uct
ort isone
ĠP ump
Ġk ay
ag gressive
Ġdis qual
Ġsl ippers
Ġcount ed
Ġneg atives
ex cept
ĠUS PTO
ĠTV s
Ġviol ating
Ġbra ided
Ġnumer ical
cont act
Ġpredict able
Ġid le
Ġbroch ure
Ġpodcast s
Ġlethar gic
Ġpretz els
p a
p ins
at ious
Ġm owing
Ġth under
st itch
pp ermint
Ġat he
Ġsp ayed
Ġsc i
ĠG rey
Ġstr ipe
Ġcol ony
Ġam e
ĠK id
ax e
Ġprodu cer
ĠBut ton
Ġterm inology
Ġham m
ĠPay ing
Ġcheap ly
ĠInd eed
Ġsecret ary
Ġrac ist
Ġrecruit er
Ġantidepress ant
Ġdisadvant ages
Ġwrest ling
Ġderiv ative
E L
M en
U R
re ased
Ġw ishing
Ġd ens
ĠA id
Ġcon ve
Ġde ple
iv able
Ġhand ing
Ġcomple ments
Ġvis ibly
ĠSim mer
Ġach ievable
Ġhyp othyroidism
Ġfol ic
Ġcray on
Ġampl ifier
Ġgren ades
Ġail ments
Ġindefin itely
m em
Ġs am
Ġpl asma
ĠM ort
ĠM int
ĠP icking
Ġk in
ĠB ene
Ġsp ite
Ġpe nding
Ġun cl
Ġfo al
Ġsec urities
Ġsal ted
Ġheart y
Ġmiss ions
ĠTy pical
Ġstub s
sm ith
dry ing
Tr ans
Ġmolec ule
Ġantihist amine
Ġintoler ance
Ġenorm ous
Ġpum ice
= -
l iest
Ġf izz
Ġd ancer
Ġbe ep
ad dle
Ġch ard
ĠW arr
Ġim merse
Ġar omatherapy
Ġsa ute
ru cture
com mun
Ġqual ifies
Ġbol ster
ĠGerm any
Ġcuff s
ĠMedic ine
ĠSum mer
Bu ild
Ġcroche ts
ipers pir
Ġremem bered
Ġcatar acts
7 1
h ose
on ed
Ġd ill
Ġl ug
Ġg ifted
st em
ĠC hest
ĠR V
Ġsm ash
ĠJ acks
ĠPl aces
cr im
com a
Ġfill ings
Ġproject ed
Ġfire wall
let ters
Ġsuper ficial
Ġattempt ed
ĠMon ster
Ġvoc als
ĠDevelop ment
Ġenroll ment
Ġsubstit uting
Ġflor ist
re nder
Ġthe ories
Ġre vision
Ġfor ks
Ġpro secution
ĠC ognitive
um ental
ĠF inal
ĠP raise
ĠH orses
Ġbl inking
ĠRe venue
Ġpres criptions
Ġcond iments
Ġactiv ation
Ġhum ming
Ġsil ky
Wh ite
Ġhall uc
Ġunexpected ly
Ġmud dy
Ġcorticoster oids
ĠCe lebr
Ġome let
" .;
1 60
b ial
d istance
k i
Ġb ureau
Ġd ome
Ġd oubles
Ġch inch
Ġch rome
ĠC apt
Ġwhe y
Ġfo g
Ġcr ushing
arr ied
com pass
Ġsimilar ities
Ġrespect ing
Ġtrack er
ĠUS D
Ġrad ar
Ġtre as
Ġfan cier
ĠRub bing
ĠStr ive
cem ic
Ġbrill iant
" >
p osed
he althy
is co
Ġd ia
ve led
Ġan th
Ġnot ation
ĠC ondition
ĠF ac
ĠM B
ment ation
Ġsp illed
pper ware
Ġz ombie
Ġvol can
Ġaud iences
Ġfilter ing
Ġpronoun s
Ġsatur ate
Ġperf umes
Ġconcentr ations
ĠMess age
Ġdiscl osure
Ġferment ation
Ġdisadvant age
Ġfluctu ations
Ġfeat uring
D C
c overed
f il
o ices
he um
Ġp uck
ch in
Ġsh arks
ur g
Ġch ills
Ġch ives
um ple
ĠW D
ĠF er
ick y
ĠO pp
ĠR A
ĠL u
ĠL ack
ord inate
Ġmed ian
ĠK night
ier ce
Ġpay day
Ġpress ures
ĠSh adow
Ġcap tain
Ġcell ul
Ġinj uring
sp ouse
vir us
Ġmar ine
ĠReg istry
ĠLay out
part um
Ġpou ches
Ġexplos ion
Ġadren al
Ġprotr uding
Ġcantal oupe
p ipe
v ag
Ġd itch
Ġh oops
Ġnot ably
ĠC atch
ĠP odge
ment ioned
Ġfl ops
Ġwr ites
Ġam ps
ger ies
Ġhard y
Ġlab elled
Th ings
Ġenc ounters
?âĢĿ ,
Ġframe work
Ġmotiv ating
Ġextract ion
Ġpred ator
____ ____
Ġdab bing
Ġrob ot
Ġcraw ling
Ġrh ubarb
Ġinval id
Ġupgr ading
ĠOh io
eterm ined
Ġissu er
6 9
g irl
m ets
t xt
ĠS ources
ol ing
ĠM ount
Ġgo ats
ĠE tsy
Ġche ated
Ġher nia
Ġam munition
ĠJ ob
ins p
Ġcorrect ing
Ġweb cam
Ġthr ill
Ġexh aling
Ġengine er
Ġ} {
Ġdiff use
Ġcaf eter
Ġoste oporosis
Ġalle ged
gor ith
p aid
t ie
u nds
Ġs ift
Ġy awn
Ġp omegran
Ġsu ds
ĠB irds
ĠL oop
ĠIn box
Ġun acceptable
ens ing
we b
ert ility
Ġdirect ing
Ġret ro
Ġball ot
mer ce
Ġpar an
Ġsand er
Ġspl ur
Ġbur lap
Ġcrack er
Ġsubtract ing
pm atrix
Ġmur der
Ġknead ing
Ġrhin estones
ĠCath olic
F ill
he lls
in ance
in come
Ġb ang
ĠS ites
ie ce
ĠM rs
ĠD est
Ġinc ense
ĠIn fo
Ġplay lists
Ġreg ener
Ġve il
Ġrub bed
Ġsil ently
Ġinf lic
Ġdust y
Ġthr ust
Ġresol ving
Ġbrand y
Ġdisag reements
Ġannounce ment
ĠIll inois
Ġapric ots
ĠCompan ies
Ġoutwe igh
M icrosoft
f ing
m ans
Ġb art
st ay
Ġit iner
oo s
Ġhe aven
ĠS up
ĠTh r
Ġcl ash
ĠH ep
Ġover heat
Ġent ice
ĠCh ronic
Ġturn over
Ġref ine
ĠApp les
Ġinf use
ĠRes et
ĠGr asp
Ġmid w
ht m
Ġblur ry
Ġorch id
Ġunderm ine
S D
W ill
s ensitive
Ġp i
Ġp itches
Ġl akes
Ġbe ware
oo per
Ġj umper
Ġover t
Ġwas ps
Ġlight headed
Ġlo zen
Ġworld wide
Ġdouble d
down s
Ġjewel er
Ġelectric ian
Ġextract ed
ĠInt o
Ġtack ling
ĠStr ike
ĠStret ching
opath ic
hum id
Ġhelic opter
D ec
T or
T ype
Ġb ak
at us
Ġth ief
Ġre feree
Ġr ud
ĠB ron
Ġback bone
ens us
Ġsl acks
ĠK at
Ġcare t
Ġmet aphor
Ġheat ers
ĠSh arp
Ġcold s
Ġauthor ization
Ġign or
ĠStud ent
Ġcontr ary
Ġrhy ming
17 7
Ġdeter rent
Ġphilos oph
Ġwithhold ing
Ġinfring ement
Ġconfron ting
8 7
O pt
a ire
d ates
Ġp ess
Ġh ates
Ġl inking
Ġst igma
Ġr ipping
ĠS ales
Ġtr imes
ĠC her
Ġout burst
Ġcl ichÃ©
ĠB uff
Ġbuild er
Ġdevelop ers
Ġprom ising
Ġfort une
Ġalleg ation
Ġmathemat ics
Ġwaff le
Ġhedge hog
( {\
Ġ ions
in fty
Ġl au
Ġst umble
Ġj igs
ĠM C
Ġdon ut
Ġsl og
ĠBe ll
Ġdisc ont
Ġvis as
ins on
ipt ical
Ġshare holders
St ore
Ġbud gie
ĠCon c
Ġappoint ed
Ġbub bly
Ġdro pper
Ġtransl ated
Ġcro pped
produ ctive
Ġabbrev iations
m aybe
Ġh ipp
ic ity
oo ze
Ġdo p
Ġse as
ĠM ent
ĠB ul
ĠH appy
Ġfl iers
Ġro s
Ġtw in
ĠBe ans
Ġhead bands
Ġobject ively
pro ve
ĠRes erve
Ġrom antically
Ġinput s
Ġpure ed
ĠNet her
ros is
ĠRest ore
ĠBre aking
requ is
Ġpest le
ĠProper ty
Ġlun ches
Ġamend ment
Ġhasht ags
" .,
B ook
e very
Ġt ux
Ġc uddle
Ġre bound
ig ator
ĠA lex
ĠC el
ĠC rit
ĠF ly
ĠM AC
ĠH over
Ġbr idal
og lo
Ġins pir
Ġfast ened
Ġver d
Ġcorn meal
Ġbull s
Ġplat inum
utter ing
Ġlad ies
Res earch
Ġcharm ing
Ġphosph orus
sod ium
D oc
c s
n ings
v ada
Ġs ack
ĠR oy
Ġacc used
Ġins ured
Ġfollow er
ĠJ ersey
Ġprevent ed
Ġ9 8
Ġsty led
ĠAnt ib
Ġnutrition ist
Ġremote ly
Ġstab il
Ġconfig ured
Ġgarnish ment
Ġferment ed
isp here
Ġoxid ation
Ġsemin ars
ĠDiam ond
Americ an
ĠM aker
Ġpr ongs
Ġap ron
Ġsa ff
Ġ4 4
Ġrese alable
ĠCont ent
ĠY elp
Ġcapt uring
Ġhem p
ĠBar bie
Ġclog ging
Ġjerk y
Ġdrown ing
ĠIncre asing
Ġunderest imate
+ {\
Ġm ering
Ġch ia
Ġal gorith
ist ered
per ature
Ġgr ater
Ġper ches
Ġcor iander
Ġmust ache
Ġsub way
Ġsub conscious
Ġsw itched
Ġsw iping
Ġpost al
Ġbrown ie
Ġcontract ion
ĠPr ivacy
Ġspl atter
Ġgovern ments
Ġpsych ologists
ĠSw imming
Ġtransition ing
Ġadvis er
ĠDef ault
ĠCommun ication
Ġlandsc aping
Ġdepr ivation
idel ity
ĠPil ates
Ġschiz ophrenia
Ġsubpo ena
P hot
l arge
Ġt ier
Ġb ure
se ctions
ent ary
oo led
ĠS BA
Ġch ats
ĠTh in
Ġen rich
Ġform ulate
Ġimport ed
Ġmon ot
Ġlo vers
Ġpast ries
plain ed
Ġaccompl ishing
Ġdefend ers
Ġsold ering
Ġbuff et
Ġsed iment
Ġyield s
Ġparas ite
Ġbind ers
\\ &
ĠTim eline
ĠNear ly
Ġreven ge
ĠAnge les
% )
O W
ic ial
Ġst alking
Ġsh ining
ĠA bs
ĠA BC
art ments
ĠC os
os ot
ĠF amiliar
th ms
Ġpe nd
Ġob l
ĠAn imals
Ġsn are
Ġcreat or
not es
Ġorgan isms
Ġwalk er
Ġperform ers
Ġfre ts
ĠLe ather
Ġgrad ing
Ġdocument ary
ĠPr ice
Ġenh ances
eps ilon
grad ed
Ġstarch y
Ġtourn aments
Ġaest het
Ġcockat iel
S H
u ros
in f
Ġc ate
le ment
om iting
ver ning
ĠC ub
ĠW is
ĠD ash
own ed
ĠL CD
Ġpart ly
og ens
ys pace
arch ing
Ġfun gi
Ġdark est
Ġoven s
Ġstretch y
Ġscrew ed
ĠPre vention
Ġemp athize
Ġbuff ing
Ġleak age
Ġendor se
() -
Ġthaw ed
Bl ack
Ġgradu ates
Ġincons picuous
Ġirre levant
Ġflaw less
Ġlaun cher
Ġstereoty pes
ĠGovern ment
ĠLoo sen
Ġfruct ose
p y
w ashing
Ï µ
in ished
at itis
Ġh ive
Ġan orexia
ort ic
ap ist
ĠO x
Ġ1 30
ĠG iven
ous al
Ġph ases
Ġpain less
gg ling
Ġsur rog
Ġchar ms
Ġwa ive
dr ive
Ġconsist ing
Ġpsych iatric
Ġdiss atis
Ġped estr
ML A
ĠCong ress
Ġâħ ĵ
Ġcondens ed
Ġarchite ct
b ags
f inder
n emon
o qu
in atory
on a
if ax
Ġcon verse
ĠC ock
ĠP ath
ak a
Ġsl ate
Ġcor set
Ġgener ations
Ġbed rooms
Ġlower case
Ġlisten ed
Ġring tone
Ġmanu als
ĠJo ining
ĠQu estion
ĠPoint s
Ġculpr it
allerg enic
Ut ilities
osot ros
( );
8 4
9 4
A L
n umber
re ction
Ġm ound
Ġn ode
ĠR ever
ĠR ule
ĠN a
Ġbu ys
Ġclean ly
ell y
Ġgroup ed
ĠPro du
Ġtub s
ĠCare er
Ġawkward ness
Ġsuspect s
ĠWi Fi
ĠHelp ing
Ġcarbon ated
Ġaccum ulation
Ġarbit rator
ĠCert ification
Ġslides how
Ġworkshe ets
ĠFore st
Ġinfer ior
i ens
Ġab ide
Ġwe althy
our ing
Ġsc ab
Ġher n
Ġlight est
Ġref r
Ġprom ised
Ġthick est
Ġfresh ness
Ġseem ed
yl van
Be gin
Ġexcept ionally
ĠCal cium
Ġmicro organisms
Ex p
Ġhyd roc
Ġfault s
ĠUV B
Ġsed entary
Ġmit ts
Ġobstru ction
Ġcancell ed
Ġorthodont ist
B ox
D P
st ation
Ġis lands
Ġat op
Ġsc anned
Ġshe a
ne e
Ġgl utes
Ġmem o
Ġfeed ings
Ġorig ami
Ġenvironment ally
ĠWe igh
Ġdesk s
ĠIntern al
Ġwild erness
Ġhyp ogly
Ġscreens hots
ĠIdent ification
Ġrif les
ĠMot ion
Ġobstru ct
Ġdestru ction
ĠStraight en
Ġt iger
an ese
Ġg igs
Ġr iff
ul u
Ġch uck
Ġout ings
ĠF rost
ĠM ale
Ġinc line
com pet
ĠSh opping
Ġnotice ably
Ġvol t
Ġma j
ĠPr in
Ġden ying
Ġcircumst ance
Ġcomment ing
Ġswallow ed
Ġearth qu
Ġassum ed
ĠCast le
Ġunpro fessional
1 10
r age
à ¦
Ġs ins
at tle
on ce
Ġr ay
ĠF an
ĠP MS
Ġte ab
Ġsc orp
ven ile
Ġcons erve
ord s
Ġhand bag
ĠJ un
ĠRe pe
br and
Ġdevelop ments
Ġblack berries
Ġdish onest
Ġtrad ed
ĠWe ek
Ġwid en
ĠCur l
Ġwal nut
Ġtroubles h
Ġliber ally
ĠTer r
Ġove reat
Ġimpair ment
Lear n
. /
o pl
r ack
Ã ¨
Ġ _
Ġw ides
ĠW ax
Ġcl ap
ĠE state
ĠL osing
Ġspe ar
ĠU nd
ĠN one
Ġdr ib
Ġcons iders
Ġno on
Ġgu iding
Ġexp ands
ĠV inegar
Ġsitu ated
Th anks
Ġju icy
Ġ12 5
Ġsoil s
ĠTr ig
mark et
Ġantib odies
Ġtun ed
Ġtoile ts
Ġacqu iring
Ġsubt itles
Ġlaunch ing
Ġpanc reat
ĠÃ ·
Ġfres her
Sm all
ĠVolunte ering
Ġbroch ures
ĠFact or
Ġwrink led
Ġaqu atic
Cons ult
Ġmenstru ation
ocular s
ĠLou is
- >
? ".
C lear
O b
m i
Ġo ysters
Ġb orax
ĠC ounter
ĠW al
ĠM erc
ry l
Ġdr apes
Ġ3 75
Ġcur ler
oss ess
Ġdi vert
ĠRem ote
Ġblood y
uit ar
Ġmor ale
Ġbra king
Ġshell fish
resp ass
Ġdent ures
Ġcompliment ary
ĠWho ever
Ġobsess ion
Ġdand el
Ġcudd ling
Ġsturd ier
D one
Ġe co
ol o
Ġpl ump
ĠP unch
oc ating
ag ain
Ġim plant
ount ered
Ġsl anted
Ġlo ot
Ġsearch able
az ine
Ġnon verbal
ĠNe vada
Ġanx ieties
Ġrespond ed
ĠPr im
Ġdiss ert
Ġcit ric
11 8
Ġunus ually
Ġhood ie
Ġdot ted
Ġfol ks
Ġenroll ed
Ġvib ration
ĠEmploy ment
ĠJew ish
Ġperipher al
g roup
r ums
v ies
Ġh ides
al i
Ġg oogle
se lect
ĠS ame
Ġad hes
Ġwater fall
Ġdry ers
Ġsur geries
Ġinter fe
Ġorgan izer
Ġje an
amm y
Ġfurn ish
Ġpink s
Ġstre p
ugg ish
Ġrhy thms
uine a
Ġdiffer ing
Ġinvestig ating
Pl an
Ġnod ding
Ġdop amine
h r
m or
Ġfor ty
ro y
ig o
ĠA ND
ep lay
ĠM ath
ra pping
Ġsc ruff
Ġsc iences
per se
Ġ2 20
Ġbel oved
ĠCl ar
ump y
ex amine
Ġgar land
Ġple ased
Ġbi ased
Ġdistrib utor
Ġlubric ate
ĠAccess ories
Ġintr ud
Ġexplos ive
Ġarchite cture
ĠMic rowave
Ġtrimes ter
: $
G A
S cript
t ax
Ġp s
Ġp ave
Ġp aring
âĢ ĺ
Ġat omic
ĠC ore
ĠD an
ĠR aw
Ġsc oot
Ġho ly
Ġexp ires
Ġspr inting
Ġiss uing
Ġenc ountered
Ġma id
Ġrow ing
Ġlaugh s
Ġjournal ism
Ġpa uses
Ġflirt atious
Ġhomeown ers
Ġzig zag
Ġlas agna
ĠCorpor ation
A tt
T ext
u ating
Ġre ck
Ġr ivers
Ġfr aying
ĠF BI
ĠM LA
un ter
Ġsp ook
ĠN ative
form ing
Ġbus es
Ġlo llip
Ġpop ulations
Ġble ached
rib ly
Ġtax ed
Ġchest s
ĠIm port
Ġinitial s
ĠMan ual
Ġpitch ing
Ġfif ty
Ġoccup ation
ĠOrgan ic
Ġobstru ctions
Ġroy al
pher d
ĠQuest ions
Ġcafeter ia
0 4
O ptions
i ants
â Ħ
et tes
Ġr anks
Ġnot ches
ĠF ine
ĠF ox
so cial
ĠB ay
Ġsp ores
Ġgo verning
ĠO p
ra z
ĠE sc
av age
Ġrel ay
Ġho ard
Ġcr otch
co in
alf a
Ġeng ages
Ġcompet itor
17 5
Ġhun ters
Ġfet us
Ġadject ive
ĠFro zen
Ġcomfor ter
" -
C ustom
M us
al one
ĠD airy
pl ug
ĠR ice
ĠR SV
Ġpre st
Ġsk is
Ġacc ru
Ġdet ract
Ġplan ets
Ġsal utation
Ġev ident
mon ary
Ġkey pad
Ġrub s
ĠOr al
ĠQ uality
Ġyellow ish
Ġwid get
Ġgent ler
Ġadopt ive
Ġsea weed
Ġunf inished
Ġcy cl
effect s
Ġlac quer
Ġpanty hose
Ġrefere n
Ġmalf unction
Tor rent
r ane
Ġa u
Ġf aking
Ġp its
st age
ig hed
Ġas hes
Ġr ut
Ġcom bs
Ġpl iable
ĠP ap
ĠB oys
Ġinto x
ĠR ay
Ġthan king
Ġins ure
Ġplan es
Ġtyp os
Ġground ing
Ġcap ability
Ġrid ges
Ġsoak s
Ġrot ting
Ġmild ly
Ġclim ax
Ġinstr umental
Ġsne aking
Ġjaw line
Ġdisrupt ive
Ġrip en
Ġblur red
Ġstencil s
Ġsweats hirt
n est
Ġ Âł
in ators
Ġcon veys
âĢĻ ,
qu oise
Ġdis charged
Ġrel iability
Ġsl uggish
Ġsim ulate
ĠV eg
Ġmarket ed
Ġtor ches
ĠPay ment
Ġtur f
Ġshut ting
Ġdele gate
ĠII I
Ġliber al
Ġstair case
Man age
ĠDam pen
Ġrigor ous
c use
ur ious
ĠC raft
os ol
ĠM yspace
ĠP ossible
ud o
Ġback fire
ĠN er
Ġsk ipped
Ġcle ars
Ġsl ab
ĠBe ach
Ġmed ically
Ġclot ting
Ġbow els
aps ed
Ġant iperspir
Ġra ff
Ġham per
ĠCon duct
Ġemb assy
Ġcow boy
ĠExper ience
Ġexhaust ing
ĠColor ado
Ġspo iled
Ġflatten ed
ĠHP V
ĠVisual ize
Ġantivir al
Ġillustr ations
Ġrecon c
Ġitiner ary
) \
g all
Ġd ime
ic ting
ĠM ist
ĠM ast
Ġsc atter
Ġsc old
ĠU N
erg ing
Ġ5 6
bit ious
Ġill ustration
Ġmold y
Ġsle nder
Ġult ra
Keep ing
Ġtoilet ries
Ġstrengthen s
Ġkil ograms
Ġconfidential ity
Ġcareg ivers
Ġaffili ated
ĠConverse ly
Ġhib ern
ĠRefriger ate
rane an
7 00
R Is
Ġa ce
Ġhe ns
ĠC in
um ed
ĠH I
Ġdis regard
ĠG rease
Ġrel ocate
Ġsl ap
Ġsmo kers
Ġnarr ator
Ġsaw dust
Ġoptim um
Ġgem stones
ĠRad io
Ġaccord ance
E I
e er
v in
Ġc em
ll is
ig gle
ĠC ab
ĠE C
Ġfl ore
Ġph obia
Ġent ities
Ġrun way
ĠV iet
Ġdist orted
ins eng
ĠAt l
Ġthick ened
Ġtra pping
ĠSc issors
Ġcommunic ates
Ġprogress ively
ĠAg ree
ĠEm phasize
Ġ19 2
Ġdepos ited
reg on
Ġtruth ful
Ġpoly urethane
Ġkil ometers
Ġlob by
ĠPo ison
ĠFem ale
ĠVirt ual
H z
v ised
Ġl ary
ĠT a
Ġcan ner
Ġpro l
Ġde w
ach sh
Ġsp h
ĠH ook
ra el
au coma
Ġrec ru
Ġcomm as
iss ued
Ġclass ics
ĠCl erk
Ġpast els
ĠAr r
ĠReg istration
ĠCal m
Ġep ile
Ġsyn chron
Ġterr arium
Ġanticip ated
Ġrac ism
ĠMem ory
ĠCustom er
Ġoct ave
Ġrehears al
count ry
Adv anced
Ġacoust ic
ylvan ia
B oth
B ooks
F ace
M aybe
P rof
V er
j ack
m ic
re present
Ġc iting
Ġw akes
Ġre heat
ĠH ire
ĠR ange
ĠE lder
Ġgr iev
Ġjo king
Ġexper imental
Ġhead board
Ġappe nd
Ġ4 50
play er
Ġred stone
Ġmeas urable
Ġspot light
ĠSelect ing
ĠFl ick
oop ing
Ġeth ic
Ġcrust y
Ġspons ors
Ġlump y
Ġcondens ation
Ġital ic
wr ong
H and
m aster
Ġt angle
res ent
ĠW ine
Ġmo du
ĠO dd
ĠL DL
op ropyl
Ġun rel
ble ms
ĠMake up
Ġdec ade
ĠDe hydration
Ġenc rypt
ĠTr ash
Ġprior it
Ġhost ed
Ġpark ed
ĠSpe c
ĠSte ve
isc us
Ġfant as
Ġcontamin ate
Ġimplement ing
ĠAP R
lam y
Ġtremend ous
Ġnause ous
ĠLSA T
Ġmodu le
l ot
} ^{\
in os
ĠS ample
Ġch ak
ple ts
au ge
Ġsc aven
Ġdis ks
ĠN A
ĠK e
Ġve g
br idge
ins ert
Ġfast eners
Ġpercent ages
Ġpal p
Ġconsult ations
Ġsmart phones
Ġtun nels
Ġdissol ution
Ġintense ly
Ġelastic ity
Ġcheer ful
ĠUt ility
ĠEss ential
Ġabbrev iation
Ġrevers ed
Ġell iptical
occup ied
insp ired
L ay
z illa
in th
Ġw olves
Ġm ints
Ġst ink
Ġpl acent
ĠTh under
ĠP E
ĠP encil
ĠG as
Ġmet ric
ĠCl othing
Ġcost ing
Ġmedic ated
Ġappro ached
Ġz ippers
Ġinj unction
ĠY outube
Ġple a
Ġconsult ants
ĠEm brace
Ġvalid ity
Ġ200 3
Ġsan itize
rav iolet
ĠCommun icate
Ġcrou ch
M V
c redit
t body
re du
Ġm erm
le gged
Ġl onge
ĠC ards
ĠC rim
ĠP it
ĠG ra
ĠCl othes
Ġbed wetting
Ġsepar ates
Ġrout ing
yc in
ĠPe ppermint
ox ic
Ġapart ments
ĠDr ied
ĠAg ency
ĠSpr int
Ġsnow board
ĠRep ublic
oph ane
Ġsubs id
ĠMon th
Ġmattress es
install ed
Ac cept
Ġsket ches
3 60
d am
g ir
Ġst acking
ĠS ix
Ġ" +
od er
ĠE ve
Ġover crow
Ġper se
Ġrel ieves
cl usive
Ġbad ges
Ġtape red
Ġview point
Ġinteract s
lock s
Ġhope less
Ġment ors
press ure
Ġchew y
ĠAss ign
ĠRest rict
Ġchop sticks
Ġshar per
Ġvibr ations
ns ylvania
Con f
Ġles bian
Ġresear ched
Ġmisunderstand ings
O rig
h ar
p aste
s pring
t ons
Ġs atell
Ġb aker
ac ies
ch i
ĠS wing
ĠF le
Ġsp ade
od ed
Ġfind er
Ġche ats
Ġar med
Ġpres erving
Ġdi agrams
Ġpost partum
Ġscrub s
Ġconv ictions
Ġnarrow ing
ĠSte el
Ġcoo perate
Ġwarrant ies
stru ction
Ġgossip ing
ĠFil ter
Ġlethar gy
ĠArab ic
otr ans
Ġdissert ation
8 3
M B
M T
e or
w hy
Ġ ×
st airs
Ġfor b
Ġab using
Ġli k
ĠM oon
Ġbut ters
ra ud
per haps
Ġover re
Ġar ches
Ġprov oke
Ġrest oring
sh ort
Ġsuff ers
Ġflour ish
ĠPre view
Ġroot ing
Ġfertil ize
ĠAss ume
sm elling
asm ine
Ġbisc uit
Ġque ue
Ġprofic ient
Vis it
Ġscramble d
Ġbak ery
9 7
M O
l ift
m aker
y an
Ġ }}
Ġs ar
ver ter
ĠS H
Ġle asing
ol t
Ġde act
ĠB ot
ĠR ome
ĠR iver
Ġun protected
Ġcr iss
Ġrest ful
Ġpot ion
Ġret ract
pr one
Ġlive ly
Ġpupp et
ĠEvery body
Ġbur gl
Ġimag in
Ġhur ric
Ġduct s
ĠConf idence
Ġvib rate
Ġvot er
ĠHam sters
Ġdow els
Ġincons istent
Ġindent ation
ĠCT RL
ĠImpro ve
Ġconson ants
Ġneurolog ical
Ġamuse ment
ĠRSV P
P ost
u ced
Ġp ug
Ġfor age
Ġr ival
ĠC A
ĠC ircle
ĠF ear
so ver
ĠO regon
ĠR if
ĠN ausea
Ġcomp ulsive
Ġfir mer
Ġshort est
Ġpost p
Ġprofessional ism
ĠLe ague
Ġintern ationally
Ġworth less
aur us
Ġrot ary
ĠAtt empt
ĠOut side
Ġsyn cing
Ġalt ar
ĠCol umb
ĠHy per
ĠDevelop ing
Ġdynam ics
Ġyouth ful
Ġbarg aining
ĠMind fulness
Ok ay
O C
c old
p read
Ġt as
Ġm are
Ġd ander
en use
Ġin active
Ġre vert
im b
ch ain
ĠA PA
ĠS U
ĠD UI
so il
Ġag ave
Ġstart le
Ġir is
Ġbutter cream
Ġcollect s
ym met
Ã© e
Ġrecogn izes
ipp y
icro bial
ĠTrans port
Ġdiscover ing
Ġsquat ting
Ġexagger ate
Ġâħ Ľ
Ġtet anus
Ġwholes ale
Ġbir thing
s weet
t oc
Ġw ilt
Ġf isher
ĠI N
Ġwh ipping
Ġfr ank
ĠS ter
Ġex its
ĠR oth
per fect
ose xual
Ġper tain
Ġcat fish
Ġminim izes
und ane
Ġblog gers
Ġestablish ment
Ġclar ifying
ĠRet in
ĠMus cle
Ġshock ed
Ġauto immune
Ġgon na
ĠCalend ar
" :
) ".
D ata
b ucks
c ooking
m ix
Ġt ester
Ġm ute
Ġg ases
Ġg raft
Ġst agn
ig ration
Ġfr amed
Ġte ased
ĠE V
Ġpre requis
Ġem issions
Ġwell being
Ġcons ulate
Ġcur s
Ġfill et
Ġthick ening
Ġmilk shake
Ġpad d
Ġelim ination
Ġoffe nder
gl oss
Ġfund ament
rem ember
Ġtil ting
ĠIndivid ual
Ġcaterpill ars
ĠFrequ ent
ĠAlp ha
author ized
ĠRib bon
Ġpreval ent
M ay
d t
r h
s leep
re lease
ic acy
id ian
ĠS oy
Ġcl ique
Ġte es
Ġover use
ĠG un
ĠG roups
Ġmed s
ĠCh i
ĠAn ger
Ġcomb os
Ġmod s
Ġmod ifying
Ġaff ix
ye llow
Ġrad ical
ĠGener ation
Ġtow ers
ĠEm p
Ġuns ightly
fortun ate
Ġmanip ulative
Ġcompar isons
Ġanch ors
Ġbic eps
Ġadap ted
Ġpremature ly
Ġcamoufl age
c ircle
es cent
Ġg enders
Ġre hydr
ad ium
ive l
fe el
Ġco inc
Ġac he
ĠE rase
ĠN it
Ġcomp artments
Ġunder line
Ġacc l
ific ant
aw k
ĠAl m
Ġsa pp
Ġbook ed
Ġsho el
Ġpost ings
Ġic y
Ġelect ed
Ġter ror
ĠPro ceed
Ġsau cer
ĠCon vert
Ġstat utes
Ġinf requ
Ġblank s
ĠPre ferably
Ġshel ving
ĠFe w
Ġstre ak
Ġquar ant
Ex ercise
Ġgrand children
ĠExper ian
Ġgly col
ĠâĪ ļ
Ġrou x
Ġverd ict
Ġt respass
Ġw ort
Ġl ures
ĠS ar
ĠS el
Ġad orable
and al
age al
Ġdis engage
Ġpre dis
ĠG P
Ġbl anch
Ġem br
Ġam bitious
Ġdes ens
Ġhead set
Ġcond es
Ġprob iotic
Ġconc lude
Ġdeg ener
Ġcell ophane
Ġseem ing
Ġpush y
Ġwet ting
ĠDr iver
ĠDr iving
ĠPr ot
ĠFl owers
Ġrot ten
Ġcrim p
Ġfrag ments
ĠCour ts
Ġimpl ications
Ġcater ing
ĠVer izon
ĠStat istics
Ġsculpt ure
Ġagric ultural
Ġureth ra
+ \
7 3
A ss
D iv
I L
W ait
Y e
ir ling
Ġfr uity
and em
Ġco efficient
Ġlight hearted
Ġgener ating
to oth
Ġmen ing
ĠIs rael
Ġinf ested
Ġadvance ment
ole um
ĠAc id
bl ood
Ġhomes chool
ĠRest art
Ġhun ter
Ġherb icide
Ġhistor ic
Ġuneven ly
def ault
Ġgam eplay
Ġporn ography
Ġquir ky
Ġclust ers
ĠSup reme
, }
0 6
d ogs
â Ļ
Ġc ad
Ġn avel
ab ama
Ġpro pel
ĠP ine
ress ing
ĠE y
ĠL if
Ġback drop
Ġshort ened
Ġwa ived
Ġmult ic
Ġemail ing
umb a
Ġburn ers
Ġharm ony
Ġstat ue
Ġmis leading
Ġstim ulated
Ġmemor ial
Ġsatur ation
Pro v
ĠBall s
Ġtoen ail
Ġaccus ations
Ġsalv age
ĠVill age
ĠPrin cess
m ph
s olving
Ġf ame
Ġf abul
ĠA part
ĠC ort
Ġj al
ĠF iber
ĠP ic
Ġcl over
ĠB ath
and y
ĠR OM
Ġpe ndant
Ġperson a
Ġpo inters
Ġleg ible
ĠV A
ature d
Ġtrans parency
Ġnight ly
Ġbehav es
Ġanim ated
Ġinfl ation
ĠPh D
Ġgentle man
Ġvisual izing
Ġalert ness
ĠWord s
Ġobsess ing
Ġcompre he
Ġmit t
Ġaffirm ative
ĠKn ead
Ġpir ate
Ġeleph ant
3 50
A gain
M on
d et
h ouses
l est
y o
Ġt ins
Ġn ons
ent ry
ig ue
ain er
Ġtr uss
ĠC arp
Ġqu il
ĠN avy
Ġcor nea
ys ical
ty pically
Ġswe aring
ĠEx posure
ĠNe ither
Ġbal con
Ġfur ry
Ġsens ors
ĠBl ot
Ġfirm ware
rel and
Ġseal able
Ġinh aled
ĠPull ing
Ġflo ppy
ĠPen nsylvania
Ġsubscrib ers
ĠMuse um
- \
s ource
st y
ĠT ail
Ġr heum
ĠS udden
Ġpl umber
ĠG ED
Ġper taining
Ġsl ash
Ġread able
Ġcr adle
ne red
Ġcur few
Ġclose ts
Ġpet ty
Ġpub ic
Ġhum ili
Ġinf used
Ġpromot ed
Ġanticip ation
Ġdeduct ed
Ġrecruit ment
Ġbeet les
Ġlax atives
Ġprejud ice
Ġfundrais er
Ġbure aus
otrans mit
/ )
o ples
Ġa le
Ġb il
Ġd ug
Ġh og
Ġh itch
st rength
Ġre name
ĠT zu
ct omy
ĠA K
qu in
ard on
Ġcl ams
un ny
iz ens
Ġke g
ĠN orthern
Ġpar ake
Ġtechn ologies
Ġtooth brushes
Ġcrit ically
Ġmis inter
Ġped ic
Ġpure bred
Ġchlor ide
xx xx
Ġprocrast ination
Ġchron ological
Ġvic inity
P ower
T ips
Ġf ades
Ġm undane
Ġh ilar
Ġu pp
ent a
Ġal f
Ġab n
Ġtr ape
Ġpl ucking
Ġen rolling
pl asia
ĠR am
Ġher mit
Ġsign ify
ĠAn gel
Ġspr igs
Ġmater nity
Ġrese ll
Ġinterview ed
Ġveterin arians
Ġ24 0
25 5
ĠEm otional
Cl ose
Ġenh anced
Ġsch olar
Ġraz ors
ĠFriends hip
Ġelectroly te
Ġiv ory
Ġner d
Ġglam orous
eph rine
Ġdiscont inue
b ooking
e valuate
i ably
n ier
Ġp aternity
Ġex ceeds
ĠC SS
ĠF abric
ick ed
Ġtime frame
Ġun in
Ġwell ness
Ġunder weight
ract ors
ener gy
Ġhead lights
ĠAn gle
Ġpat iently
be nd
Ġpol o
Ġfull ness
Ġdiv isible
Ġaltern atively
Ġanal yst
Ġmagn ification
ara oke
Ġblind ness
ĠIdent ifying
Ġquir ks
List en
Ġwaff les
Ġovere x
Ġincap ac
iaz ep
nit us
Ġdisg ust
G oogle
c ape
h ound
ĠT ear
ig are
ab eth
Ġtr aged
us al
Ġ( +
Ġv ases
ĠL EG
Ġres orts
Ġplay back
Ġcor ro
ru ly
oun cing
ĠV iol
Ġsn oring
Ġsym pathy
Ġcirc ulating
Ġspecial s
Ġmot ives
Ġdraw backs
Ġcondition ed
In put
Ġdrug stores
Ġann ul
Ġrot or
Ġanaly tical
Ġshield s
Ġextensive ly
Ġconserv ation
Ġtorn ado
Ġbetray ed
Ġhasht ag
ĠBirth day
Ġcapac itor
Ġinquir y
Ġmicroch ip
Ġconstrain ts
oglo bin
Ġd unk
Ġn oodle
Ġis opropyl
ent h
ro ids
ĠC ru
ĠC md
ĠH OA
ĠH ollywood
ĠR PM
Ġun fortunate
ĠN ames
Ġstr ipped
Ġsub missions
erm ost
Ġsw ish
Ġbook let
ention ally
Ġsn ag
Ġsqu ad
the st
Ġeng ra
Ġtable top
yl um
Ġassist ing
Ġdin osaur
Ġmarr iages
Ġincorpor ation
ĠEd ge
Ġbare foot
see ing
Ġwitness ed
Ġinsp ires
Ġpa vers
Ġkil n
Ġflood ing
ĠTur k
Ġabrupt ly
ĠDav id
Ġplacent a
C ard
T op
Ġ à¤
Ġt aps
Ġto pped
Ġm nemon
Ġbe gging
ĠT ay
ch anging
res cent
Ġk ibble
Ġdon uts
Ġrel ieved
Ġbo lder
Ġmet h
Ġgener ously
Ġaccount ability
co ins
Ġgrow ling
unt ary
Ġdise ased
Ġsuper hero
Ġremind ed
Ġpath ways
ĠMed ications
Ġhip ster
Ġcos play
Ġblo ated
men u
Ġslim mer
Ġauthentic ity
ĠSchool s
Ġneur otransmit
ĠPur ple
Ġdownt ime
ĠGard en
Ġsuffere rs
Exp and
f ah
p ol
y ers
er ry
le ad
ill in
Ġst ip
ĠA F
ab i
Ġli ed
ĠM ush
th irds
ĠD ed
Ġar omatic
Ġrel iever
Ġser rated
Ġinform ing
Ġpur ses
Ġinter ference
Ġsn ooze
Ġpar ac
Ġadjust er
Ġgra ve
ĠMix ing
Ġjar gon
bol t
Ġhyp o
mo ving
ĠElect ronic
Ġtens ing
Ġexch anges
Ġresil ient
Ġteles cope
1 30
2 000
B re
R equ
k ens
Ġm p
Ġm oth
Ġm oms
Ġh unch
ly cer
ad ine
ĠP P
Ġcl iff
Ġall ies
up us
Ġskin care
Ġret ired
Ġpol ar
Ġappear ances
Ġfit tings
Ġinit iating
,,,, ,,,
Ġprogress ing
Ġrestrict ive
ograph ics
Ġhall s
iter ranean
Ġghost s
Ġphosph ate
And roid
Ġdeterior ate
Ġende avor
Ġhalluc inations
- ,
4 50
D ef
Ġm ite
le af
Ġh ull
Ġu ric
ul ance
Ġle agues
el come
lp ful
ĠG uinea
ĠU PS
Ġgr in
ĠSt ation
Ġlist ens
Ġdec al
Ġind ie
Ġsal aries
Ġtest icles
Ġpick les
Ġbar code
Ġhad n
Ġmar bles
Ġbudget ing
Ġmanufact ure
ĠDraw ing
Ġdetect ion
ĠCar ib
Ġtour ists
Ġunhe lpful
ĠSur gery
Ġimpl ied
Ġsharpen ing
Im age
htt ps
Ġvolunt arily
Ġgad gets
ĠFranc isco
Ġwides pread
Ġb ids
Ġto ning
Ġp amper
Ġm ugs
ac am
Ġha ul
Ġst inging
am er
ĠA round
ple ase
Ġco aster
ra h
op ies
omet own
ĠSt age
tern ut
Ġgl aucoma
Ġdet ached
Ġgener ates
Ġvol um
Ġju venile
Ġfrequ encies
cut ting
Ġge ometric
Ġsen iors
Ġnic kel
Ġrac ial
ĠCap ital
ĠHam mer
Ġbless ing
ĠOk ay
Ġabund ance
Ġpige on
DV D
Ġinterfe res
Ġflore ts
m ay
t ap
in ine
Ġm ould
et a
ĠT ower
im sy
ĠI reland
ĠS em
Ġwe ighed
ĠF TC
ĠP HP
Ġmo bs
Ġen ric
od s
ĠR ate
Ġfl ushed
Ġhand written
rap s
Ġdist ortion
Ġdesign ation
Ġlog ically
Ġpen nies
ĠDis pose
Ġpsych otherapy
Ġbuck s
Ġord in
ĠMod el
Ġdiscrim inatory
Ġbin oculars
Ġsuck ed
Ġfingert ip
Ġassemb ling
produ cts
ĠChem ical
Ġsurviv ors
Ġwatt age
Ġdesp air
Child ren
Q L
V al
o pp
Ġp onds
ar re
Ġl oser
Ġv alley
we bs
ound ing
Ġam ber
Ġcr umple
Ġmet ron
Ġcal iper
Ġeye ball
Ġsoft ball
Ġpick axe
ph ot
Ġsince rely
Ġfresh water
Ġcas ino
urch ase
Ġdistrib uting
Ġagg reg
Ġimpl ants
Ġov arian
Ġbloom ing
Ġcorre ctions
Ġshimmer y
Ġimprov ise
alph a
Ġdissip ate
Ġdign ity
5 1
I ON
r ather
s omething
Ġ Ø
Ġd aring
Ġd ashes
Ġd rought
ut er
Ġdo ork
ĠC S
ĠP u
Ġsp ins
Ġcle avage
Ġsur render
ĠCh amp
Ġcirc uits
Ġdeg re
Ġobject ion
Ġconst itute
Ġrout ers
Ġproject or
ĠIm p
ĠMed iterranean
Ġknot ted
There fore
Ġneighborhood s
Ġcramp ed
Up date
Spe ak
Ġdrows y
b ot
b as
d ue
e ating
f loor
n ose
Ġp es
Ġh ots
ĠC C
ĠH o
Ġfl ock
gin a
ton ed
com mon
Ġeyes ight
ĠDe cl
Ġtrave ler
cent ered
Ġmass ages
Ġcounter claim
Ġveter an
yst ems
Ġextract s
Ġtransport ing
Ġcompress or
ĠBack up
Ġlact ic
ĠSubst itute
thy roidism
Ġpudd les
0 3
N G
Ġd um
Ġe lic
ĠS on
Ġch ant
ĠW W
ĠW iki
ĠM i
ĠP eter
ry ption
Ġpe oples
ĠE PA
ĠL aser
Ġtw ins
ish op
vent ional
Ġpoint less
Ġcal med
Ġorgan izers
Ġgir th
hol es
Ġtap es
app roximately
Ġassign ing
Ġjoint ly
Ġpath way
Ġign ite
Ġexfol iation
Ġdos ages
Ġspons ored
Ġcarp enter
jud gment
def ense
Ġroy alty
Ġlod ged
Ġdilig ent
Ġinfin ite
alg ia
ĠKore an
ĠRottwe iler
Ġunatt ractive
Orig inal
Ġtrape z
n ox
Ġp oodle
ion e
st al
Ġr acco
Ġcom pelled
ĠP ale
Ġfl ask
Ġdr ibble
urn al
te ll
Ġopt ing
Ġap h
Ġcheck out
Ġear liest
ĠUn fold
Ġrepl acements
Ġje opard
ĠFr ame
Ġland marks
Ġbond ed
Ġinsert ion
rain ed
ĠLay ers
Ġvalu ables
Ġcommercial s
orr hea
Ġconfront ed
Ġswab s
Ġsword s
Ġgy ne
Ġexec ution
Ġfluct uate
Ġjun gle
Ġfidget ing
Ġsel enium
Ġtestimon ials
c irc
h ide
s un
er ver
il ings
ĠF L
ĠL ee
Ġhand made
Ġend ure
ĠAn onymous
Ġ7 00
ĠHe brew
Ġrepl ies
Ġsens it
Ġ{ {\
Ġhus k
Ġisol ating
ĠHy p
conf ig
Ġdefect ive
Ġundert one
AF SA
Ġphenomen on
Ġhilar ious
ĠCarib bean
F it
p ull
v ard
he y
Ġw ither
ĠT ag
ver bs
Ġli ens
ĠD il
Ġsp ousal
Ġen light
ĠH ousing
Ġme g
Ġcomm issions
Ġrest oration
Ġlevel ing
Ġclass ification
ĠSe xual
be fore
Ġsleep s
Ġprep ares
Ġfur thest
Ġur g
Ġforce fully
Ġscal y
Ġconce ive
Ġhop ed
Ġcompress es
ĠDi abetes
Ġpup il
Ġgut ters
Ġsear ched
Ġanonym ously
Ġrecre ation
Ġbetray al
Ġattain able
Ġstun ning
Ġneglig ence
ĠProb ably
Ġinhal ation
ĠMean while
Ġkiw i
Intern et
Ġdevast ating
D R
a a
e nder
Ġin verse
ve e
Ġex pel
ĠD im
ress ive
ĠH osp
ĠO ak
od ial
ĠL ake
Ġun not
Ġcomp uls
Ġunder arms
ĠSt orage
other mia
tern ess
Ġpay out
Ġ4 6
ex ample
Ġvol ts
sp ot
Ġgot ta
Ġgen es
Ġut ilizing
Ġclock s
Ġemphas izes
ker chief
Ġpell et
ĠEqu ifax
Ġmisunder standing
Ġaudit ory
ĠFlat ten
ĠContin uing
bud s
Ġpall et
Ġepile psy
Ġfabul ous
1 90
T H
p ocket
s ince
s oluble
Ġs ire
Ġw atts
ĠM arsh
ĠD ental
ĠG re
Ġhas h
Ġeas ing
Ġref uge
ĠEx am
Ġproject ions
Ġwait er
sp in
ĠTr i
ĠSc ott
Ġharm on
Ġdirection al
Ġinf ertility
Ġrent ed
Ġtur quoise
Ġtun es
ĠAm ong
Ġsymbol ic
Ġgraph ite
Ġdissol ving
Ġhyp nosis
Ġlat te
Ġspark s
Ġpanc reas
Ġshar ply
ste in
Ġmast urb
ĠSwe lling
Ġsip hon
Ġreinfor cing
ĠCurrent ly
ĠGoth ic
Ġcylind rical
Ġsnowfl ake
Ġpess im
Ġunrel iable
Ġlonge vity
ĠLEG O
C over
h al
j ury
it ures
her ing
Ġsh ards
ĠP and
ace ous
Ġbr agging
op athy
ĠG raph
Ġsl opes
Ġfree zes
Ġfoot ing
ym bol
Ġexc luded
Ġspl ashing
Ġdefe ated
Ġple ad
Ġstock ed
Ġgarden ers
Ġloop ed
ĠPer fect
Ġexcept ional
Ġdial ing
Ġrect al
Ġpun ishing
Ġnarrow ed
Ġsecret ions
Ġretain ed
Ġ# *
ĠMin imize
Ġfort un
Ġrum or
Ġrenew ed
ĠTre as
ĠBeaut y
h as
l an
r ick
s al
Ñ ģ
Ġthe aters
Ġb ould
Ġb ounds
Ġd arts
Ġe cos
st ration
Ġr ation
ĠS aut
ĠC H
ĠC orrect
Ġde humid
ĠM is
ĠD ock
ĠD ump
ĠB ond
Ġdown hill
og y
te lling
Ġcat ast
stand ard
Ġdi ver
cl osed
set te
Ġloo fah
Ġrad icals
ĠPress ing
Ġmild er
Ġâ ĩ§
Ġuns uccessful
ĠInd e
Ġdetect ors
Ġcapital ize
Ġstimul ant
Ġvot ers
Ġlod ging
Ġexplo it
Ġjuic er
ĠElim inate
Ġinspir ational
H y
W hether
p our
Ġa rous
Ġc aked
Ġn ations
st ated
st eps
ot ing
Ġre ef
Ġfr ay
Ġtr aced
ĠP A
ĠL oc
Ġacc lim
Ġcheck up
Ġcheck ups
Ġ5 4
Ġpres erved
Ġfore most
ĠSp ain
ĠBl ur
Ġmar inate
Ġobs c
box es
ĠIm ages
Ġspin ner
Ġrod ent
Ġbill ion
Ġsimpl icity
Ġalter ations
ĠChe ese
Ġautom obile
Ġannounce ments
Ġlinger ie
Ġpropriet orship
focus ed
Ġplag iar
M r
S te
Ġs ow
ot ions
Ġre bell
ĠI U
ĠC re
ap hyl
Ġpart ing
Ġbl ouses
Ġcol ic
Ġsign ifies
Ġman ages
oss ibly
Ġ10 2
Ġbar rels
uc id
Ġpar ole
ĠCont rary
Ġdocument ed
ĠPr ime
het ical
ĠIs lam
Ġgra ze
Ġgra zing
Ġnews letters
Ġassess ments
Ġcomment ary
aund ice
Ġsubs criptions
ĠRight s
Ġcompress ions
ĠHum ans
Ġunh appiness
Ġharass ing
duc ive
ĠRegular ly
Ġsurg ically
Ġintro verted
Ġindirect ly
Ġcompos ite
Ġtriv ial
Ġpomegran ate
F act
he els
re port
on line
Ġd ents
Ġr amps
Ġpl ac
ĠF ailing
ĠM ask
Ġad vers
Ġme re
get ting
Ġdisc ontin
Ġsol vents
Ġaut ograph
Ġsoft ening
Ġintrodu ces
ĠInc luding
ĠBr ussels
ĠFe eding
Ġcancer ous
Ġfashion ed
ĠUs ers
Ġwild ly
ĠStud ying
ops is
Ġroof ing
Ġgran ite
Ġamb ulance
ĠClear ly
ĠYog urt
Ġdimin ished
Ġris king
Ġdownt own
Ġrestrain ed
âĨ Ĵ
Ġdrib bling
Ġmening itis
P ersonal
R ef
l ah
l iter
n x
r ial
s aturated
z o
Ġm unch
im ation
im ia
ct ur
Ġfr ayed
Ġcl inging
ĠH erm
Ġstr uck
als amic
Ġdifferent ial
Ġschool ing
Ġob nox
ĠV ideos
Ġsw irls
acter ia
Ġair borne
gram s
Ġant im
Ġforward ing
Ġfore ground
Ġang ular
Ġrock y
Ġwip er
Ġ,,,,,,, ,,,
ĠDef ense
Ġfol k
Ġpist on
Ġ____ _
Ġquad ratic
Ġfuss y
Ġfasc inating
Ġame nds
ĠJacks on
! ",
N O
T est
he alth
Ġc d
ing ed
Ġm ixtures
ro of
Ġcan oe
Ġsh uff
Ġwh ine
Ġr ips
Ġr ye
Ġcon ducive
ĠS old
Ġnot ion
Ġch ipping
ĠP ill
Ġtim et
Ġte ap
Ġcons ignment
Ġhair dryer
ĠAl ert
ĠTo oth
ĠJ ama
Ġext r
Ġdisc rep
Ġavoid ance
Ġcert ify
Ġcent uries
ĠCl aim
Ġreal tor
Ġletter head
Ġfig s
Ġmat ted
Ġfinal ized
Ġmental ity
ĠBring ing
bre aker
Ġflo ats
Ġdetect ive
Ġgrand ma
Ġaer osol
Ġcompens ated
Ġuniform s
ĠCol ors
ĠMin or
ĠCustom ers
ĠPublic ation
Ġcompanions hip
ĠAnaly ze
ĠWa iting
Ġgenet ics
Ġburrit o
Ġsplur ge
I dent
es is
ant h
ĠL as
ĠK ind
ted ly
lo x
Ġreal m
Ġextra ord
Ġmess ed
St r
Ġcompl ication
Ġrent als
Ġge ek
Ġcraft ed
ĠForm ula
Ġdro plets
Ġappet izer
Ġsus pense
Ġmuc ous
ĠCount ry
Ġmart ini
istur bed
Ġconstit utes
Ġphysi ological
ĠVictor ian
Ġbackp acks
Ġlozen ges
g ies
Ġt roll
ĠF MLA
Ġres ign
Ġun authorized
Ġam azed
Ġread just
Ġins ign
Ġlit eral
Ġallow ances
Ġnow adays
Ġhor ns
Ġdress y
omat ically
Ġheight ened
Ġearn s
ĠStud io
Ġimplement ed
Ġfart hest
Ġgrace ful
Ġexpend itures
iP hone
Ġsab ot
Ġsociet ies
G reen
O ften
V ideo
g ian
l ite
p ages
ou ched
Ġb umper
Ġf al
pe e
ĠC ust
ĠF und
ĠM old
od ay
ĠâĢ ¦
ĠE ll
Ġfl es
Ġdis perse
Ġpart itions
Ġqu arts
Ġwater line
Ġchild ish
Ġve nding
ĠAl abama
Ġsal ons
Ġletter ing
Ġring ing
Ġund isturbed
ĠKnow ledge
ĠEd ition
Ġsweat pants
Ġment hol
part icularly
Ġmal t
Ġexplore r
Ġshr inking
ĠDet ails
Ġalarm ed
Ġvel cro
ĠEmploy ers
def ined
Ġhover ing
ĠBB B
ĠAnn ual
ĠEnviron mental
) /(
1 40
L Y
u v
re x
Ġm es
an xiety
Ġof t
Ġl imes
Ġwh ist
ĠA R
ul ents
Ġch illy
ol n
Ġde form
ĠD awn
ĠP un
ĠH en
ĠH ello
ĠR oot
Ġres ur
ten ant
Ġhand kerchief
Ġins pected
ject ion
ĠV omiting
Ġsleep iness
co ated
Ġ6 8
Ġ20 11
Ġtight ened
Ġer asers
Ġsweet en
Ġengine ers
Ġdemon stration
Ġcoord inating
Ġmer it
Ġsynt hes
We b
Ġdu vet
Ġcul inary
Sub mit
ĠVeh icles
Ġrheum at
5 8
7 50
E X
U pload
p ath
it ol
it ical
Ġp amp
Ġh ometown
ad ows
ĠM arriage
ĠM OD
Ġwork book
Ġmin ce
Ġinv oices
Ġpaper clip
Ġcal ib
Ġparent hesis
Ġbit terness
hy d
ĠJust ice
sh are
Ġcou ches
ateg ories
Ġland line
man age
ĠTe ens
ĠAc et
ĠAc upuncture
Ġdraft ed
ĠTest ing
Ġjur or
En sure
Ġsatisfact ory
Ġenerg ies
Ġlux urious
Ġbloss oms
ĠHind u
pron ounced
Ġdolph in
d ata
e ight
y ster
ĠS a
ĠF irm
ĠM ust
ame le
ĠIn quire
âĢĿ ),
Ġatt ent
Ġdes per
rop hy
Ġpat ting
Ġass umes
Ġfull est
Ġred o
Ġdeep est
Ġadjust s
Ġreact ive
ese ed
Ġpush ups
Ġfix es
ĠMe as
cell aneous
Ġbi ases
Ġsmile y
Ġdivid ers
ĠSur v
Ġrob ust
âģ¡ (
Ġbund les
Ġpix el
Ġgal van
Ġbloss om
ĠRap id
Ġhamm ock
chin acea
mans hip
9 00
M ail
e nding
m ails
Ġt ipping
Ġb ree
ĠA qu
ĠS ad
ĠS olid
are l
per man
Ġres ale
og a
Ġsl ant
Ġshe en
Ġdes cend
use t
Ġpar ade
ĠNe utral
mit t
Ġdiv ider
Ġbul ge
Ġdent ists
Ġwarr ior
ĠBack ground
Ġsaus ages
Acc ording
Rec ogn
Sim ilar
Every one
Ġcorticoster oid
Stud ies
Ġhypogly cemia
Ġannul ment
S E
j a
r ot
v ine
it o
Ġn apping
Ġn ooks
Ġg ills
ac cess
ill es
ch oice
ĠS oul
ul ge
ard i
ack le
and escent
Ġsp indle
arm a
ĠJ udge
Ġcard am
Ġstay ed
Ġmem ent
fl ag
ĠCom pet
Ġsuccess ion
Ġwom b
app s
ĠWe ak
hold ing
Ġseek s
Ġsou ven
Ġdefend ants
Ġhous ed
Ġdehydr ator
Ġcough s
Ġsubtract ion
ĠStar bucks
Ġscientific ally
Ġaffirm ation
ĠAv oc
ĠEv idence
Ġnu is
Ġital ics
Ġinherent ly
Ġintraven ous
Ġmultiv itamin
Ġhier archy
Ġjigs aw
ĠSaut Ã©
H air
O B
V ol
f ather
it ters
ĠA st
Ġr ains
ess ential
ĠW ring
ĠP ets
Ġlike wise
Ġco hesive
ĠL at
Ġfl oured
Ġjust ified
Ġag itation
Ġspec ifies
Ġcr icket
Ġhead ers
Ġpat ents
Ġsw amp
Ġpop ulated
hy de
Ġda wn
Ġrespons ibly
ĠPe an
Ġsil ica
Ġcross word
bon ate
Ġweb bing
Ġbur p
Ġneighb oring
ĠZ oom
ĠChrist ians
ma ids
Ġsnow man
Ġhal t
ĠAss istant
Ġvulner ability
Ġbump y
Ġmim ics
Ġdys plasia
call ing
Ġlegisl ation
omed ay
Ġdia lect
ĠTay lor
acam ole
c amp
n ever
o inting
at ility
Ġre app
Ġch apped
ĠC EO
Ġde worm
Ġout patient
Ġv ault
ĠF ashion
Ġcl am
Ġen semble
ress ure
ĠE yes
Ġbo om
arn ings
ĠCh ihuahua
ru gs
Ġret ains
Ġpol ishes
Ġwa ited
Ġmedic inal
Ġce ilings
Ġunc ond
Ġpun ished
ĠOpt ionally
Ġmast ering
Ġrehe arse
Ġlig ament
ĠBac helor
Ġacron ym
ĠTu pperware
Ġhambur ger
E ating
f ry
f elt
i ology
p itched
Ġt a
Ġf ighter
et hing
if i
Ġle ases
fe e
ĠP T
iz abeth
ĠH ol
ra ised
Ġunder gar
Ġsur ve
Ġrep ository
Ġdisc ern
Ġconf ide
Ġcreat ively
ouch ing
ĠOr th
Ġquestion able
ĠSp y
ann ies
Ġdisp osed
atin um
ĠDef in
ĠHand le
Ġbru ised
Ġdys lex
ĠDoc s
Ġow es
Ġfulfill ment
wa isted
Food s
Ġsevent h
gall on
- {\
2 25
F A
I de
S ur
Ġto kens
ĠT B
ĠI SP
Ġas c
ad ryl
ĠS ne
Ġex iting
Ġde let
ĠF iling
ĠE e
Ġun con
Ġtop soil
Ġwin ners
Ġsheet ing
Ġrain fall
Ġbroad en
Ġenh ancing
Ġbump ing
organ ic
Ġrh iz
Ġsucc inct
Ġrou g
Ġcooper ation
Ġplugin s
unct ivitis
ĠFamiliar ize
f em
o vie
v isions
y r
Ġs agging
Ġg inseng
ple x
Ġup keep
ĠF TP
ĠM s
ĠD iss
Ġen vy
ĠE b
Ġover hand
ĠG ate
Ġimp ose
Ġopt ical
Ġcal ms
Ġsoft ens
fl ops
ĠSo aking
Ġinfl ated
Ġforg iven
Ġcomprom ising
Ġdisapp ro
ĠAff idavit
ĠTod d
Ġsket ching
Ġcrumb ly
, '
D ad
E s
c opy
f ighting
Ġto ken
it age
nd ers
Ġbe g
et ery
Ġon coming
if ully
Ġan ge
ĠS her
Ġup graded
oc oc
ĠR isk
ĠE S
Ġwork force
ĠG ear
av i
Ġro sy
Ġpo pped
Ġcons oles
ne ed
Ġend ings
Ġsec luded
Ġ4 1
bo iled
ĠInst ru
pr otein
St ate
Ġindic ations
ĠQ R
Ġpony tails
Ġcomprom ises
Ġvul va
Ġinterrupt ions
vas ive
ĠChe wing
ĠSy nt
Ġevapor ates
ĠTechn ology
Ġrecru iting
S n
l ishes
m ort
it zer
an ol
ed it
Ġl ull
se lling
ĠA LL
ab bing
ĠF ant
Ġph on
ĠPl ain
de velop
Ġru led
---- -|
cons in
Ġwithdraw ing
Ġoptim ize
IM P
Ġbrew ed
Ġrestr iction
upun ctur
Ġgast ric
ĠMc Don
Ġinnov ative
abras ion
ĠPac ific
Ġbrid le
Ġsatell ite
W omen
b ug
n ants
t itle
Ġa z
it arian
es ters
Ġe ard
ĠT un
Ġhe ctic
pe h
ĠS EO
Ġtr ipping
ĠC ow
Ġpl astics
ort ment
ĠF AFSA
ĠM ild
ĠM ouse
Ġbl ower
Ġun kind
og ging
Ġreg row
Ġreg ulating
erg art
Ġcase worker
Ġteam work
Ġvol atile
Ġkitchen s
Ġstrateg ically
Ġtre ble
Ġrev isions
ĠState ment
Ġdecl ared
Ġrank ed
Ġorth oped
Ġrept iles
ĠDom estic
Ġcha os
Ġnotor ious
Ġemeral d
Ġhydroc ortisone
Ġantim icrobial
5 3
N SAID
a pper
c as
g les
he llo
Ġf oss
Ġe g
il ter
ĠS W
ĠP R
Ġcl umping
Ġfl op
ĠG el
lud es
ĠBe ef
Ġno vice
Ġopen ness
ĠV alley
Ġ4 9
Ġextra vag
Ġveget arians
ĠCom plaint
Ġcustom ary
Ġstuff y
Ġimm ob
Ġwindows ill
ĠOff ering
Ġvalid ation
Ġpurs uit
gl ue
quar ter
Ġpoly n
ĠConnect ion
ĠBet ta
Ġbic ep
() /
Ġdisturb ances
ĠTem ple
Ġacknowled ged
Ġnarciss ist
Ġsacrific es
Ġtul ips
Ġpave ment
c ous
r il
Ġs led
er ation
at u
on ometry
Ġp acing
Ġe art
ot ed
ch y
ol ita
ip ated
Ġfl ipped
Ġchild birth
Ġho pping
ivid ed
Ġsqu ish
Ġrele v
Ġintern ally
Ġspot ter
ĠAll iance
Ġflu x
Ġcam el
Ġcouple d
Ġbur d
Ġagree able
Ġge ographical
Ġmill et
Ġrain water
Ġbroad casting
Ġgrain y
ĠCent ers
Ġsoy beans
Ġfright en
Ġhypot enuse
ĠVar ious
week ly
Ġtac o
ĠImm igration
ĠBrain storm
Ġvolcan o
ĠVeg as
Ġaccl imate
K EY
j ar
Ġm ish
or ical
ed o
ct urnal
ad or
ĠM ur
Ġk araoke
ach uset
ĠH unt
ĠR ole
Ġsc aling
ĠL ate
ĠL ady
Ġimp ly
Ġacc use
Ġsur plus
Ġpresent able
Ġelect roc
sp ir
Ġminim ally
Ġchem ically
ĠSc out
Ġwidth s
Ġconflic ting
Ġgall eries
ĠCall ing
ĠAct ing
ĠCo ast
Ġhyper link
ĠPat tern
ĠEmploy ees
leg m
Ġnour ishing
Ġbackst ory
ĠRelations hips
Ġtad p
achuset ts
= $
P ort
U M
p ound
r ists
Ġs ash
Ġb inary
Ġn agging
Ġg in
ĠT rou
ĠI b
Ġr aining
Ġle opard
os itions
ĠF ake
ĠR ide
ĠL iter
Ġdis interested
op edia
ĠG er
Ġper for
Ġman a
Ġpost ures
uit able
Ġremo vers
sh aft
do ll
Ġenem a
ĠMac s
Ġult raviolet
[...]
