{"<s>":0,"<pad>":1,"</s>":2,"<unk>":3,"<mask>":4,"!":5,"\"":6,"#":7,"$":8,"%":9,"&":10,"'":11,"(":12,")":13,"*":14,"+":15,",":16,"-":17,".":18,"/":19,"0":20,"1":21,"2":22,"3":23,"4":24,"5":25,"6":26,"7":27,"8":28,"9":29,":":30,";":31,"<":32,"=":33,">":34,"?":35,"@":36,"A":37,"B":38,"C":39,"D":40,"E":41,"F":42,"G":43,"H":44,"I":45,"J":46,"K":47,"L":48,"M":49,"N":50,"O":51,"P":52,"Q":53,"R":54,"S":55,"T":56,"U":57,"V":58,"W":59,"X":60,"Y":61,"Z":62,"[":63,"\\":64,"]":65,"^":66,"_":67,"`":68,"a":69,"b":70,"c":71,"d":72,"e":73,"f":74,"g":75,"h":76,"i":77,"j":78,"k":79,"l":80,"m":81,"n":82,"o":83,"p":84,"q":85,"r":86,"s":87,"t":88,"u":89,"v":90,"w":91,"x":92,"y":93,"z":94,"{":95,"|":96,"}":97,"~":98,"¡":99,"¢":100,"£":101,"¤":102,"¥":103,"¦":104,"§":105,"¨":106,"©":107,"ª":108,"«":109,"¬":110,"®":111,"¯":112,"°":113,"±":114,"²":115,"³":116,"´":117,"µ":118,"¶":119,"·":120,"¸":121,"¹":122,"º":123,"»":124,"¼":125,"½":126,"¾":127,"¿":128,"À":129,"Á":130,"Â":131,"Ã":132,"Ä":133,"Å":134,"Æ":135,"Ç":136,"È":137,"É":138,"Ê":139,"Ë":140,"Ì":141,"Í":142,"Î":143,"Ï":144,"Ð":145,"Ñ":146,"Ò":147,"Ó":148,"Ô":149,"Õ":150,"Ö":151,"×":152,"Ø":153,"Ù":154,"Ú":155,"Û":156,"Ü":157,"Ý":158,"Þ":159,"ß":160,"à":161,"á":162,"â":163,"ã":164,"ä":165,"å":166,"æ":167,"ç":168,"è":169,"é":170,"ê":171,"ë":172,"ì":173,"í":174,"î":175,"ï":176,"ð":177,"ñ":178,"ò":179,"ó":180,"ô":181,"õ":182,"ö":183,"÷":184,"ø":185,"ù":186,"ú":187,"û":188,"ü":189,"ý":190,"þ":191,"ÿ":192,"Ā":193,"ā":194,"Ă":195,"ă":196,"Ą":197,"ą":198,"Ć":199,"ć":200,"Ĉ":201,"ĉ":202,"Ċ":203,"ċ":204,"Č":205,"č":206,"Ď":207,"ď":208,"Đ":209,"đ":210,"Ē":211,"ē":212,"Ĕ":213,"ĕ":214,"Ė":215,"ė":216,"Ę":217,"ę":218,"Ě":219,"ě":220,"Ĝ":221,"ĝ":222,"Ğ":223,"ğ":224,"Ġ":225,"ġ":226,"Ģ":227,"ģ":228,"Ĥ":229,"ĥ":230,"Ħ":231,"ħ":232,"Ĩ":233,"ĩ":234,"Ī":235,"ī":236,"Ĭ":237,"ĭ":238,"Į":239,"į":240,"İ":241,"ı":242,"Ĳ":243,"ĳ":244,"Ĵ":245,"ĵ":246,"Ķ":247,"ķ":248,"ĸ":249,"Ĺ":250,"ĺ":251,"Ļ":252,"ļ":253,"Ľ":254,"ľ":255,"Ŀ":256,"ŀ":257,"Ł":258,"ł":259,"Ń":260,"Ġt":261,"Ġa":262,"he":263,"in":264,"ou":265,"re":266,"Ġs":267,"Ġthe":268,"Ġo":269,"Ġy":270,"Ġyou":271,"Ġc":272,"er":273,"Ġw":274,"Ġb":275,"at":276,"Ġto":277,"on":278,"ing":279,"Ġf":280,"it":281,"nd":282,"Ġp":283,"Ġm":284,"or":285,"es":286,"is":287,"an":288,"Ġd":289,"ll":290,"en":291,"le":292,"Ġand":293,"Ġin":294,"Ġyour":295,"ar":296,"Ġof":297,"Ġh":298,"ed":299,"Ġth":300,"om":301,"Ġl":302,"ic":303,"Ġe":304,"ve":305,"al":306,"Ġn":307,"Ġbe":308,"Ġg":309,"ion":310,"se":311,"st":312,"ot":313,"Ġre":314,"ow":315,"ac":316,"ay":317,"et":318,"Ġor":319,"Ġon":320,"Ġu":321,"ĠT":322,"ke":323,"Ġis":324,"ent":325,"ĠĠ":326,"Ġit":327,"Ġfor":328,"ly":329,"Ġha":330,"Ġ,":331,"ill":332,"Ġst":333,"id":334,"ro":335,"Ġthat":336,"im":337,"ĠI":338,"Ġcan":339,"ig":340,"ith":341,"ld":342,"ct":343,"oo":344,"Ġwith":345,"if":346,"Ġare":347,"ut":348,"âĢ":349,"as":350,"ver":351,"Ġas":352,"Ġan":353,"Ġwill":354,"her":355,"ir":356,"out":357,"am":358,"all":359,"ch":360,"ad":361,"ce":362,"Ġsh":363,"Ġsu":364,"il":365,"igh":366,"ake":367,"Ġne":368,"Ġwh":369,"ter":370,"Ġhe":371,"ation":372,"ore":373,"pe":374,"ĠA":375,"Ġr":376,"Ġdo":377,"Ġfr":378,"Ġhave":379,"ur":380,"Ġse":381,"You":382,"Ġcon":383,"ate":384,"ant":385,"ight":386,"ĠS":387,"ain":388,"ĠIf":389,"ge":390,"Ġex":391,"ĠYou":392,"ess":393,"Ġnot":394,"pp":395,"ome":396,"ĠThe":397,"ers":398,"ab":399,"Ġat":400,"ul":401,"Ġle":402,"ould":403,"Ġpro":404,"âĢĻ":405,"Ġch":406,"Ġso":407,"ive":408,"Ġal":409,"nt":410,"Ġif":411,"Ġcom":412,"Ġab":413,"qu":414,"ple":415,"Ġtr":416,"us":417,"el":418,"est":419,"Ġmay":420,"art":421,"em":422,"res":423,"Ġwe":424,"ĠC":425,"um":426,"ol":427,"Ġpl":428,"ide":429,"Ġli":430,"ally":431,"Ġde":432,"ie":433,"ort":434,"king":435,"Ġthem":436,"ist":437,"Ġfrom":438,"Ġwhe":439,"Ġout":440,"ther":441,"Ġthis":442,"ap":443,"ĠTh":444,"Ġfe":445,"Ġ(":446,"Ġv":447,"os":448,"ep":449,"ind":450,"ard":451,"Ġup":452,"ood":453,"ust":454,"ĠW":455,"Ġj":456,"ure":457,"gh":458,"ĠF":459,"ĠM":460,"Ġshould":461,"th":462,"Ġint":463,"Ġthey":464,"Ġneed":465,"'s":466,"rou":467,"fe":468,"ĠD":469,"ĠP":470,"one":471,"Ġwor":472,"Ġbut":473,"so":474,"ine":475,"Ġmake":476,"Ġcl":477,"ack":478,"Ġlike":479,"Ġget":480,"Ġk":481,"Ġtim":482,"Ġad":483,"'t":484,"Ġall":485,"un":486,"Ġmore":487,"ies":488,"ĠThis":489,"ment":490,"Ġby":491,"ip":492,"ĠB":493,"Ġother":494,"Ġmo":495,"are":496,"ace":497,"ick":498,"and":499,"ast":500,"act":501,"Ġabout":502,"oc":503,"ook":504,"our":505,"ice":506,"lp":507,"Ġhelp":508,"ud":509,"Ġsome":510,"Ġwant":511,"Ġus":512,"age":513,"Ġco":514,"Ġany":515,"ions":516,"ach":517,"Ġuse":518,"ry":519,"Ġtime":520,"Ġalso":521,"Ġte":522,"Ġsp":523,"ag":524,"čĊ":525,"Ġgo":526,"Ġone":527,"iv":528,"ile":529,"Ġ\"":530,".,":531,"ire":532,"ater":533,"own":534,"pt":535,"able":536,"Ġen":537,"ib":538,"Ġwhen":539,"ong":540,"ity":541,"ress":542,"iz":543,"Ġim":544,"ĠH":545,"very":546,"ĠO":547,"Ġpr":548,"Ġcont":549,"pl":550,"ial":551,"Ġinto":552,"Ġac":553,"ra":554,"Ġ1":555,"Ġinc":556,"od":557,"reat":558,"Ġme":559,"ting":560,"ĠR":561,"au":562,"ĠĠĠĠ":563,"ak":564,"Ġpe":565,"ĠâĢ":566,"Ġsc":567,"ame":568,"ite":569,"Ġtheir":570,"Ġsure":571,"ven":572,"per":573,"Ġapp":574,"ĠE":575,"ough":576,"Ġkn":577,"Ġoff":578,"Ġover":579,"Ġbr":580,"Ġdon":581,"ĠL":582,"Ġwhat":583,"ase":584,"ĠIt":585,"ings":586,"Ġfl":587,"ail":588,"Ġwork":589,"lf":590,"hing":591,"Ġdis":592,"cess":593,"orm":594,"Ġpart":595,"Ġke":596,"Ġqu":597,"Ġpre":598,"Ġadd":599,"Ġhow":600,"Ġspe":601,"Ġway":602,"op":603,"ue":604,"Ġthen":605,"ass":606,"ich":607,"Ġfeel":608,"ild":609,"fore":610,"ĠG":611,"ect":612,"ĠIn":613,"av":614,"ĠU":615,"Ġsm":616,"'re":617,"ck":618,"ople":619,"Ġbl":620,"ance":621,"nds":622,"ose":623,"âĢĿ":624,"ink":625,"ber":626,"ĠĠčĊ":627,"ult":628,"du":629,"Ġres":630,"Ġwater":631,"Ġun":632,"ations":633,"Ġdown":634,"Ġthan":635,"Ġpers":636,"round":637,"Ġhas":638,"ount":639,"ause":640,"ĠâĢľ":641,"Ġpeople":642,"Ġwhich":643,"self":644,"Ġgr":645,"ree":646,"ous":647,"Ġimp":648,"red":649,"way":650,"Ġper":651,"Ġback":652,"Ġgood":653,"ans":654,"any":655,"Ġperson":656,"Ġro":657,"Ġbefore":658,"Ġfind":659,"ition":660,"ove":661,"Ġtake":662,"les":663,"ign":664,"Ġtry":665,"Ġexam":666,"omet":667,"ĠN":668,"Ġdr":669,"Ġcomp":670,"Ġfo":671,"Ġdif":672,"Ġrem":673,"Ġpos":674,"nder":675,"Ġday":676,"Ġbec":677,"Ġaf":678,"Ġwho":679,"aking":680,"ĠFor":681,"Ġkeep":682,"Ġjust":683,"Ġbot":684,"Ġtw":685,"Ġmight":686,"Ġbet":687,"int":688,"ull":689,"ated":690,"Ġsk":691,"ens":692,"ave":693,"Ġthere":694,"Ġact":695,"og":696,"ang":697,"Ġsee":698,"Ġyourself":699,"Ġpo":700,"Ġknow":701,"ub":702,"Ġatt":703,"hes":704,"ft":705,"Ġinst":706,"Ġem":707,"hen":708,"Ġlook":709,"Ġche":710,"Ġcle":711,"Ġeach":712,"fect":713,"ents":714,"Ġag":715,"urn":716,"rough":717,"xt":718,"lud":719,"fere":720,"Ġeven":721,"Ġar":722,"Ġher":723,"Ġph":724,"we":725,"Ġstr":726,"ily":727,"ary":728,"get":729,"ces":730,"form":731,"Ġthrough":732,"Ġwell":733,"ors":734,"Ġfir":735,"Ġ2":736,"ical":737,"Ġnew":738,"Ġevery":739,"Ġexample":740,"Ġthese":741,"Ġfrie":742,"Ġwr":743,"Ġrel":744,"Ġsomet":745,"Ġrec":746,"Ġcons":747,"Ġsl":748,"Ġmin":749,"ise":750,"Ġsuch":751,"te":752,"uch":753,"Ġonly":754,"Ġstart":755,"Ġinclud":756,"Ġlong":757,"ish":758,"ons":759,"Ġbo":760,"Ġchild":761,"ĠOn":762,"ence":763,"Ġmost":764,"ually":765,"up":766,"ond":767,"Ġtoo":768,"Ġaround":769,"ful":770,"Ġtwo":771,"ving":772,"Ġshe":773,"ord":774,"ool":775,"Ġusing":776,"ating":777,"wn":778,"ible":779,"Ġhair":780,"Ġright":781,"ĠBe":782,"Ġunder":783,"ci":784,"Ġtop":785,"llow":786,".;":787,"ert":788,"Ġeas":789,"Ġty":790,"Ġbu":791,"Ġfirst":792,"Ġmuch":793,"Ġset":794,"ular":795,"Ġav":796,"tle":797,"Ġsmall":798,"'ll":799,"Ġacc":800,"ĠSt":801,",,":802,"Ġcomm":803,"Ġcol":804,"ble":805,"Ġser":806,"Ġwhere":807,"Ġdoes":808,"Ġdiffere":809,"ark":810,"Ġlet":811,"Ġcould":812,"ff":813,"ever":814,"ten":815,"00":816,"Ġbest":817,"Ġsomething":818,"ĠWhen":819,"Ġloc":820,"Ġhand":821,"lect":822,"Ġdog":823,"ize":824,"vel":825,"ead":826,"Ġno":827,"ody":828,"Ġsim":829,"Ġfood":830,"alk":831,"ific":832,"ange":833,"ward":834,"ound":835,"Ġunt":836,"ear":837,"ider":838,"Ġafter":839,"Ġwhile":840,"ĠMake":841,"Ġplace":842,"Ġmed":843,"Ġform":844,"Ġho":845,"Ġrequ":846,"Ġam":847,"oid":848,"other":849,"Ġread":850,"ows":851,"Ġuntil":852,").":853,"pen":854,"ner":855,"Ġimport":856,"Ġsay":857,"ower":858,"Ġgive":859,"Ġthings":860,"bs":861,"als":862,"Ġown":863,"Ġdifferent":864,"ning":865,"Ġspec":866,"Ġplay":867,"Ġdes":868,"Ġins":869,"Ġimportant":870,"Ġlist":871,"Ġask":872,"ments":873,"Ġcr":874,"Ġ3":875,"Ġvery":876,"oy":877,"Ġsy":878,"read":879,"der":880,"Ġbecause":881,"ts":882,"Ġclean":883,"Ġcar":884,"oose":885,"ĠK":886,"its":887,"ere":888,"ade":889,"Ġwas":890,"vent":891,"ne":892,"Ġwould":893,"ĠAs":894,"Ġcre":895,"ont":896,"Ġbody":897,"Ġnum":898,"Ġside":899,"Ġinform":900,"Ġmany":901,"Ġsit":902,"ĠYour":903,"Ġdec":904,"tern":905,"Ġsame":906,"alth":907,"ction":908,"Ġfew":909,"Ġminut":910,"line":911,"Ġable":912,"ual":913,"lic":914,"Ġey":915,"ĠUse":916,"ren":917,"Ġopt":918,"Ġgl":919,"ix":920,"vers":921,"ĠDo":922,"ious":923,"Ġcare":924,"Ġend":925,"ost":926,"ier":927,"Ġsec":928,"ush":929,"uring":930,"Ġcat":931,"Ġput":932,"Ġhome":933,"Ġlif":934,"Ġcomple":935,"Ġskin":936,"Ġreg":937,"aper":938,"ms":939,"iet":940,"Ġpain":941,"Ġposs":942,"Ġsupp":943,"ates":944,"ĠWh":945,"Ġcut":946,"Ġap":947,"ax":948,"Ġcor":949,"Ġlit":950,"Ġinformation":951,"ock":952,"Ġve":953,"ject":954,"ys":955,"Ġopen":956,"Ġent":957,"ves":958,"Ġdet":959,"aw":960,"ory":961,"Ġprodu":962,"ell":963,"Ġgu":964,"pect":965,"Ġsomeone":966,"Ġprov":967,"Ġbeing":968,"ative":969,"oth":970,"Ġsign":971,"Ġinclude":972,"Ġused":973,"Ġbre":974,"Ġhealth":975,"ia":976,"gg":977,"Ġ-":978,"Ġjo":979,"Ġind":980,"Ġdry":981,"arm":982,"akes":983,"ied":984,"reen":985,"ĠAl":986,"hip":987,"Ġsur":988,"hed":989,"ĠThere":990,"Ġoften":991,"Ġaway":992,"Ġfollow":993,"Ġlar":994,"Ġminutes":995,"ĠTo":996,"Ġagain":997,"Ġhim":998,"Ġhigh":999,"Ġexper":1000,"ath":1001,"ities":1002,"Ġbetter":1003,"air":1004,"Ġgoing":1005,"ways":1006,"enc":1007,"Ġits":1008,"ĠDon":1009,"ĠHow":1010,"ract":1011,"Ġarea":1012,"thing":1013,"ween":1014,"rop":1015,"ict":1016,"Ġallow":1017,"ek":1018,"Ġtreat":1019,"Ġpay":1020,"Ġfin":1021,"ener":1022,"ather":1023,"ically":1024,"gin":1025,"Ġprocess":1026,"ger":1027,"me":1028,"iness":1029,"arn":1030,"Ġbetween":1031,"ĠJ":1032,"ember":1033,"Ġfriends":1034,"ĠTry":1035,"Ġcall":1036,"Ġmet":1037,"Ġhead":1038,"ĠOnce":1039,"Ġlight":1040,"Ġpoint":1041,"Ġenough":1042,"Ġrun":1043,"Ġless":1044,"Ġsa":1045,"atch":1046,"Ġmust":1047,"Ġpur":1048,"ars":1049,"Ġthink":1050,"Ġanother":1051,"Ġboth":1052,"Ġbeen":1053,"ĠCh":1054,"nding":1055,"ness":1056,"Ġext":1057,"Ġman":1058,"Ġnumber":1059,"Ġpossible":1060,"Ġhard":1061,"Ġpie":1062,"Ġdire":1063,"Ġlot":1064,"Ġcard":1065,"ty":1066,"Ġrequire":1067,"Ġexp":1068,"Ġsub":1069,"arch":1070,"ved":1071,"Ġrep":1072,"ash":1073,"erm":1074,"ĠThese":1075,"Ġgreat":1076,"Ġfam":1077,"ices":1078,"Ġinv":1079,"Ġamount":1080,"ru":1081,"Ġide":1082,"Ġlittle":1083,"Ġstill":1084,"Ġbas":1085,"ĠSome":1086,"Ġlikely":1087,"iss":1088,"Ġdisc":1089,"erest":1090,"Ġwithout":1091,"Ġbus":1092,"ouse":1093,"Ġmove":1094,"iting":1095,"Ġplan":1096,"ĠThey":1097,"iate":1098,"gr":1099,"chool":1100,"Ġstore":1101,"Ġoil":1102,"Ġel":1103,"),":1104,"Ġturn":1105,"Ġcour":1106,"Ġtoget":1107,"Ġtogether":1108,"eep":1109,"iew":1110,"Ġcur":1111,"Ġed":1112,"Ġavoid":1113,"Ġpaper":1114,"dd":1115,"Ġduring":1116,"fer":1117,"If":1118,"ems":1119,"fort":1120,"Ġmaking":1121,"Ġhis":1122,"ank":1123,"ton":1124,"ffect":1125,"erc":1126,"Ġinterest":1127,"Ġleg":1128,"Ġlife":1129,"Ġmon":1130,"Ġshow":1131,"Ġhour":1132,"Ġcheck":1133,"ĠPl":1134,"Ġthough":1135,"Ġrest":1136,"Ġproble":1137,"ility":1138,"Ġleft":1139,"Ġcome":1140,"Ġmus":1141,"Ġcolor":1142,"Ġname":1143,"Ġpot":1144,"Ġfriend":1145,"vice":1146,"ape":1147,"Ġchar":1148,"Ġes":1149,"Ġschool":1150,"Ġcomplete":1151,"ience":1152,"Ġcert":1153,"ooking":1154,"Ġcal":1155,"ctor":1156,"Ġconsider":1157,"Ġweek":1158,"Ġquest":1159,"anc":1160,"cially":1161,"Ġhold":1162,"aining":1163,"Ġtyp":1164,"Ġbott":1165,"ures":1166,"Ġappe":1167,"Ġeffect":1168,"Ġfun":1169,"Ġpress":1170,"Ġhapp":1171,"Ġorder":1172,"rap":1173,"Ġstud":1174,"Ġfree":1175,"ric":1176,"Ġstate":1177,"Ġbegin":1178,"Ġusually":1179,"Ġstep":1180,"ork":1181,"ently":1182,"Ġcause":1183,"ps":1184,"arent":1185,"ines":1186,"Ġob":1187,"oun":1188,"Ġinter":1189,"Ġleast":1190,".\"":1191,"ident":1192,"Ġbel":1193,"Ġtype":1194,"led":1195,"oney":1196,"ĠV":1197,"ling":1198,"Ġdoesn":1199,"Ġproduct":1200,"Ġonline":1201,"Ġbeh":1202,"Ġothers":1203,"ĠRe":1204,"ages":1205,"Ġsal":1206,"ĠHowever":1207,"Ġchoose":1208,"raw":1209,"Ġ4":1210,"Ġtest":1211,"Ġgetting":1212,"Ġmind":1213,"Ġyear":1214,"Ġremove":1215,"ully":1216,"ĠAn":1217,"Ġconf":1218,"pecially":1219,"erg":1220,"Ġbottom":1221,"Ġ5":1222,"Ġcontain":1223,"Ġalways":1224,"ants":1225,"Ġroom":1226,"Ġlevel":1227,"ional":1228,"Ġgener":1229,"Ġtell":1230,"Ġproper":1231,"Ġprot":1232,"Ġcreate":1233,"fic":1234,"Ġwon":1235,"ither":1236,"Ġword":1237,"Ġpass":1238,"Ġpres":1239,"cr":1240,"Ġdoing":1241,"Ġca":1242,"ably":1243,"ĠKeep":1244,"Âł":1245,"Ġclass":1246,"Ġapply":1247,"to":1248,"Ġtimes":1249,"Ġtalk":1250,"Ġbusiness":1251,"Ġthose":1252,"ĠĠĠĠĠĠĠĠ":1253,"Ġthree":1254,"atur":1255,"Ġ,,":1256,"less":1257,"cept":1258,"Ġcontact":1259,"ets":1260,"ature":1261,"Ġreally":1262,"yle":1263,"Ġfamily":1264,"Ġvis":1265,"Ġdirect":1266,"fter":1267,"Ġchange":1268,"'ve":1269,"Ġgiv":1270,"Ġspecific":1271,"Ġsecond":1272,"Ġtem":1273,"Ġnext":1274,"Ġprof":1275,"Ġlarge":1276,"Ġwear":1277,"ient":1278,"Ġdoctor":1279,"Ġbuy":1280,"Ġlo":1281,"Ġdist":1282,"ocus":1283,"Ġaccount":1284,"Ġline":1285,"arr":1286,"ior":1287,"Ġparent":1288,"ides":1289,"Ġonce":1290,"Ġpat":1291,"Ġinstead":1292,"Ġsw":1293,"ĠSe":1294,"ify":1295,"Ġresp":1296,"Ġquick":1297,"ene":1298,"Ġespecially":1299,"stand":1300,"oss":1301,"leep":1302,"Ġstand":1303,"cc":1304,"Ġvar":1305,"nect":1306,"acter":1307,"ug":1308,"Ġexerc":1309,"Ġret":1310,"Ġselect":1311,"Ġbook":1312,"ention":1313,"ince":1314,"Ġsol":1315,"Ġdi":1316,".âĢĿ":1317,"Ġcase":1318,"atter":1319,"Ġincre":1320,"pping":1321,"Ġdam":1322,"ense":1323,"itive":1324,"ases":1325,"ike":1326,"Ġval":1327,"Ġsupport":1328,"Ġfile":1329,"Ġhaving":1330,"Ġbox":1331,"ots":1332,"Ġass":1333,"Ġdone":1334,"Ġtrans":1335,"Ġprevent":1336,"Ġcup":1337,"ian":1338,"ĠRem":1339,"ply":1340,"Ġair":1341,"Ġfil":1342,"Ġ10":1343,"Ġmoney":1344,"ailable":1345,"Ġpartic":1346,"Ġface":1347,"bo":1348,"ues":1349,"Ġstay":1350,"ĠThen":1351,"ĠAfter":1352,"Ġmade":1353,"Ġeither":1354,"Ġrelations":1355,"ason":1356,"gan":1357,"Ġgrou":1358,"ss":1359,"Ġcond":1360,"Ġcent":1361,"side":1362,"Ġactiv":1363,"ĠCl":1364,"Ġmain":1365,"gth":1366,"ics":1367,"gram":1368,"Ġprovide":1369,"Ġnow":1370,"Ġlocal":1371,"Ġbreak":1372,"Ġold":1373,"Ġbutton":1374,"Ġrelationship":1375,"ips":1376,"Ġavailable":1377,"Ġclick":1378,"Ġwebs":1379,"Ġclose":1380,"Ġmark":1381,"br":1382,"Ġmeans":1383,"old":1384,"Ġcoll":1385,"ted":1386,"Ġopp":1387,"ins":1388,"imes":1389,"Ġpract":1390,"Ġmonth":1391,"com":1392,"ails":1393,"ables":1394,"Ġcommon":1395,"Ġlaw":1396,"Ġweight":1397,"Ġspr":1398,"Ġleave":1399,"Ġcertain":1400,"Ġresult":1401,"Ġneeds":1402,"The":1403,"Ġprob":1404,"Ġcover":1405,"ploy":1406,"Ġlearn":1407,"play":1408,"Ġcomfort":1409,"isk":1410,"Ġscreen":1411,"Ġredu":1412,"Ġref":1413,"ficult":1414,"Ġbecome":1415,"Ġdays":1416,"ients":1417,"ats":1418,"Ġlead":1419,"Ġsitu":1420,"Ġshort":1421,"Ġwhether":1422,"lo":1423,"Ġoffer":1424,"gar":1425,"be":1426,"Ġfing":1427,"Ġev":1428,"Ġlay":1429,"Ġhours":1430,"Ġsho":1431,"irc":1432,"Ġnecess":1433,"Ġdifficult":1434,"Ġball":1435,"els":1436,"Ġphone":1437,"Ġ$":1438,"ware":1439,"Ġsn":1440,"Ġfocus":1441,"Ġwind":1442,"Ġclot":1443,"Ġeye":1444,"Ġhot":1445,"Ġaddition":1446,"Ġmen":1447,"Ġsleep":1448,"aces":1449,"Ġcreat":1450,"Ġprogram":1451,"Ġbring":1452,"Ġbit":1453,"Ġnatur":1454,"Ġpol":1455,"Ġhands":1456,"Ġconnect":1457,"ĠTake":1458,"Ġunderstand":1459,"Ġclear":1460,"amp":1461,"Ġmeet":1462,"--":1463,"Ġpersonal":1464,"Ġappear":1465,"de":1466,"Ġaut":1467,"Ġbow":1468,"Ġlow":1469,"Ġsever":1470,"Ġbuild":1471,"med":1472,"alking":1473,"oms":1474,"avor":1475,"sure":1476,"Ġwa":1477,"Ġoption":1478,"Ġsym":1479,"ready":1480,"Ġexperience":1481,"Ġcirc":1482,"Ġinside":1483,"row":1484,"ids":1485,"Ġlast":1486,"Ġmix":1487,"Ġanything":1488,"irt":1489,"Ġbig":1490,"Ġcost":1491,"Ġalready":1492,"ale":1493,"co":1494,"ret":1495,"ĠWhile":1496,"Ġpast":1497,"Ġquestions":1498,"ized":1499,"view":1500,"alf":1501,"Ġcontro":1502,"Ġpurch":1503,"Ġchildren":1504,"Ġfront":1505,"Ġcomput":1506,"Ġmean":1507,"Ġreal":1508,"Ġeasier":1509,"ium":1510,"ĠAdd":1511,"Ġfill":1512,"Ġemploy":1513,"Ġbed":1514,"Ġitems":1515,"Ġgrow":1516,"bers":1517,"Ġstick":1518,"ross":1519,"Ġjob":1520,"Ġhouse":1521,"Ġconc":1522,"ute":1523,"hod":1524,"Ġequ":1525,"Ġdepe":1526,"Ġalong":1527,"Ġtext":1528,"ential":1529,"Ġspace":1530,"Ġregular":1531,"ches":1532,"Ġmem":1533,"mer":1534,"Ġprobably":1535,"Ġsearch":1536,"Ġcook":1537,"Ġfact":1538,"Ġsmo":1539,"iety":1540,"Ġart":1541,"Ġfull":1542,"Ġmakes":1543,"velop":1544,"Ġtaking":1545,"que":1546,"Ġiss":1547,"Ġear":1548,"Ġsimply":1549,"Ġprep":1550,"Ġpage":1551,"Ġseveral":1552,"Ġswe":1553,"Ġrece":1554,"{\\":1555,"Ġidea":1556,"Ġwarm":1557,"Ġheat":1558,"Ġbab":1559,"Ġeat":1560,"Ġwere":1561,"ĠEx":1562,"Ġsoft":1563,"oon":1564,"Ġphys":1565,"ator":1566,"Ġdep":1567,"Ġposition":1568,"ĠInst":1569,"Ġcho":1570,"here":1571,"Ġeyes":1572,"ctions":1573,"Ġelse":1574,"ump":1575,"pper":1576,"Ġchang":1577,"Ġfound":1578,"Ġthin":1579,"cial":1580,"ills":1581,"Ġprofess":1582,"Ġmethod":1583,"Ġwrite":1584,"Ġeasy":1585,"not":1586,"Ġ6":1587,"Ġpost":1588,"Ġstress":1589,"work":1590,"Ġcount":1591,"Ġdesign":1592,"Ġbene":1593,"Ġfold":1594,"Ġlooking":1595,"ime":1596,"ution":1597,"Ġwhite":1598,"Ġfollowing":1599,"Ġmedic":1600,"ouch":1601,"Ġlonger":1602,"Ġbag":1603,"Ġsyst":1604,"wards":1605,"Ġsize":1606,"Ġstop":1607,"ĠĠĠ":1608,"Ġpop":1609,"ĠDe":1610,"Ġspecial":1611,"Ġsurf":1612,"Ġdef":1613,"Ġaccess":1614,"Ġextra":1615,"Ġpiece":1616,"Ġpull":1617,"Ġrecom":1618,"Ġorgan":1619,"joy":1620,"Ġmater":1621,"Ġet":1622,"ote":1623,"Ġphot":1624,"Ġrecomme":1625,"Ġattention":1626,"Ġneg":1627,"itch":1628,"Ġ,,,":1629,"Ġbreat":1630,"Ġaddress":1631,"ges":1632,"mon":1633,"ĠMost":1634,"Ġnear":1635,"sing":1636,"Ġpet":1637,"ters":1638,"Ġcompany":1639,"Ġapplic":1640,"ency":1641,"Ġgame":1642,"Ġworking":1643,"io":1644,"Ġnight":1645,"Ġcomputer":1646,"ĠEn":1647,"aps":1648,"Ġblood":1649,"load":1650,"Ġmaterial":1651,"Ġways":1652,"Ġimpro":1653,"Ġkind":1654,"hy":1655,"astic":1656,"Ġdevelop":1657,"Ġparticular":1658,"Ġprotect":1659,"Ġconvers":1660,"Ġlower":1661,"nded":1662,"Ġkey":1663,"Ġtrying":1664,"Ġlove":1665,"ames":1666,"Ġexercise":1667,"Ġhalf":1668,"Ġcomb":1669,"Ġcool":1670,"Ġmot":1671,"Ġcred":1672,"Ġeasily":1673,"Ġnecessary":1674,"ories":1675,"cum":1676,"Ġhealthy":1677,"Ġcop":1678,"Ġoptions":1679,"ĠMany":1680,"Ġslow":1681,"Ġir":1682,"Ġrisk":1683,"ieve":1684,"Ġcontin":1685,"Ġfit":1686,"Ġetc":1687,"Ġoutside":1688,"Ġcommun":1689,"raight":1690,"Ġdraw":1691,"ightly":1692,"Ġred":1693,"inal":1694,"ased":1695,"aving":1696,"Ġqual":1697,"ird":1698,"Ġready":1699,"ced":1700,"Ġpan":1701,"ances":1702,"Ġmess":1703,"ask":1704,"Ġadv":1705,"Ġdeterm":1706,"fully":1707,"idd":1708,"Ġnorm":1709,"pr":1710,"ipe":1711,"Ġparents":1712,"Ġdate":1713,"iod":1714,"Ġfoods":1715,"ĠPlace":1716,"ume":1717,"Ġcompletely":1718,"Ġpartner":1719,"Ġcomfortable":1720,"ĠSh":1721,"Ġstraight":1722,"Ġlim":1723,"rent":1724,"Ġwebsite":1725,"Ġpick":1726,"aring":1727,"sw":1728,"Ġenjoy":1729,"Ġquickly":1730,"uit":1731,"ilar":1732,"Ġagainst":1733,"cl":1734,"Ġfeet":1735,"Ġble":1736,"ouble":1737,"Ġant":1738,"Ġbehav":1739,"oor":1740,"Ġappro":1741,"Ġocc":1742,"ph":1743,"plain":1744,"Ġwords":1745,"ivid":1746,"Ġcaus":1747,"ited":1748,"fl":1749,"Ġbaby":1750,"Ġisn":1751,"Ġcontrol":1752,"Ġbar":1753,"Ġonto":1754,"Ġwall":1755,"Ġbowl":1756,"Ġbad":1757,"Ġsafe":1758,"Ġproblem":1759,"tain":1760,"ield":1761,"Ġcust":1762,"ared":1763,"Ġstrong":1764,"Ġsympt":1765,"Ġsetting":1766,"Ġabove":1767,"Ġhor":1768,"ĠEven":1769,"Ġremo":1770,"Ġcharacter":1771,"uck":1772,"Ġnatural":1773,"Ġensure":1774,"Ġfoot":1775,"gle":1776,"Ġemot":1777,"olog":1778,"Ġmeas":1779,"ired":1780,"Ġfall":1781,"Ġdocum":1782,"Ġpaint":1783,"ixt":1784,"Ġgroup":1785,"Ġproblems":1786,"sel":1787,"az":1788,"uff":1789,"Ġnotice":1790,"ĠAsk":1791,"ately":1792,"Ġsocial":1793,"Ġsystem":1794,"Ġsimple":1795,"ength":1796,"void":1797,"Ġnever":1798,"Ġperiod":1799,"Ġpieces":1800,"ished":1801,"Ġwithin":1802,"Ġing":1803,"Ġsituation":1804,"Ġi":1805,"Ġmusc":1806,"vices":1807,"Ġsun":1808,"Ġmult":1809,"Ġfast":1810,"Ġhelps":1811,"Ġcourt":1812,"heck":1813,"outh":1814,"itions":1815,"ney":1816,"Ġareas":1817,"ĠInstead":1818,"Ġeverything":1819,"Ġfeeling":1820,"Ġwriting":1821,"Ġdiet":1822,"Ġpractice":1823,"Ġpub":1824,"Ġ8":1825,"Ġreduce":1826,"Ġdrop":1827,"Ġansw":1828,"Ġblack":1829,"acing":1830,"Ġwalk":1831,"rit":1832,"Ġsection":1833,"mediate":1834,"Ġthing":1835,"Ġdid":1836,"ĠLook":1837,"Ġmil":1838,"Ġdeal":1839,"Ġtemper":1840,"ĠCons":1841,"ening":1842,"Ġnut":1843,"Ġperform":1844,"Ġcredit":1845,"wel":1846,"Ġsing":1847,"lling":1848,"Ġprom":1849,"Ġrather":1850,"Ġsqu":1851,"Ġentire":1852,"ands":1853,"uc":1854,"ĠClick":1855,"Ġfour":1856,"Ġdeep":1857,"resh":1858,"Ġincluding":1859,"Ġsour":1860,"Ġsurface":1861,"rect":1862,"Ġdrink":1863,"Ġrese":1864,"ination":1865,"Ġeffective":1866,"Ġworks":1867,"Ġground":1868,"Ġsugar":1869,"Ġactually":1870,"Ġcenter":1871,"par":1872,"Ġveget":1873,"pped":1874,"Ġident":1875,"Ġrecord":1876,"fr":1877,"ee":1878,"Ġsymptoms":1879,"Ġtouch":1880,"ĠCom":1881,"Ġmusic":1882,"Ġsince":1883,"Ġpositive":1884,"Ġmenu":1885,"ĠJust":1886,"Ġincrease":1887,"ixture":1888,"ex":1889,"aste":1890,"Ġwhy":1891,"ires":1892,"Ġbase":1893,"Ġlength":1894,"Ġegg":1895,"abric":1896,"Ġnon":1897,"Ġbrush":1898,"For":1899,"Ġpower":1900,"Ġpict":1901,"Ġlater":1902,"osed":1903,"Ġ20":1904,"ĠRemember":1905,"Ġwhole":1906,"Ġplant":1907,"Ġinstall":1908,"Ġhig":1909,"Ġpressure":1910,"Ġscr":1911,"Ġsimilar":1912,"uss":1913,"Ġimmediate":1914,"book":1915,"Ġmy":1916,"Ġfabric":1917,"Ġreason":1918,"Ġcannot":1919,"Ġvide":1920,"Ġconversation":1921,"Ġproducts":1922,"Ġcomes":1923,"room":1924,"Ġdress":1925,"Ġtypes":1926,"Ġmixture":1927,"ĠâĢĵ":1928,"Ġpack":1929,"Ġtool":1930,"Ġhum":1931,"Ġdark":1932,"Ġanim":1933,"ives":1934,"just":1935,"ĠApp":1936,"Ġinvol":1937,"ĠAt":1938,"Ġfeelings":1939,"chn":1940,"Ġinfect":1941,"Ġheart":1942,"ĠAlso":1943,"Ġreach":1944,"Ġess":1945,"Ġcustom":1946,"Ġsuc":1947,"Ġlab":1948,"Ġaren":1949,"Ġdeg":1950,"nce":1951,"Ġexpect":1952,"Ġcap":1953,"ision":1954,"Ġrele":1955,"Ġrelax":1956,"Ġpresent":1957,"Ġingred":1958,"ains":1959,"Ġver":1960,"Ġcold":1961,"Ġcurrent":1962,"Ġdirectly":1963,"Ġ30":1964,"Ġwood":1965,"ern":1966,"Ġyears":1967,"the":1968,"Ġcorner":1969,"use":1970,"peat":1971,"..":1972,"Ġenter":1973,"Ġglass":1974,"ones":1975,"Ġinstru":1976,"Ġic":1977,"ĠOne":1978,"Ġste":1979,"ipt":1980,"ĠLet":1981,"Ġmoist":1982,"ropr":1983,"bit":1984,"Ġcream":1985,"Ġboard":1986,"Ġself":1987,"Ġcondition":1988,"ĠUn":1989,"day":1990,"Ġdamage":1991,"Ġport":1992,"Ġremember":1993,"Ġ7":1994,"ĠGo":1995,"ĠGet":1996,"Ġfeed":1997,"Ġaffect":1998,"Ġeng":1999,"Ġprofessional":2000,"ropriate":2001,"Ġest":2002,"Ġwindow":2003,"Ġemail":2004,"Ġhowever":2005,"unch":2006,"Th":2007,"Ġspend":2008,"Ġrub":2009,"Ġparty":2010,"ffe":2011,"ĠAvoid":2012,"idence":2013,"Ġhad":2014,"Ġobject":2015,"Ġthick":2016,"Ġpar":2017,"Ġaccept":2018,"board":2019,"Ġimprove":2020,"ined":2021,"ring":2022,"Ġ=":2023,"iddle":2024,"Ġelect":2025,"ored":2026,"Ġwatch":2027,"Ġgir":2028,"Ġhy":2029,"Ġreturn":2030,"wise":2031,"ĠStart":2032,"ĠNe":2033,"Ġbal":2034,"Ġda":2035,"Ġcoun":2036,"Ġsepar":2037,"Ġtreatment":2038,"Ġcell":2039,"ement":2040,"vious":2041,"Ġdel":2042,"Ġmatter":2043,"Ġlive":2044,"Ġz":2045,"Ġeveryone":2046,"Ġevent":2047,"Ġtable":2048,"Ġplastic":2049,"Ġtechn":2050,"Ġgre":2051,"over":2052,"ensive":2053,"where":2054,"Ġslightly":2055,"Ġcolors":2056,"Ġshape":2057,"Ġinstance":2058,"Ġsides":2059,"Ġmouth":2060,"ĠOr":2061,"Ġindivid":2062,"Ġconst":2063,"Ġteam":2064,"Ġbro":2065,"icle":2066,"Ġcorrect":2067,"Ġfre":2068,"dr":2069,"Ġsound":2070,"Ġphysical":2071,"Ġwash":2072,"Ġrout":2073,"Ġfresh":2074,"000":2075,"like":2076,"Ġmod":2077,"Ġfavor":2078,"Ġbenef":2079,"ites":2080,"Ġdetermine":2081,"eds":2082,"Ġeating":2083,"though":2084,"ĠThat":2085,"Ġhere":2086,"Ġflow":2087,"ists":2088,"Ġpurchase":2089,"Ġbehavior":2090,"Ġmom":2091,"Ġservice":2092,"Ġinches":2093,"Ġseem":2094,"Ġmedical":2095,"Ġnegative":2096,"Ġfur":2097,"Ġletter":2098,"mit":2099,"urt":2100,"hol":2101,"ĠWhat":2102,"Ġhang":2103,"aves":2104,"head":2105,"Ġbelow":2106,"ift":2107,"Ġjud":2108,"crib":2109,"Ġfloor":2110,"Ġdaily":2111,"Ġnote":2112,"ĠConsider":2113,"Ġmiddle":2114,"Ġspray":2115,"Ġprefer":2116,"hedu":2117,"sh":2118,"ries":2119,"ified":2120,"Ġtypically":2121,"Ġtape":2122,"Ġ15":2123,"por":2124,"Ġlocation":2125,"Ġenc":2126,"Ġtraining":2127,"soci":2128,"Ġapplication":2129,"rees":2130,"Ġgeneral":2131,"icking":2132,"Ġflat":2133,"Ġfat":2134,"Ġattor":2135,"ĠHe":2136,"style":2137,"ortun":2138,"Ġingredients":2139,"ital":2140,"Ġproject":2141,"ĠFind":2142,"Ġcalled":2143,"Ġsave":2144,"Ġstyle":2145,"Ġfive":2146,"Ġanswer":2147,"Ġtalking":2148,"ĠSet":2149,"acks":2150,"orts":2151,"Ġrunning":2152,"ique":2153,"Ġhigher":2154,"Ġter":2155,"Ġmeasure":2156,",\"":2157,"iding":2158,"ergy":2159,"Ġimmediately":2160,"of":2161,"ĠBut":2162,"icate":2163,"Ġspeak":2164,"umb":2165,"ĠCheck":2166,"acher":2167,"angu":2168,"Ġkit":2169,"ĠLe":2170,"Ġperfect":2171,"Ġsalt":2172,"Ġtemperature":2173,"ational":2174,"Ġburn":2175,"Ġappropriate":2176,"Ġsuccess":2177,"Ġgreen":2178,"Ġview":2179,"Ġfish":2180,"ron":2181,"ging":2182,"Ġvol":2183,"asing":2184,"ounds":2185,"Ġclothes":2186,"Ġnormal":2187,"Ġabs":2188,"Ġwom":2189,"Ġsex":2190,"Ġma":2191,"Ġchanges":2192,"Ġmonths":2193,"Ġinj":2194,"ression":2195,"Ġtherap":2196,"dis":2197,"Ġrepl":2198,"iver":2199,"Ġrequired":2200,"Ġpattern":2201,"Ġcopy":2202,"Ġlegs":2203,"Ġblock":2204,"Ġfield":2205,"ises":2206,"kes":2207,"Ġparts":2208,"ĠCont":2209,"Ġinvest":2210,"Ġvalue":2211,"ees":2212,"ĠPro":2213,"Ġtrust":2214,"Ġeff":2215,"Ġmilk":2216,"by":2217,"Ġones":2218,"Ġage":2219,"Ġbottle":2220,"Ġskills":2221,"Ġdecide":2222,"Ġcontinue":2223,"ls":2224,"Ġroll":2225,"Ġtend":2226,"Ġgently":2227,"Ġsmaller":2228,"Ġactivities":2229,"Ġworld":2230,"light":2231,"rib":2232,"Ġweeks":2233,"Ġopportun":2234,"Ġtap":2235,"Ġ9":2236,"ĠWith":2237,"Ġintern":2238,"ife":2239,"Ġje":2240,"Ġarr":2241,"unt":2242,"Ġlog":2243,"Ġcou":2244,"set":2245,"ief":2246,"Ġdepending":2247,"cohol":2248,"Ġwait":2249,"Ġcourse":2250,"Ġpublic":2251,"Ġsoon":2252,"Ġju":2253,"end":2254,"Ġbath":2255,"iving":2256,"Ġdownload":2257,"Ġresults":2258,"Ġlines":2259,"Ġteacher":2260,"ery":2261,"Ġgenerally":2262,"upp":2263,"ĠNot":2264,"orth":2265,"ream":2266,"Ġlangu":2267,"Ġoffice":2268,"Ġlarger":2269,"Ġvariety":2270,"Ġtrave":2271,"Ġneck":2272,"Ġadjust":2273,"Ġsell":2274,"Ġmoving":2275,"Ġcases":2276,"Ġserious":2277,"hedule":2278,"ental":2279,"sp":2280,"Ġstudy":2281,"ĠĠĠĠĠĠĠĠĠ":2282,"Ġbased":2283,"Ġnice":2284,"Ġbutter":2285,"ences":2286,"raft":2287,"Ġsmooth":2288,"ng":2289,"Ġra":2290,"Ġstren":2291,"oles":2292,"Ġlink":2293,"Ġneeded":2294,"word":2295,"In":2296,"Ġsaying":2297,"Ġvers":2298,"Ġexperi":2299,"ĠPut":2300,"augh":2301,"atever":2302,"Ġstores":2303,"cent":2304,"for":2305,"}}":2306,"Ġloo":2307,"iple":2308,"Ġexact":2309,"Ġissues":2310,"ato":2311,"Ġsend":2312,"Ġchance":2313,"Ġlooks":2314,"izing":2315,"Ġdiscuss":2316,"Ġbasic":2317,"Ġfingers":2318,"Ġpow":2319,"Ġrespons":2320,"ze":2321,"oint":2322,"ggest":2323,"Ġallows":2324,"Ġice":2325,"Ġseconds":2326,"Ġforward":2327,"ĠĠĠĠĠĠ":2328,"Ġedge":2329,"Ġicon":2330,"Ġbrown":2331,"Ġcand":2332,"Ġ12":2333,"Ġwin":2334,"Ġadditional":2335,"Ġaud":2336,"Ġstru":2337,"ming":2338,"ĠBefore":2339,"cript":2340,"Ġsingle":2341,"Ġsometimes":2342,"Ġdig":2343,"Ġresearch":2344,"Ġtowel":2345,"Ġacross":2346,"ob":2347,"Ġbecom":2348,"Ġsolution":2349,"ules":2350,"Ġreceive":2351,"ising":2352,"cing":2353,"Ġcleaning":2354,"Ġfut":2355,"aging":2356,"Ġhelpful":2357,"Ġbehind":2358,"ateg":2359,"Ġrequest":2360,"ĠSo":2361,"Ġspread":2362,"Ġmeat":2363,"Ġlayer":2364,"Ġshare":2365,"ĠâĢĶ":2366,"Ġhorse":2367,"Ġdevice":2368,"10":2369,"Ġvideo":2370,"Ġfar":2371,"Ġorig":2372,"Ġenergy":2373,"ĠChoose":2374,"Ġgets":2375,"ww":2376,"Ġdrive":2377,"agn":2378,"Ġchoice":2379,"Ġnet":2380,"Ġimage":2381,"Ġreact":2382,"yc":2383,"ism":2384,"wh":2385,"Ġadding":2386,"eth":2387,"Ġminim":2388,"rodu":2389,"Ġdoor":2390,"Ġhappen":2391,"Ġattorney":2392,"ization":2393,"Ġblue":2394,"Ġexcess":2395,"Ġ--":2396,"St":2397,"rew":2398,"asp":2399,"Ġpoints":2400,"Ġvegetables":2401,"Ġglue":2402,"ĠY":2403,"Ġtakes":2404,"display":2405,"ese":2406,"\".":2407,"Ġsoil":2408,"Ġmembers":2409,"Ġgar":2410,"Ġfuture":2411,"Ġstory":2412,"Ġcards":2413,"arning":2414,"Ġheav":2415,"Ġspot":2416,"Ġreading":2417,"Ġtowards":2418,"displaystyle":2419,"Ġdisplay":2420,"Ġcontract":2421,"Ġanx":2422,"jor":2423,"ining":2424,"Ġtax":2425,"Ġinterested":2426,"Ġfig":2427,"Ġlanguage":2428,"Ġgiving":2429,"Ġarm":2430,"urance":2431,"Ġsuggest":2432,"Ġpair":2433,"ĠTr":2434,"Ġsong":2435,"Ġquality":2436,"ners":2437,"lish":2438,"Ġwrit":2439,"Ġmat":2440,"Ġliqu":2441,"Ġalcohol":2442,"Ġsent":2443,"Ġplants":2444,"Ġactivity":2445,"Ġplaying":2446,"app":2447,"Ġsteps":2448,"Ġfinger":2449,"Ġrange":2450,"Ġsense":2451,"Ġaware":2452,"Ġdat":2453,"Ġcontainer":2454,"Ġlevels":2455,"Ġfavorite":2456,"erv":2457,"Ġslowly":2458,"Ġele":2459,"vir":2460,"Ġsens":2461,"Ġgoal":2462,"Ġsum":2463,"ples":2464,"Ġbank":2465,"Ġassoci":2466,"Ġsecure":2467,"ury":2468,"Ġinstructions":2469,"Ġrespect":2470,"Ġtask":2471,"Ġclothing":2472,"Ġplaces":2473,"Ġour":2474,"Ġbaking":2475,"Ġtight":2476,"aken":2477,"Ġwide":2478,"Ġcareful":2479,"Ġlose":2480,"Ġhandle":2481,"most":2482,"Ġkeeping":2483,"Ġproperty":2484,"ding":2485,"amin":2486,"Ġcloth":2487,"Ġschedule":2488,"Ġstarting":2489,"ĠAnd":2490,"Ġvisit":2491,"Ġsand":2492,"Ġgiven":2493,"Ġhappy":2494,"ometimes":2495,"Ġfore":2496,"Ġfine":2497,"orn":2498,"ided":2499,"oughly":2500,"Ġdise":2501,"Ġ'":2502,"Ġpotential":2503,"port":2504,"Ġdogs":2505,"Ġinch":2506,"Ġsoap":2507,"Ġshoes":2508,"ability":2509,"Ġhit":2510,"Ġmultiple":2511,"Ġsubject":2512,"selves":2513,"Ġquestion":2514,"âĢĶ":2515,"ĠOther":2516,"ĠHave":2517,"ĠAll":2518,"Ġstret":2519,"ered":2520,"ĠNow":2521,"Ġloss":2522,"Ġreport":2523,"Ġfrequ":2524,"Ġfruit":2525,"ĠSp":2526,"aged":2527,"Ġdish":2528,"Ġmajor":2529,"Ġcollect":2530,"ral":2531,"Ġoccur":2532,"Ġwrong":2533,"Ġservices":2534,"gress":2535,"ny":2536,"Ġfurther":2537,"ilities":2538,"ah":2539,"Ġlic":2540,"Ġmarket":2541,"Ġmov":2542,"ulate":2543,"ering":2544,"Ġthoughts":2545,"Ġx":2546,"Ġgoals":2547,"Ġasking":2548,"Ġthroughout":2549,"Ġrespond":2550,"ially":2551,"Ġearly":2552,"Ġsau":2553,"Ġill":2554,"Ġpush":2555,"Ġdue":2556,"viron":2557,"Ġcompl":2558,"Ġproperly":2559,"Ġwire":2560,"Ġcooking":2561,"Ġprice":2562,"Ġmor":2563,"This":2564,"Ġpin":2565,"irth":2566,"Ġaccom":2567,"Ġband":2568,"aim":2569,"unk":2570,"Ġbooks":2571,"Ġrecommended":2572,".)":2573,"omat":2574,"Ġvac":2575,"Ġflu":2576,"Ġtra":2577,"Ġreview":2578,"Ġleaves":2579,"Ġgrad":2580,"aced":2581,"gn":2582,"Ġdetails":2583,"Ġitem":2584,"Ġalone":2585,"Ġcalm":2586,"Ġchick":2587,"vert":2588,"olate":2589,"ĠBl":2590,"ym":2591,"ffee":2592,"Ġexpl":2593,"ster":2594,"Ġmatch":2595,"Ġtot":2596,"Ġdocument":2597,"Ġmuscles":2598,"50":2599,"Ġvet":2600,"Ġkids":2601,"ibility":2602,"ration":2603,"aid":2604,"Ġideas":2605,",âĢĿ":2606,"right":2607,"Ġtrack":2608,"Ġsod":2609,"Ġdiv":2610,"tt":2611,"Ġspeed":2612,"Ġexc":2613,"aut":2614,"atively":2615,"Ġsite":2616,"ĠFr":2617,"Ġmach":2618,"Ġenviron":2619,"erve":2620,"Ġcam":2621,"ĠWind":2622,"empt":2623,"Ġmiss":2624,"ĠBy":2625,"oud":2626,"Ġrate":2627,"Ġclos":2628,"Ġteeth":2629,"ĠUsing":2630,"Ġtrad":2631,"now":2632,"Ġthinking":2633,"Ġknown":2634,"Ġmanage":2635,"min":2636,"Ġpopular":2637,"Ġends":2638,"Ġhist":2639,"Ġgoes":2640,"Ġfu":2641,"bing":2642,"ube":2643,"ĠSometimes":2644,"reme":2645,"Ġarms":2646,"Ġadult":2647,"Ġfiles":2648,"Ġtables":2649,"istic":2650,"Ġencour":2651,"ĠPe":2652,"pending":2653,"Ġworry":2654,"Ġhole":2655,"Ġsubst":2656,"Ġdem":2657,"Ġstandard":2658,"Ġnotes":2659,"Ġsil":2660,"inse":2661,"Ġsuff":2662,"Ġtrain":2663,"Ġchem":2664,"ged":2665,"Ġsigns":2666,"enty":2667,"ĠThink":2668,"Ġru":2669,"top":2670,"ledge":2671,"Ġcarefully":2672,"Ġessential":2673,"raph":2674,"amm":2675,"Ġseparate":2676,"Ġer":2677,"ĠSim":2678,"Ġwet":2679,"af":2680,"Ġterm":2681,"Ġthemselves":2682,"Ġpicture":2683,"Ġconsist":2684,"ification":2685,"Ġfire":2686,"Ġland":2687,"Ġgot":2688,"Ġindividual":2689,"Ġforms":2690,"Ġstudents":2691,"Ġtea":2692,"Ġrequires":2693,"Ġmedium":2694,"Ġactive":2695,"Ġrecommend":2696,"ĠSc":2697,"Ġach":2698,"pose":2699,"Ġadded":2700,"oring":2701,"Ġcoffee":2702,"raid":2703,"let":2704,"Ġjuice":2705,"ox":2706,"Ġability":2707,"Ġwearing":2708,"Ġmessage":2709,"Ġprote":2710,"Ġapart":2711,"Ġpriv":2712,"Ġitself":2713,"Ġbreath":2714,"Ġop":2715,"Ġmic":2716,"Ġur":2717,"oogle":2718,"Ġwhatever":2719,"Ġcouple":2720,"Ġdrug":2721,"Ġattract":2722,"Ġvo":2723,"Ġye":2724,"Ġinsurance":2725,"ĠSelect":2726,"aling":2727,"Ġprograms":2728,"Ġidentify":2729,"ety":2730,"Ġworth":2731,"Ġanyone":2732,"Ġbirth":2733,"Ġmar":2734,"Ġwomen":2735,"Ġwish":2736,"Ġliquid":2737,"antly":2738,"Ġupper":2739,"ude":2740,"Ġfro":2741,"Ġinit":2742,"Ġtoward":2743,"Ġinfection":2744,"Ġaff":2745,"Ġten":2746,"ane":2747,"Ġmetal":2748,"Ġmaintain":2749,"ĠDr":2750,"iend":2751,"Ġshows":2752,"Ġtank":2753,"Ġtooth":2754,"Ġfinished":2755,"Ġmoment":2756,"Ġlearning":2757,"Ġlisten":2758,"go":2759,"Ġbud":2760,"ores":2761,"Ġrepres":2762,"inking":2763,"roc":2764,"Ġmotion":2765,"man":2766,"ili":2767,"iled":2768,"Ġfight":2769,"Ġnumbers":2770,"Ġmedication":2771,"ĠiP":2772,"Ġsauce":2773,"miss":2774,"ĠAd":2775,"?\"":2776,"Ġnutr":2777,"Ġwilling":2778,"iling":2779,"ok":2780,"Ġpupp":2781,"ister":2782,"ised":2783,"ĠFace":2784,"Ġenvironment":2785,"Ġmist":2786,"Ġsmell":2787,"ĠĠĠĠĠĠĠ":2788,"ĠWindows":2789,"ler":2790,"ogn":2791,"Ġdeb":2792,"Ġfirm":2793,"atures":2794,"Ġsuper":2795,"eral":2796,"Ġgard":2797,",,,,":2798,"Ġgives":2799,"'d":2800,"Ġmel":2801,"ocolate":2802,"Ġbalance":2803,"ying":2804,"Ġfee":2805,"anger":2806,"Ġpowder":2807,"Ġfinish":2808,"ground":2809,"Ġtaken":2810,"Ġclaim":2811,"ault":2812,"Ġcolle":2813,"time":2814,"Ġjudge":2815,"itation":2816,"ula":2817,"Ġprint":2818,"Ġgames":2819,"Ġsource":2820,"iment":2821,"Ġoriginal":2822,"Ġloose":2823,"Ġmeal":2824,"Ġround":2825,"Ġsignific":2826,"Ġaction":2827,"Ġmaterials":2828,"Ġdata":2829,"Ġinfl":2830,"iff":2831,"Ġsheet":2832,"Ġoven":2833,"Ġcode":2834,"Ġcatch":2835,"Ġpen":2836,"Ġedges":2837,"Ġthrow":2838,"pend":2839,"ĠHere":2840,"eding":2841,"Ġfully":2842,"Ġfigure":2843,"enses":2844,"Ġstain":2845,"Ġhurt":2846,"ĠÂ":2847,"ĠSince":2848,"ĠPr":2849,"Ġmorning":2850,"allen":2851,"Ġbatter":2852,"Ġserve":2853,"aches":2854,"Ġirrit":2855,"Ġthor":2856,"Ġvary":2857,"Ġfle":2858,"ĠAlthough":2859,"ung":2860,"Ġdouble":2861,"Ġconditions":2862,"Ġtit":2863,"Ġterms":2864,"Ġaltern":2865,"Ġham":2866,"Ġcoat":2867,"Ġrules":2868,"Ġtree":2869,"ension":2870,"ĠCut":2871,"Ġoper":2872,"Ġteach":2873,"imate":2874,"ye":2875,"?âĢĿ":2876,"Ġbird":2877,"Ġplayer":2878,"Ġprepared":2879,"put":2880,"Ġtar":2881,"Ġissue":2882,"ĠAr":2883,"Ġunless":2884,"Ġextreme":2885,"Ġbacter":2886,"Ġinteract":2887,"Ġputting":2888,"Ġagre":2889,"Ġlegal":2890,"Ġcm":2891,"hor":2892,"Ġautomat":2893,"Ġkill":2894,"cause":2895,"Ġeggs":2896,"Ġanxiety":2897,"Ġhear":2898,"Ġuseful":2899,"Ġnose":2900,"Ġcutting":2901,"Ġarg":2902,"Ġforget":2903,"Ġcommunity":2904,"Ġsweet":2905,"Ġexplain":2906,"ĠX":2907,"ĠWe":2908,"Ġtab":2909,"Ġstretch":2910,"Ġfair":2911,"Ġwrap":2912,"Ġincludes":2913,"Ġcontent":2914,"Ġconcern":2915,"ording":2916,"rite":2917,"Ġstir":2918,"Ġmedications":2919,"Ġwritten":2920,"ivers":2921,"ĠGoogle":2922,"Ġscrew":2923,"Ġstrength":2924,"Ġlimit":2925,"Ġchocolate":2926,"encil":2927,"Ġflavor":2928,"Ġyog":2929,"pos":2930,"Ġfolder":2931,"Ġprevious":2932,"Ġveh":2933,"yl":2934,"ĠFacebook":2935,"Ġhon":2936,"ĠAny":2937,"Ġlocated":2938,"Ġsuit":2939,"ĠCon":2940,"Ġyet":2941,"Ġbrain":2942,"ads":2943,"Ġfinal":2944,"rate":2945,"Ġevents":2946,"Ġdisease":2947,"Ġann":2948,"Ġchest":2949,"Ġlaws":2950,"Ġcheese":2951,"Ġstring":2952,"It":2953,"acking":2954,"Ġcompan":2955,"Ġfinanc":2956,"ishing":2957,"Ġapproach":2958,"val":2959,"12":2960,"ached":2961,"Ġknife":2962,"Ġsix":2963,"Ġmedia":2964,"arily":2965,"Ġminute":2966,"Ġolder":2967,"Ġpassword":2968,"ĠNote":2969,"Ġok":2970,"Ġdegrees":2971,"Ġcosts":2972,"âĢĵ":2973,"ĠHold":2974,"Ġheavy":2975,"pro":2976,"Ġharm":2977,"Ġtrue":2978,"Ġapplying":2979,"Ġfunction":2980,"Ġcoming":2981,"ams":2982,"Ġdocuments":2983,"Ġnothing":2984,"Ġjump":2985,"Ġexpensive":2986,"Ġplenty":2987,"Ġopportunity":2988,"Ġseason":2989,"Ġtablesp":2990,"Ġchallen":2991,"cription":2992,"Ġdirection":2993,"Ġcarry":2994,"Ġseeds":2995,"Ġang":2996,"Ġintrodu":2997,"ĠUS":2998,"ĠRemove":2999,"Ġtrouble":3000,"Ġappl":3001,"Ġgain":3002,"Ġmember":3003,"Ġparticularly":3004,"ulation":3005,"Ġcalc":3006,"Ġlawy":3007,"Ġspouse":3008,"Ġdecor":3009,"ĠRepeat":3010,"cer":3011,"Ġroutine":3012,"Ġcross":3013,"Ġthought":3014,"Ġtravel":3015,"Ġmakeup":3016,"Ġbreathing":3017,"Ġregularly":3018,"Ã©":3019,"sy":3020,"ured":3021,"Ġacid":3022,"itional":3023,"Ġalmost":3024,"ipping":3025,"Ġoffic":3026,"Ġdistract":3027,"ests":3028,"Ġsaf":3029,"urity":3030,"uits":3031,"Ġprotein":3032,"Ġwalking":3033,"Ġanimal":3034,"era":3035,"Ġswitch":3036,"Ġmass":3037,"Ġtaste":3038,"Ġattach":3039,"Ġholding":3040,"Ġhistory":3041,"aint":3042,"Ġstat":3043,"izz":3044,"Ġ+":3045,"asons":3046,"arp":3047,"Ġchicken":3048,"Ġsquare":3049,"het":3050,"Ġvit":3051,"//":3052,"Ġ{":3053,"Ġchemical":3054,"Ġcircle":3055,"Ġattempt":3056,"ball":3057,"Ġbenefits":3058,"Ġtransfer":3059,"ĠIs":3060,"Ġlock":3061,"Ġspl":3062,"Ġeffects":3063,"Ġphoto":3064,"Ġlots":3065,"Ġmachine":3066,"Ġdefe":3067,"cut":3068,"Ġ0":3069,"ĠEach":3070,"Ġinterview":3071,"Ġthird":3072,"iction":3073,"Ġtotal":3074,"roll":3075,"Ġcounter":3076,"Ġcrit":3077,"ilt":3078,"Ġpregn":3079,"ourn":3080,"Ġdead":3081,"Ġfac":3082,"Ġlip":3083,"Ġdecision":3084,"inate":3085,"Ġexpress":3086,"Ġindic":3087,"iest":3088,"Ġstates":3089,"Ġinf":3090,"Ġshop":3091,"Ġprepare":3092,"meric":3093,"ĠAllow":3094,"ann":3095,"Ġsettings":3096,"Ġcreating":3097,"Ġgen":3098,"do":3099,"oons":3100,"Ġblank":3101,"Ġsupple":3102,"Ġevidence":3103,"aster":3104,"ĠDepending":3105,"ference":3106,"Ġeduc":3107,"Ġphotos":3108,"Ġnail":3109,"ĠTy":3110,"Ġvoice":3111,"Ġple":3112,"Ġcalories":3113,"Ġbuilding":3114,"Ġbat":3115,"acy":3116,"ĠSm":3117,"vere":3118,"Ġbelieve":3119,"Ġsays":3120,"Ġstom":3121,"bon":3122,"Ġiron":3123,"Ġemotions":3124,"Ġsituations":3125,"ĠAlways":3126,"Ġexperienc":3127,"fit":3128,"Ġgroups":3129,"ĠGive":3130,"Ġprin":3131,"ses":3132,"Ġrepresent":3133,"Ġcake":3134,"Ġmental":3135,"Ġmail":3136,"Ġrab":3137,"Ġskill":3138,"ĠTalk":3139,"Ġahead":3140,"Ġprior":3141,"Ġvine":3142,"ushing":3143,"izes":3144,"ik":3145,"ror":3146,"Ġtrick":3147,"15":3148,"Ġholes":3149,"Ġoppos":3150,"Ġfinancial":3151,"Ġprim":3152,"idered":3153,"Ġregard":3154,"Ġgold":3155,"reci":3156,"Ġexactly":3157,"Ġassist":3158,"âĪ":3159,"Ġwebsites":3160,"Ġcommit":3161,"Ġmeeting":3162,"ĠNo":3163,"://":3164,"Ġteasp":3165,"----":3166,"rupt":3167,"Ġquite":3168,"__":3169,"hand":3170,"ancy":3171,"Ġpour":3172,"Ġrefer":3173,"Ġwants":3174,"Ġframe":3175,"ĠEvery":3176,"Ġcomplain":3177,"ĠTap":3178,"Ġcompanies":3179,"ĠDis":3180,"Ġshower":3181,"ĠRes":3182,"ĠFl":3183,"ĠApply":3184,"anced":3185,"rig":3186,"Ġopening":3187,"Ġremain":3188,"Ġdanger":3189,"Ġincome":3190,"ĠPeople":3191,"ĠQ":3192,"ched":3193,"Ġcompet":3194,"Ġremoved":3195,"Wh":3196,"Ġsaid":3197,"ighter":3198,"artment":3199,"Ġrelease":3200,"Ġconsidered":3201,"Ġrad":3202,"Ġbrows":3203,"Ġmeaning":3204,"Ġshouldn":3205,"down":3206,"Ġstomach":3207,"Ġ100":3208,"ĠBecause":3209,"Ġstock":3210,"Ġexist":3211,"nces":3212,"Ġtarget":3213,"Ġokay":3214,"fact":3215,"Ġsites":3216,"ology":3217,"oll":3218,"imately":3219,"sc":3220,"Ġfix":3221,"Ġwed":3222,"Ġconfident":3223,"Ġadvice":3224,"lt":3225,"earch":3226,"Ġclasses":3227,"ollow":3228,"Ġdough":3229,"20":3230,"iqu":3231,"Ġbacteria":3232,"Ġce":3233,"Ġweb":3234,"ument":3235,"Ġcharge":3236,"Ġrepeat":3237,"itor":3238,"Ġdescrib":3239,"Be":3240,"order":3241,"Ġforce":3242,"Ġinvolved":3243,"Ġpercent":3244,"ample":3245,"Ġgirl":3246,"Ġloan":3247,"eter":3248,"Ġencourage":3249,"ionally":3250,"Ġplayers":3251,"Ġproced":3252,"Ġtip":3253,"angle":3254,"\",":3255,"Ġmuscle":3256,"Ġcot":3257,"Ġcountry":3258,"Ġresour":3259,"Ġexte":3260,"Ġthoroughly":3261,"Ġgarden":3262,"atoes":3263,"Ġbread":3264,"Ġrecogn":3265,"Ġdegree":3266,"Ġnames":3267,"ĠNew":3268,"Ġflowers":3269,"Ġbeginning":3270,"Ġhook":3271,"Ġrock":3272,"Ġcontains":3273,"Ġleaving":3274,"Ġdirt":3275,"Ġreasons":3276,"Ġliving":3277,"Ġlawyer":3278,"ĠGr":3279,"Ġrib":3280,"Ġpencil":3281,"Ġstuff":3282,"Ġsafety":3283,"Ġfeels":3284,"haps":3285,"Ġfaster":3286,"icles":3287,"hydr":3288,"Ġguide":3289,"irm":3290,"Ġsoda":3291,"ays":3292,"ĠAnother":3293,"Ġring":3294,"Ġvinegar":3295,"Ġcauses":3296,"opt":3297,"Ġnetwork":3298,"Ġautomatically":3299,"ceed":3300,"cture":3301,"Ġobs":3302,"Ġever":3303,"Make":3304,"Ġpictures":3305,"itter":3306,"Ġeffort":3307,"Ġanimals":3308,"Ġpayment":3309,"Ġrequirements":3310,"gen":3311,"hone":3312,"back":3313,"Ġcats":3314,"inue":3315,"Ġbecomes":3316,"ĠTw":3317,"Ġyellow":3318,"Ġevenly":3319,"arian":3320,"Ġmood":3321,"ĠRead":3322,"une":3323,"con":3324,"Ġtone":3325,"Ġbright":3326,"ĠShe":3327,"Ġtrig":3328,"Ġbuying":3329,"Ġpret":3330,"ades":3331,"Ġtwice":3332,"Ġabsor":3333,"Ġheight":3334,"Ġbackground":3335,"Ġpill":3336,"Ġtail":3337,"Ġdesired":3338,"verage":3339,"rel":3340,"Ġcarr":3341,"Ġlate":3342,"Ġassign":3343,"und":3344,"Ġfurn":3345,"come":3346,"Ġproduce":3347,"Ġhtt":3348,"Ġflour":3349,"Ġsources":3350,"Ġfib":3351,"Ġgrowth":3352,"Ġcups":3353,"Ġcommunic":3354,"Ġlemon":3355,"Ġloved":3356,"Ġrelated":3357,"Ġrent":3358,"Ġattack":3359,"Ġemb":3360,"ĠChr":3361,"Ġ/":3362,"ĠEng":3363,"ĠTurn":3364,"izer":3365,"Ġauthor":3366,"Ġachieve":3367,"ĠWrite":3368,"Ġvarious":3369,"Ġ.":3370,"Ġbul":3371,"Ġversion":3372,"Ġrinse":3373,"Ġtrip":3374,"Ġuncom":3375,"ampoo":3376,"Ġaw":3377,"Ġangle":3378,"Ġtopic":3379,"Ġdistance":3380,"Ġotherwise":3381,"Ġbrok":3382,"Ġtitle":3383,"Ġmeals":3384,"Ġrid":3385,"vered":3386,"Ġupd":3387,"oves":3388,"Ġagreement":3389,"Ġremind":3390,"Ġbond":3391,"Ġvehicle":3392,"ĠPre":3393,"Ġbenefit":3394,"Ġbur":3395,"ĠTV":3396,"ĠSl":3397,"Ġmovie":3398,"ycle":3399,"Ġstatement":3400,"Ġoverall":3401,"Ġjoint":3402,"Ġknowledge":3403,"Ġfinding":3404,"Ġafraid":3405,"Ġdesk":3406,"Ġemotional":3407,"Ġideal":3408,"Ġshown":3409,"ived":3410,"Ġaside":3411,"Ġprompt":3412,"Ġimm":3413,"Ġcamera":3414,"Ġappreci":3415,"ipment":3416,"Ġtick":3417,"Ġthread":3418,"Ġdrain":3419,"Ġwax":3420,"atory":3421,"Ġhonest":3422,"ened":3423,"Ġunique":3424,"cm":3425,"Ġtools":3426,"ony":3427,"Ġdin":3428,"Ġfrequently":3429,"Ġmoisture":3430,"Ġsess":3431,"Ġcovered":3432,"Ġtie":3433,"Ġaccur":3434,"Ġtherapy":3435,"Ġveter":3436,"ĠAmeric":3437,"hold":3438,"Ġsoftware":3439,"Ġoccas":3440,"Ġpuppy":3441,"Ġmarr":3442,"Ġpurpose":3443,"ait":3444,"aur":3445,"Ġsoak":3446,"Ġrice":3447,"Ġinjury":3448,"Ġfacing":3449,"Ġsitting":3450,"Ġexercises":3451,"Ġnails":3452,"Ġcotton":3453,"ĠInc":3454,"Ġaccording":3455,"Ġshoulder":3456,"Ġshirt":3457,"Ġmag":3458,"ĠTe":3459,"Ġbeaut":3460,"ĠOpen":3461,"Ġlift":3462,"Ġestab":3463,"Ġfees":3464,"Ġvi":3465,"Ġseems":3466,"ĠPress":3467,"30":3468,"Ġfail":3469,"ĠAltern":3470,"ums":3471,"ĠSee":3472,"Ġspoon":3473,"ibly":3474,"Ġfear":3475,"Ġlisted":3476,"iliar":3477,"Ġteen":3478,"Ġsty":3479,"ĠIntern":3480,"Ġdoll":3481,"Ġconsum":3482,"Ġtor":3483,"ĠBr":3484,"Ġdesigned":3485,"ode":3486,"Ġopin":3487,"aries":3488,"ighb":3489,"Ġoils":3490,"icy":3491,"Ġtrim":3492,"Ġplate":3493,"Ġsevere":3494,"Ġnaturally":3495,"entially":3496,"Ġrot":3497,"Ġsounds":3498,"Ġshampoo":3499,"uate":3500,"Ġemployees":3501,"ĠPlay":3502,"Ġwid":3503,"Ġemerg":3504,"Ġstarts":3505,"Ġdest":3506,"Ġquiet":3507,"Ġrule":3508,"Ġclub":3509,"Ġsolid":3510,"Ġcustomers":3511,"Ġstrip":3512,"Ġmaybe":3513,"onse":3514,"Ġimpact":3515,"Ġpretty":3516,"Ġequipment":3517,"Your":3518,"aff":3519,"Ġfruits":3520,"Ġthumb":3521,"Ġhearing":3522,"Ġshap":3523,"Ġportion":3524,"erk":3525,"Ġsales":3526,"Ġstarted":3527,"irst":3528,"Ġneighb":3529,"osp":3530,"chen":3531,"free":3532,"Ġden":3533,"umn":3534,"Ġmoder":3535,"Ġinteresting":3536,"ĠAre":3537,"Ġinterests":3538,"Ġcreated":3539,"ĠMe":3540,"Ġsort":3541,"box":3542,"Ġlips":3543,"iture":3544,"Ġaudience":3545,"Ġgent":3546,"Ġsports":3547,"Ġharder":3548,"Ġdrinking":3549,"Ġcustomer":3550,"Ġbudget":3551,"Ġdecre":3552,"ĠMay":3553,"Ġmother":3554,"Ġcas":3555,"ĠBu":3556,"Ġdepend":3557,"Ġinsert":3558,"Ġyoung":3559,"aph":3560,"Ġlid":3561,"friend":3562,"Ġdifference":3563,"Ġtoys":3564,"vern":3565,"bits":3566,"iles":3567,"Ġcollege":3568,"Ġprivate":3569,"Ġupset":3570,"Ġrow":3571,"hether":3572,"Ġcity":3573,"Ġcaused":3574,"ĠLeave":3575,"Ġveterin":3576,"Ġopposite":3577,"Ġlabel":3578,"Ġdust":3579,"oop":3580,"Ġhost":3581,"ĠTell":3582,"dom":3583,"reate":3584,"Ġsat":3585,"Ġappearance":3586,"orpor":3587,"Ġreflect":3588,"iced":3589,"Ġcontrib":3590,"bal":3591,"ĠHaving":3592,"Ġcage":3593,"Ġweak":3594,"Ġboo":3595,"ĠEnter":3596,"icing":3597,"Ġdrag":3598,"hood":3599,"Ġresponse":3600,"Ġlicense":3601,"Ġsomewhere":3602,"Ġstudent":3603,"Ġpal":3604,"Ġcult":3605,"Ġprogress":3606,"Ġloop":3607,"Ġseek":3608,"vant":3609,"Ġ50":3610,"ager":3611,"Ġplans":3612,"unte":3613,"Ġpaste":3614,"Ġscrub":3615,"Ġthr":3616,"Ġuses":3617,"Ġweather":3618,"Ġsav":3619,"Ġextremely":3620,"ĠFollow":3621,"atic":3622,"Ġconsult":3623,"Ġexh":3624,"Ġsuppl":3625,"Ġsharp":3626,"Ġremaining":3627,"Ġmoistur":3628,"Ġjourn":3629,"sych":3630,"Ġpink":3631,"Ġformat":3632,"Ġbreast":3633,"Ġmodel":3634,"Ġcausing":3635,"Ġengine":3636,"Ġstitch":3637,"wing":3638,"Ġgra":3639,"ivity":3640,"Ġnormally":3641,"Try":3642,"Ġroot":3643,"Ġplanning":3644,"Ġkitchen":3645,"ĠPh":3646,"ĠContinue":3647,"Ġsignificant":3648,"Ġcamp":3649,"Ġmethods":3650,"Ġactions":3651,"Ġinternet":3652,"How":3653,"Ġswim":3654,"Ġhuman":3655,"Ġsections":3656,"Ġtests":3657,"Ġpark":3658,"Ġ24":3659,"Ġdefin":3660,"Ġreplace":3661,"Ġadvant":3662,"riger":3663,"Ġrefriger":3664,"iring":3665,"Ġfurniture":3666,"Do":3667,"Ġla":3668,"Ġorganization":3669,"Ġasked":3670,"cell":3671,"Ġbi":3672,"Ġstanding":3673,"lying":3674,"Ġworse":3675,"Ġearn":3676,"airs":3677,"Ġrelationships":3678,"Ġagree":3679,"Ġteaspoon":3680,"ĠBeing":3681,"ĠDoing":3682,"ĠSec":3683,"Ġeyel":3684,"Ġuncomfort":3685,"Ġhelping":3686,"ĠAg":3687,"Ġpad":3688,"ators":3689,"Ġcash":3690,"irty":3691,"Ġrecip":3692,"str":3693,"Ġprovided":3694,"ĠNever":3695,"Ġhappens":3696,"onent":3697,"Ġge":3698,"Ġassociated":3699,"Ġemployee":3700,"Ġgentle":3701,"Ġarticle":3702,"ĠMix":3703,"Ġpatient":3704,"25":3705,"Ġwashing":3706,"Ġgas":3707,"Ġserving":3708,"Ġdrops":3709,"hel":3710,"zz":3711,"Ġsmile":3712,"Ġunderstanding":3713,"Ġdidn":3714,"ties":3715,"Ġwipe":3716,"Ġshoulders":3717,"Ġsubmit":3718,"Ġ18":3719,"Ġboy":3720,"Ġfem":3721,"Ġdepression":3722,"Ġmax":3723,"Ġdiagn":3724,"Ġpaying":3725,"Ġmis":3726,"Ġallerg":3727,"Ġappoint":3728,"Ġuncomfortable":3729,"Ġlost":3730,"Ġdinner":3731,"iation":3732,"quee":3733,"Ġdom":3734,"ards":3735,"oosing":3736,"Ġprovides":3737,"Ġchoices":3738,"As":3739,"Ġmask":3740,"Ġshot":3741,"osure":3742,"osing":3743,"Ġadvert":3744,"Ġspending":3745,"Ġjack":3746,"spect":3747,"Ġplaced":3748,"Ġtom":3749,"ĠPay":3750,"term":3751,"Ġbreed":3752,"uing":3753,"ĠFill":3754,"Ġupon":3755,"Ġasse":3756,"Ġrecords":3757,"Ġstrugg":3758,"Ġtherapist":3759,"Ġworkout":3760,"icient":3761,"Ġcraft":3762,"Ġparticip":3763,"Ġresources":3764,"ĠIm":3765,"allow":3766,"Ġboil":3767,"To":3768,"ĠGener":3769,"bles":3770,"iner":3771,"Ġresist":3772,"Ġpig":3773,"mission":3774,"itude":3775,"Ġcharacters":3776,"nam":3777,"Ġinitial":3778,"Ġmanu":3779,"ĠZ":3780,"gery":3781,"Ġpath":3782,"uses":3783,"Ġtiss":3784,"Ġguid":3785,"idge":3786,"Ġfed":3787,"Ġremoving":3788,"Ġgovern":3789,"Ġpaid":3790,"Ġimag":3791,"ously":3792,"Ġmotiv":3793,"night":3794,"Ġbasis":3795,"Ġchances":3796,"inch":3797,"ronic":3798,"ĠWhether":3799,"Ġshel":3800,"Ġcareer":3801,"osis":3802,"Ġblog":3803,"Ġbutt":3804,"Ġtur":3805,"Ġanal":3806,"Ġviol":3807,"Ġcateg":3808,"ĠWork":3809,"Ġoffers":3810,"Ġdebt":3811,"Ġequal":3812,"Ġrubber":3813,"Ġflex":3814,"Ġtips":3815,"Ġadopt":3816,"iot":3817,"Ġnarr":3818,"ipped":3819,"Ġbra":3820,"elt":3821,"Ġletters":3822,"ĠThough":3823,"Ġrabbit":3824,"Ġslide":3825,"Ġlibr":3826,"Ġraise":3827,"Ġut":3828,"Ġcoc":3829,"Ġtasks":3830,"Ġtele":3831,"Ġchanging":3832,"tr":3833,"Ġmild":3834,"Ġindicate":3835,"Ġsad":3836,"Ġneedle":3837,"Ġjoin":3838,"used":3839,"Ġears":3840,"Ġlean":3841,"ĠFe":3842,"Ġload":3843,"Ġcompleted":3844,"stick":3845,"roid":3846,"urer":3847,"Ġol":3848,"Ġshoot":3849,"Ġund":3850,"Â°":3851,"ians":3852,"irts":3853,"ailed":3854,"Ġconfidence":3855,"ĠPour":3856,"iny":3857,"ares":3858,"Ġappears":3859,"Ġobvious":3860,"Ġkid":3861,"ey":3862,"Ġfeatures":3863,"Ġign":3864,"Ġcleaner":3865,"asting":3866,"ively":3867,"Ġbeans":3868,"Ġunc":3869,"iage":3870,"Ġpepper":3871,"Ġmovement":3872,"Ġregist":3873,"pan":3874,"Ġseen":3875,"neath":3876,"Ġemergency":3877,"Ġpump":3878,"Ġknees":3879,"based":3880,"Ġstrateg":3881,"Ġmold":3882,"Ġhide":3883,"Ġmir":3884,"lete":3885,"Ġrestaur":3886,"body":3887,"Ġgift":3888,"ĠEnglish":3889,"ashion":3890,"Ġresol":3891,"tings":3892,"Ġrepe":3893,"Ġgun":3894,"pet":3895,"Ġboss":3896,"Ġconnection":3897,"Ġdangerous":3898,"Ġamounts":3899,"Ġhabit":3900,"Ġspecifically":3901,"ferences":3902,"iable":3903,"Ġseal":3904,"pty":3905,"abet":3906,"Ġrat":3907,"^{":3908,"Ġattend":3909,"Ġgrowing":3910,"Ġanti":3911,"Ġformula":3912,"Ġsurround":3913,"ĠMed":3914,"Ġallowing":3915,"Ġtrial":3916,"Ġadmin":3917,"Ġphotog":3918,"Ġbrowser":3919,"Ġspin":3920,"Ġmanufact":3921,"ĠStir":3922,"Ġsou":3923,"iques":3924,"Ġspeaking":3925,"Ġaspect":3926,"When":3927,"ison":3928,"apers":3929,"Ġjar":3930,"Ġtow":3931,"Ġneut":3932,"ĠOnly":3933,"Ġabsorb":3934,"Ġpants":3935,"Ġpatterns":3936,"Ġâ":3937,"lock":3938,"Ġinte":3939,"ĠSk":3940,"ertain":3941,"cking":3942,"Ġeasiest":3943,"Ġsock":3944,"ope":3945,"ĠPer":3946,"Ġconnected":3947,"ĠWear":3948,"apping":3949,"Ġshowing":3950,"www":3951,"Ġaccident":3952,"Ġtraditional":3953,"Ġaverage":3954,"Ġlistening":3955,"Ġtri":3956,"Ġbathroom":3957,"Ġexcept":3958,"Ġactual":3959,"Ġreward":3960,"ĠEm":3961,"Ġboost":3962,"itely":3963,"ipp":3964,"Ġunderneath":3965,"illed":3966,"Ġwit":3967,"umps":3968,"Ġroots":3969,"Ġfilter":3970,"Ġhaven":3971,"Ġstage":3972,"Ġemployer":3973,"Ġguy":3974,"Ġpsych":3975,"Ġded":3976,"Ġdial":3977,"Ġagent":3978,"Ġconcent":3979,"Ġdye":3980,"dy":3981,"isions":3982,"Ġfamiliar":3983,"Ġplacing":3984,"Ġlaugh":3985,"Ġleather":3986,"rict":3987,"yst":3988,"ounce":3989,"Ġadvance":3990,"Ġaccompl":3991,"Ġletting":3992,"Ġsteam":3993,"duct":3994,"Ġrole":3995,"Ġbuck":3996,"Ġimages":3997,"Ġwine":3998,"Ġaim":3999,"Ġobjects":4000,"such":4001,"Ġinse":4002,"Ġcomplaint":4003,"Ġjewel":4004,"Ġlights":4005,"Ġbecoming":4006,"lean":4007,"Ġanywhere":4008,"Ġdried":4009,"ĠInternet":4010,"Ġvolunte":4011,"Ġblow":4012,"uals":4013,"Ġdefend":4014,"Ġtechnique":4015,"Ġvolume":4016,"Ġguests":4017,"Ġsuccessful":4018,"ĠSpe":4019,"Ġnews":4020,"Ġtub":4021,"Ġcra":4022,"Ġsupply":4023,"Ġadvantage":4024,"zer":4025,"Ġcommand":4026,"Ġsurpr":4027,"Ġsecurity":4028,"Ġbrand":4029,"Ġsurgery":4030,"Ġapprox":4031,"'m":4032,"Ġmap":4033,"Ġspir":4034,"icated":4035,"Ġwedding":4036,"ashes":4037,"Ġtelling":4038,"lude":4039,"Ġdevices":4040,"Ġrect":4041,"ĠLear":4042,"Ġscore":4043,"Ġtwist":4044,"Ġsick":4045,"Ġlayers":4046,"Ġsummer":4047,"Ġjeans":4048,"60":4049,"ĠBring":4050,"Ġminimum":4051,"ech":4052,"asc":4053,"Ġelim":4054,"Ġspots":4055,"Ġrom":4056,"Ġpersonality":4057,"Ġbub":4058,"ffic":4059,"Ġschools":4060,"Ġpoor":4061,"Ġjournal":4062,"Ġwinter":4063,"Ġcancer":4064,"Ġrare":4065,"Ġban":4066,"Ġdrinks":4067,"Ġbags":4068,"Ġmention":4069,"Ġclearly":4070,"Ġlikes":4071,"Ġparties":4072,"Ġcreative":4073,"att":4074,"Ġfiling":4075,"Ġdeath":4076,"ĠSay":4077,"key":4078,"Ġgather":4079,"Ġangry":4080,"Ġexamples":4081,"Ġsettle":4082,"Ġmaxim":4083,"ued":4084,"ĠMaybe":4085,"Ġsatis":4086,"iers":4087,"Ġknee":4088,"Ġprofile":4089,"Ġallowed":4090,"Ġafford":4091,"Ġcry":4092,"usion":4093,"Ġfactors":4094,"Ġsensitive":4095,"urch":4096,"Ġease":4097,"Ġfriendship":4098,"zen":4099,"Ġdance":4100,"utions":4101,"Ġcomplex":4102,"atives":4103,"adow":4104,"Ġcorn":4105,"Ġstar":4106,"Ġrecipe":4107,"Ġpolish":4108,"Ġgarlic":4109,"Ġvert":4110,"Ġaccounts":4111,"ram":4112,"inger":4113,"eness":4114,"Ġchoosing":4115,"ĠSpr":4116,"ups":4117,"orage":4118,"Ġloud":4119,"Ġgrab":4120,"Ġpages":4121,"Ġvitamin":4122,"Ġorange":4123,"Ġnerv":4124,"ulated":4125,"Ġpun":4126,"ana":4127,"ole":4128,"Ġgloves":4129,"Ġskip":4130,"Ġmill":4131,"Ġexpenses":4132,"ĠAc":4133,"Ġlimited":4134,"ĠKnow":4135,"Ġclicking":4136,"Ġdiss":4137,"ĠChrist":4138,"anch":4139,"Ġdefault":4140,"Ġuser":4141,"Ġsink":4142,"ned":4143,"Ġeducation":4144,"Ġeight":4145,"Ġcolored":4146,"Ġcolumn":4147,"Ġexperiences":4148,"Ġwidth":4149,"Ġnuts":4150,"nesses":4151,"...":4152,"Ġattached":4153,"Ġapps":4154,"Ġenem":4155,"Ġowner":4156,"Ġyoga":4157,"Ġjobs":4158,"Ġpayments":4159,"ounter":4160,"Ġobtain":4161,"cher":4162,"Ġnewsp":4163,"ks":4164,"Ġprocedure":4165,"Ġ,,,,":4166,"Ġdrawing":4167,"Ġnature":4168,"mark":4169,"Ġempty":4170,"rench":4171,"aught":4172,"Ġbusy":4173,"Ġscal":4174,"ĠiPhone":4175,"Ġhoney":4176,"Ġantib":4177,"Ġselected":4178,"encies":4179,"Ġstim":4180,"Ġstro":4181,"Ġtong":4182,"Ġdream":4183,"Ġolive":4184,"Ġcorrectly":4185,"Ġarrange":4186,"Ġlunch":4187,"Ġturning":4188,"ustr":4189,"Ġwra":4190,"Ġstre":4191,"Ġprescrib":4192,"Ġsupplies":4193,"Ġnervous":4194,"ĠCan":4195,"Ġflower":4196,"verse":4197,"Ġresponsible":4198,"Ġopportunities":4199,"Ġhighlight":4200,"Ġgovernment":4201,"ĠSimply":4202,"uct":4203,"rim":4204,"Ġtempt":4205,"illing":4206,"Ġknows":4207,"Ġtube":4208,"orter":4209,"izations":4210,"eg":4211,"Ġsold":4212,"Ġpool":4213,"Ġperformance":4214,"Ġbigger":4215,"Ġinde":4216,"Ġmixing":4217,"Ġwatching":4218,"40":4219,"Ġtre":4220,"Ġvalues":4221,"bol":4222,"Ġdrugs":4223,"Ġwalls":4224,"Ġrelevant":4225,"Ġml":4226,"Ġagency":4227,"Ġstaff":4228,"Ġfan":4229,"Ġhoriz":4230,"Ġsentence":4231,"Ġmort":4232,"Ġincorpor":4233,"Don":4234,"Ġtag":4235,"olid":4236,"Ġcircum":4237,"Ġusers":4238,"Ġsexual":4239,"Ġmemory":4240,"bre":4241,"Ġfluid":4242,"Ġbeat":4243,"Ġconfirm":4244,"Ġgym":4245,"Ġcab":4246,"Ġstraw":4247,"Ġformal":4248,"ils":4249,"Ġdiam":4250,"Ġkiss":4251,"Ġsleeping":4252,"Ġfairly":4253,"Ġneutral":4254,"Ġengage":4255,"Ġknot":4256,"Ġappreciate":4257,"Al":4258,"arge":4259,"Ġfeature":4260,"Ġmob":4261,"Ġconstantly":4262,"Ġwaist":4263,"Ġ19":4264,"Ġcombination":4265,"Ġcloser":4266,"Ġelectric":4267,"Ġfoundation":4268,"Ġkick":4269,"Ġgirls":4270,"Ġbroken":4271,"Ġvisual":4272,"Ġchain":4273,"Ġtechniques":4274,"uly":4275,"Ġclim":4276,"Ġlightly":4277,"Ġesc":4278,"force":4279,"ugg":4280,"Ġfashion":4281,"Ġbleach":4282,"Ġveterinarian":4283,"Ġpets":4284,"vision":4285,"Ġwhenever":4286,"Ġreaction":4287,"Ġmount":4288,"iors":4289,"Ġcertific":4290,"ĠDuring":4291,"ĠÂ½":4292,"then":4293,"Ġhosp":4294,"Ġwheel":4295,"Ġscratch":4296,"Ġcells":4297,"Ġcopies":4298,"âĪĴ":4299,"Ġyours":4300,"ĠNext":4301,"Ġrealize":4302,"gest":4303,"Ġclosed":4304,"Ġprec":4305,"Ġbell":4306,"Ġtreats":4307,"Ġcit":4308,"ĠList":4309,"Some":4310,"Ġcow":4311,"Ġeventually":4312,"ĠAlternatively":4313,"Ġgreater":4314,"inder":4315,"ĠPok":4316,"inary":4317,"Ġjewelry":4318,"Ġoutfit":4319,"Ġassess":4320,"Ġseed":4321,"Ġhanging":4322,"Ġboxes":4323,"Ġcalls":4324,"Ġroad":4325,"Ġbegins":4326,"Ġfilling":4327,"Ġexisting":4328,"Ġbound":4329,"Ġpotatoes":4330,"ĠUs":4331,"11":4332,"Ġgrass":4333,"Ġcheap":4334,"ĠAmerican":4335,"Ġbrief":4336,"Ġvideos":4337,"ĠFrom":4338,"Ġclerk":4339,"Ġexcell":4340,"Ġlack":4341,"Ġspeech":4342,"Ġtexture":4343,"Ġalternative":4344,"erson":4345,"Ġrelatively":4346,"Ġwindows":4347,"Ġspring":4348,"ĠPick":4349,"Ġstorage":4350,"Ġseat":4351,"Ġinstalled":4352,"Ġchemicals":4353,"Ġhob":4354,"Ġlives":4355,"Ġ60":4356,"sen":4357,"Ġ40":4358,"ĠUnder":4359,"ĠReg":4360,"Ġcooked":4361,"Ġconstru":4362,"agon":4363,"Ġinh":4364,"ractice":4365,"lier":4366,"Ġreader":4367,"Ġnur":4368,"Ġeval":4369,"ĠOff":4370,"Ġapplied":4371,"Ġvisible":4372,"ĠFirst":4373,"ĠCreate":4374,"osen":4375,"Ġbull":4376,"Ġdisorder":4377,"Ġgel":4378,"ĠMac":4379,"Ġshell":4380,"Ġdistrib":4381,"Ġsets":4382,"itches":4383,"frac":4384,"ĠSer":4385,"ival":4386,"Ġnutrients":4387,"lend":4388,"you":4389,"ishes":4390,"Ġgear":4391,"Ġcycle":4392,"ma":4393,"ancing":4394,"ften":4395,"Ġsquee":4396,"inkle":4397,"Ġbattery":4398,"Ġinvolves":4399,"Ġthro":4400,"rain":4401,"Use":4402,"Ġribbon":4403,"hest":4404,"Ġchosen":4405,"fol":4406,"Ġoffe":4407,"ĠSw":4408,"Ġtissue":4409,"Ġkinds":4410,"Ġox":4411,"Ġperman":4412,"Ġ25":4413,"land":4414,"Ġtown":4415,"Ġdriving":4416,"Ġsale":4417,"gers":4418,"Ġmixed":4419,"ĠForm":4420,"pir":4421,"Ġcommunication":4422,"ĠPokÃ©":4423,"onut":4424,"Ġrefrigerator":4425,"Ġcounsel":4426,"Ġhire":4427,"anted":4428,"Ġseeing":4429,"Ġsnow":4430,"Ġshade":4431,"ĠâĢĺ":4432,"Ġtheme":4433,"berries":4434,"Ġexcellent":4435,"Ġestate":4436,"itis":4437,"orce":4438,"Ġcrush":4439,"Ġpolice":4440,"zing":4441,"Ġsongs":4442,"Ġchat":4443,"ĠFocus":4444,"ĠRep":4445,"lished":4446,"Ġtall":4447,"Ġshopping":4448,"Ġhttp":4449,"cy":4450,"Ġeffectively":4451,"Ġgroc":4452,"Ġtempor":4453,"Ġlighter":4454,"ĠGod":4455,"rm":4456,"Ġdepartment":4457,"Ġcrack":4458,"Ġcable":4459,"Ġtrees":4460,"Ġhar":4461,"ĠJo":4462,"ĠPull":4463,"Ġalthough":4464,"pre":4465,"Ġdirections":4466,"no":4467,"Ġmanufacturer":4468,"asure":4469,"Ġmonthly":4470,"Ġtablespoons":4471,"Ġapproximately":4472,"kin":4473,"met":4474,"Ġoverw":4475,"Ġanger":4476,"ĠPart":4477,"Ġcurrently":4478,"Ġvia":4479,"ĠFin":4480,"Ġdepends":4481,"illa":4482,"ĠLike":4483,"Ġfriendly":4484,"lace":4485,"Ġtension":4486,"Ġyarn":4487,"Ġwaste":4488,"Ġresid":4489,"Ġuns":4490,"Ġshut":4491,"Ġmultip":4492,"ĠVis":4493,"gthen":4494,"Ġdrying":4495,"Ġnecessarily":4496,"Ġmagn":4497,"Ġballs":4498,"Ġwaiting":4499,"Ġsle":4500,"Ġdamp":4501,"Ġwild":4502,"ĠID":4503,"Ġpeel":4504,"agraph":4505,"ĠStud":4506,"Ġrecognize":4507,"Ġlibrary":4508,"Ġhorm":4509,"Ġpanel":4510,"rom":4511,"Ġpock":4512,"vest":4513,"Ġmoves":4514,"Ġlap":4515,"sequ":4516,"Ġhope":4517,"Ġbend":4518,"Ġtreatments":4519,"inc":4520,"Ġstructure":4521,"fast":4522,"Ġstrips":4523,"Ġprotection":4524,"she":4525,"Ġsmart":4526,"ĠType":4527,"Ġtouching":4528,"gment":4529,"Ġcommonly":4530,"Ġmirror":4531,"Ġchair":4532,"ĠInd":4533,"Ġflo":4534,"Ġfly":4535,"Ġhabits":4536,"Ġsmoke":4537,"Ġpregnancy":4538,"Ġstuck":4539,"Ġhorizont":4540,"lebr":4541,"Ġplug":4542,"place":4543,"Ġflash":4544,"ressed":4545,"Ġhomework":4546,"ina":4547,"Ġfederal":4548,"Ġdealing":4549,"Ġdetail":4550,"Ġrelig":4551,"Ġaffected":4552,"ĠAgain":4553,"Ġexperienced":4554,"Ġinner":4555,"Ġincluded":4556,"Ġtreated":4557,"Ġperhaps":4558,"Ch":4559,"ÂłÂł":4560,"Ġdishes":4561,"Ġ}":4562,"Ġthreat":4563,"list":4564,"uum":4565,"Ġtun":4566,"Ġhat":4567,"Ġcalling":4568,"Ġabuse":4569,"olute":4570,"Ġ{\\":4571,"ef":4572,"Ġplain":4573,"Ġbully":4574,"Ġacne":4575,"Ġhips":4576,"Ġstatements":4577,"Ġtoile":4578,"Ġmicrow":4579,"Ġfrost":4580,"Ġ90":4581,"rete":4582,"Ġdip":4583,"Ġfilled":4584,"Ġamong":4585,"Ġult":4586,"Ġlawsuit":4587,"Ġappointment":4588,"Ġkeeps":4589,"Ġcontr":4590,"bar":4591,"Ġsumm":4592,"bl":4593,"iful":4594,"Ġneighbor":4595,"Ġhighly":4596,"eled":4597,"What":4598,"Ġconflic":4599,"Ġdeveloping":4600,"Ġthroat":4601,"Ġproof":4602,"Ġvir":4603,"equ":4604,"oot":4605,"issors":4606,"Ġtablespoon":4607,"Ġpainting":4608,"Ġdirty":4609,"Ġrein":4610,"Ġmistakes":4611,"Ġshapes":4612,"ĠIns":4613,"onge":4614,"Ġtrigger":4615,"Ġshorter":4616,"ĠUnited":4617,"ĠAm":4618,"Ġrelaxed":4619,"Ġoutline":4620,"Ġquar":4621,"Ġregarding":4622,"OS":4623,"Ġconv":4624,"Ġperspect":4625,"ĠLay":4626,"igate":4627,"itionally":4628,"Ġelements":4629,"16":4630,"Ġstrain":4631,"Ġcord":4632,"Ġexposed":4633,"Keep":4634,"Ġdemon":4635,"Ġtoes":4636,"what":4637,"Ġsample":4638,"Ġtowels":4639,"ĠPokÃ©mon":4640,"ĠEd":4641,"Ġwond":4642,"Ġorganizations":4643,"Ġmessages":4644,"Ġaccurate":4645,"Ġargument":4646,"ĠAcc":4647,"Ġdigest":4648,"Ġmassage":4649,"Ġsymbol":4650,"Ġstronger":4651,"Ġprove":4652,"rical":4653,"Ġadults":4654,"Ġscar":4655,"Ġsib":4656,"amed":4657,"yond":4658,"Ġbask":4659,"Ġdriver":4660,"aise":4661,"Ġturns":4662,"antic":4663,"Ġslip":4664,"Ġforg":4665,"Ġcorners":4666,"Ġpolicy":4667,"Ġfiber":4668,"Ġbenefic":4669,"aks":4670,"aws":4671,"Ġstatus":4672,"Ġsupplements":4673,"Ġclients":4674,"Ġabsolute":4675,"Ġmid":4676,"pg":4677,"Ġride":4678,"Ġstyles":4679,"action":4680,"cious":4681,"icious":4682,"Ġhydr":4683,"Ġhousehold":4684,"Ġblend":4685,"Ġproceed":4686,"ctive":4687,"Ġanswers":4688,"ĠDraw":4689,"tail":4690,"Ġparagraph":4691,"Ġmanagement":4692,"Ġpurchased":4693,"Ġpron":4694,"Ġgraph":4695,"Ġrain":4696,"Ġopponent":4697,"Ġdifficulty":4698,"ga":4699,"Ġtruly":4700,"Ġdecrease":4701,"Ġgall":4702,"rol":4703,"Ġsea":4704,"ought":4705,"brush":4706,"Ġhamster":4707,"Ġ,,,,,":4708,"lines":4709,"Ġguit":4710,"Ġconduct":4711,"Ġearlier":4712,"Ġelb":4713,"Ġbun":4714,"Ġfert":4715,"Ġmagaz":4716,"Ġunable":4717,"mod":4718,"Ġgrains":4719,"Ġmanner":4720,"Ġhappened":4721,"ĠSoc":4722,"rase":4723,"Ġmovies":4724,"Ġboyfriend":4725,"ĠRed":4726,"Ġpotentially":4727,"eters":4728,"Ġmarriage":4729,"made":4730,"ĠCal":4731,"Ġresume":4732,"Ġwoman":4733,"ifying":4734,"Ġglasses":4735,"acement":4736,"Ġpackage":4737,"Ġincreases":4738,"Ġcasual":4739,"Ġfelt":4740,"itute":4741,"Ġfilm":4742,"Ġinstr":4743,"Ġchecking":4744,"amps":4745,"using":4746,"ĠRun":4747,"ician":4748,"Ġcandy":4749,"ĠShow":4750,"ĠWait":4751,"Ġovernight":4752,"Ġdamaged":4753,"ĠDec":4754,"Ġwound":4755,"andom":4756,"Ġunw":4757,"Ġfeeding":4758,"uth":4759,"Ġincreased":4760,"Ġyard":4761,"ĠMove":4762,"Ġkeyboard":4763,"uge":4764,"ext":4765,"Ġcarpet":4766,"Ġaid":4767,"Ġwooden":4768,"dden":4769,"Ġowners":4770,"gs":4771,"Ġpier":4772,"Ġindust":4773,"Ġintake":4774,"Ġclient":4775,"Ġlie":4776,"ĠStay":4777,"ĠStates":4778,"Ġreput":4779,"Ġindividuals":4780,"Ġwee":4781,"band":4782,"itting":4783,"Ġperfectly":4784,"Ġinflamm":4785,"overy":4786,"Ġ;":4787,"Ġgone":4788,"Ġaggress":4789,"Step":4790,"Ġoverwhel":4791,"uments":4792,"jpg":4793,"Ġouter":4794,"Ġdates":4795,"Ġclip":4796,"Ġcombine":4797,"Ġseries":4798,"change":4799,"Ġnoise":4800,"ius":4801,"airy":4802,"inting":4803,"mail":4804,"Ġblade":4805,"Ġcoconut":4806,"Ġvegetable":4807,"Ġnarrow":4808,"Ġforth":4809,"ption":4810,"Ġdecisions":4811,"Ġbike":4812,"ural":4813,"aked":4814,"Ġmode":4815,"Ġcelebr":4816,"Ġdepos":4817,"Ġcommunicate":4818,"Ġconsistent":4819,"Ġsudden":4820,"Ġheld":4821,"Ġleaf":4822,"Ġcapt":4823,"Ġraw":4824,"Ġpulling":4825,"gage":4826,"ĠOtherwise":4827,"Ġnearby":4828,"ĠQu":4829,"Ġfunny":4830,"Ġofficial":4831,"Ġguard":4832,"Ġton":4833,"ocking":4834,"unes":4835,"Ġstains":4836,"Ġselling":4837,"ĠRec":4838,"Ġapple":4839,"Ġtox":4840,"Ġbehaviors":4841,"Ġpossibly":4842,"Ġweap":4843,"ibilities":4844,"Ġtoy":4845,"Ġsweat":4846,"ĠGenerally":4847,"Ġtired":4848,"outs":4849,"Ġbone":4850,"Ġpressing":4851,"itate":4852,"Ġconcerns":4853,"Ġcast":4854,"100":4855,"Ġdim":4856,"SA":4857,"Ġaccomplish":4858,"Ġ16":4859,"Ġtoilet":4860,"Ġcontacts":4861,"Ġcere":4862,"ĠCover":4863,"Ġcookies":4864,"Ġrelieve":4865,"arsh":4866,"ded":4867,"Ġserver":4868,"Ġscissors":4869,"Ġvalu":4870,"cel":4871,"Ġtraffic":4872,"Ġcircumst":4873,"ching":4874,"Ġinfections":4875,"Ġscale":4876,"Ġhur":4877,"Ġperiods":4878,"Ġflav":4879,"Ġcru":4880,"Ġwake":4881,"off":4882,"Ġdisp":4883,"Ġsizes":4884,"ercial":4885,"Ġrights":4886,"14":4887,"ashing":4888,"Ġweeke":4889,"Ġdro":4890,"click":4891,"Ġphysically":4892,"Ġep":4893,"Ġdetailed":4894,"Ġexposure":4895,"ĠStore":4896,"Ġmeditation":4897,"Ġdivide":4898,"Ġtoothp":4899,"Ġvalid":4900,"Ġinvolve":4901,"Ġopinion":4902,"Ġconditioner":4903,"Ġpipe":4904,"Ġshoe":4905,"IN":4906,"Ġprimary":4907,"Ġdescription":4908,"Ġvent":4909,"Ġreceived":4910,"ĠApple":4911,"Ġmarks":4912,"Ġstories":4913,"Ġdram":4914,"Ġstaying":4915,"ersion":4916,"Ġstem":4917,"Ġteachers":4918,"vis":4919,"Ġsatisf":4920,"Ġbeautiful":4921,"Ġminimize":4922,"Ġfits":4923,"Ġpainful":4924,"ocal":4925,"Ġbroad":4926,"Ġsupplement":4927,"ĠSettings":4928,"Ġvict":4929,"Ġexpand":4930,"Ġmicrowave":4931,"Ġadminist":4932,"Ġdissol":4933,"otes":4934,"Ġsheets":4935,"ĠInclude":4936,"ĠDep":4937,"Ġcentim":4938,"ĠBoth":4939,"Ġnegot":4940,"ulations":4941,"ĠWatch":4942,"ĠOften":4943,"imal":4944,"Ġfocused":4945,"ux":4946,"Ġchips":4947,"Ġbuilt":4948,"Ġsponge":4949,"Ġbreakfast":4950,"ctors":4951,"Ġlitter":4952,"ĠGood":4953,"care":4954,"ras":4955,"Ġunivers":4956,"umin":4957,"Ġchart":4958,"Ġmeant":4959,"ĠLearn":4960,"Ġindex":4961,"Ġindepend":4962,"Ġrope":4963,"rogen":4964,"Ġextract":4965,"ĠCall":4966,"Ġsport":4967,"Ġunf":4968,"Ġnewspaper":4969,"Ġdiabet":4970,"Ġsession":4971,"Ġfrozen":4972,"Ġrich":4973,"Ġbite":4974,"Ġfollowed":4975,"Ġdebr":4976,"Ġboots":4977,"Ġmicro":4978,"Ġincreasing":4979,"Ġod":4980,"olor":4981,"Ġbuttons":4982,"Ġment":4983,"Ġvacuum":4984,"Ġtopics":4985,"esh":4986,"Ġenable":4987,"Ġinvent":4988,"Ġlocations":4989,"Ġflight":4990,"ĠSearch":4991,"Ġstudies":4992,"Ġdevelopment":4993,"Ġdivorce":4994,"Ġherbs":4995,"Ġ45":4996,"Ġholid":4997,"Ġtesting":4998,"Ġrhy":4999,"orking":5000,"phone":5001,"Ġyogurt":5002,"Ġguidel":5003,"taining":5004,"resp":5005,"Ġknowing":5006,"Ġexperiencing":5007,"ĠDoes":5008,"more":5009,"!\"":5010,"ĠCD":5011,"Ġfacts":5012,"Ġrod":5013,"Ġmaximum":5014,"Ġbringing":5015,"Ġpregnant":5016,"rup":5017,"Ġtoday":5018,"Ġswelling":5019,"Ġbeyond":5020,"amb":5021,"Ġhem":5022,"Ġfake":5023,"Ġchallenge":5024,"Ġgrocery":5025,"Ġerr":5026,"oub":5027,"Ġsto":5028,"Ġgradually":5029,"Ġdebris":5030,"Ġupload":5031,"ara":5032,"estyle":5033,"Ġcart":5034,"Ġsalad":5035,"Ġbreaks":5036,"Ġmatches":5037,"Ġfoam":5038,"Ġpurchasing":5039,"Ġtongue":5040,"Ġnav":5041,"Ġmobile":5042,"Ġwrist":5043,"Ġminor":5044,"Ġrestaurant":5045,"ĠPractice":5046,"Ġcardboard":5047,"ĠMan":5048,"Ġhospital":5049,"Ġpowerful":5050,"umes":5051,"Ġconcrete":5052,"Ġpurs":5053,"Ġillness":5054,"althy":5055,"Ġstone":5056,"Ġunit":5057,"Ġrepair":5058,"Ġfactor":5059,"ĠTherefore":5060,"Ġsnack":5061,"Ġguitar":5062,"Ġexperiment":5063,"Ġfreezer":5064,"which":5065,"reg":5066,"Ġscrap":5067,"Ġstove":5068,"Ġfemale":5069,"pically":5070,"Ġvertical":5071,"aker":5072,"Ġcourses":5073,"Ġalert":5074,"neys":5075,"nel":5076,"Ġassets":5077,"Ġprojects":5078,"Ġped":5079,"Ġscene":5080,"Ġgrain":5081,"ushed":5082,"Ġrough":5083,"Ġoccurs":5084,"Ġmouse":5085,"Ġpresence":5086,"hetic":5087,"Ġcleans":5088,"vey":5089,"Ġchanged":5090,"Ġproperties":5091,"Ġgrip":5092,"Ġindustry":5093,"Ġpositions":5094,"Ġmovements":5095,"Ġlosing":5096,"Ġinput":5097,"Ġhous":5098,"Ġgau":5099,"Ġabdom":5100,"Ġsaw":5101,"Ġreve":5102,"arth":5103,"ological":5104,"Ġmonitor":5105,"Ġvag":5106,"Ġintroduce":5107,"Ġbelt":5108,"Ġroughly":5109,"There":5110,"Ġhuge":5111,"Ġfeedback":5112,"Ġbleeding":5113,"Ġstrengthen":5114,"Ġinflu":5115,"Ġcomments":5116,"Ġscrews":5117,"Ex":5118,"ĠGently":5119,"Ġsurv":5120,"Ġbeneath":5121,"ew":5122,"Ġbill":5123,"Ġgum":5124,"Ġrates":5125,"Ġdur":5126,"Ġscent":5127,"Ġpose":5128,"Ġsharing":5129,"ĠBuy":5130,"Ġsystems":5131,"Ġromantic":5132,"Ġposts":5133,"Ġsnacks":5134,"Ġ&":5135,"nger":5136,"Ġdeterg":5137,"Ġperspective":5138,"Ġessay":5139,"Ġbasket":5140,"Ġ200":5141,"Ġscan":5142,"screen":5143,"Ġcircumstances":5144,"Ġfirmly":5145,"Ġcrow":5146,"chan":5147,"Ġsuitable":5148,"Tunes":5149,"Ġbreathe":5150,"Ġtrap":5151,"ache":5152,"orrow":5153,"uts":5154,"Ġcaught":5155,"Ġconcept":5156,"Ġturned":5157,"part":5158,"Ġtray":5159,"Ġoverl":5160,"onents":5161,"Ġleading":5162,"Ġexpert":5163,"Ġproduction":5164,"Ġtightly":5165,"Ġslices":5166,"rape":5167,"Ġdraft":5168,"Ġsunlight":5169,"Ġassistance":5170,"Ġmistake":5171,"know":5172,"Ġbol":5173,"Ġusual":5174,"ĠWash":5175,"Ġproviding":5176,"Ġblocks":5177,"gl":5178,"irect":5179,"Ġdefinitely":5180,"Ġcomment":5181,"Ġstead":5182,"adem":5183,"Ġsoot":5184,"Ġstream":5185,"Ġdarker":5186,"Ġreference":5187,"Ġcuts":5188,"Ġinflammation":5189,"Ġsurfaces":5190,"Ġcovers":5191,"Ġedit":5192,"Ġantibiot":5193,"Ġregister":5194,"ec":5195,"zy":5196,"Ġrecent":5197,"Ġequation":5198,"ĠAtt":5199,"ĠStand":5200,"arrass":5201,"Ġbucket":5202,"Ġstation":5203,"Ġstitches":5204,"Ġpepp":5205,"Ġhyp":5206,"weight":5207,"Ġcertificate":5208,"Ġacting":5209,"ffeine":5210,"Ġchann":5211,"ĠĠĠĠĠ":5212,"Ġpred":5213,"Ġrubbing":5214,"Ġdryer":5215,"Ġtriangle":5216,"Ġshake":5217,"Ġflip":5218,"inated":5219,"Ġcore":5220,"Ġprices":5221,"wood":5222,"Ġdescribe":5223,"Ġkept":5224,"ulting":5225,"Ġsyrup":5226,"Ġexpected":5227,"but":5228,"li":5229,"Ġplat":5230,"Ġ14":5231,"Ġstudying":5232,"ops":5233,"Ġord":5234,"Ġruns":5235,"amples":5236,"Ġembarrass":5237,"Ġsoup":5238,"Ġclosely":5239,"apter":5240,"Ġclock":5241,"Ġdent":5242,"Ġdelete":5243,"Ġvacc":5244,"onds":5245,"ried":5246,"ino":5247,"Ġdesire":5248,"Ġdialog":5249,"ĠTwitter":5250,"âĢĿ.":5251,"Ġdefendant":5252,"Ġsticking":5253,"Ġdetect":5254,"Ġassume":5255,"Ġbelief":5256,"Ġsimpl":5257,"ai":5258,"ĠiTunes":5259,"Ġsilver":5260,"Ġinsect":5261,"Rem":5262,"Sh":5263,"Ġacqu":5264,"Ġentirely":5265,"Ġpins":5266,"dle":5267,"Ġvaluable":5268,"Ġconce":5269,"Ġcroc":5270,"Ġevening":5271,"Ġhip":5272,"Ġfocusing":5273,"amins":5274,"hem":5275,"Ġtransport":5276,"Ġcounselor":5277,"Ġprofession":5278,"Ġinject":5279,"ushes":5280,"Ġcounty":5281,"inations":5282,"Ġmemor":5283,"ship":5284,"Ġcircular":5285,"Ġrandom":5286,"Ġmale":5287,"Ġsticks":5288,"Ġinvestment":5289,"Ġhom":5290,"Ġsafely":5291,"ĠFold":5292,"Ġstressed":5293,"ios":5294,"Ġannoy":5295,"Ġcheek":5296,"Ġpillow":5297,"ky":5298,"Ġplus":5299,"Ġlifestyle":5300,"Version":5301,"Ġcontainers":5302,"}{":5303,"Ġhumid":5304,"uries":5305,"press":5306,"Ġheard":5307,"Ġbusinesses":5308,"Ġcombined":5309,"Ġpromote":5310,"Ġswimming":5311,"Ġalign":5312,"ĠClean":5313,"uted":5314,"Ġestablish":5315,"Ġcommercial":5316,"Ġadequ":5317,"Ġfiled":5318,"Ġurine":5319,"ossible":5320,"lings":5321,"asant":5322,"afe":5323,"Ġpounds":5324,"Ġeveryday":5325,"Ġpure":5326,"Ġgrams":5327,"mas":5328,"Ġrestrict":5329,"Ġeliminate":5330,"ĠHome":5331,"Ġclassic":5332,"Ġfalling":5333,"lder":5334,"Ġmanual":5335,"Ġank":5336,"Ġteaching":5337,"Ġburning":5338,"Ġfacial":5339,");":5340,"idden":5341,"Ġheal":5342,"istics":5343,"Ġarrow":5344,"Ġlocate":5345,"Ġgroom":5346,"ĠOver":5347,"Ġhardware":5348,"aming":5349,"reens":5350,"ality":5351,"Ġmal":5352,"Ġlung":5353,"Ġfrustr":5354,"Ġvictim":5355,"iders":5356,"Ġsight":5357,"oom":5358,"Ġbreaking":5359,"Ġcub":5360,"Ġaggressive":5361,"Ġwanted":5362,"Ġtal":5363,"ĠCare":5364,"Ġrack":5365,"Ġdeck":5366,"Ġdoors":5367,"Ġliter":5368,"ĠChild":5369,"Ġvan":5370,"Ġlicens":5371,"aintiff":5372,"Ġaspects":5373,"stall":5374,"Ġworked":5375,"ĠDes":5376,"Ġ11":5377,"Ġpartners":5378,"Ġyounger":5379,"ĠComm":5380,"Ġcris":5381,"Ġorganic":5382,"ĠGetting":5383,"ifts":5384,"opy":5385,"Ġclay":5386,"Ġapplications":5387,"Ġtempl":5388,"arant":5389,"Ġcircles":5390,"Ġhealing":5391,"Ġrag":5392,"Ġcandid":5393,"icro":5394,"Ġtough":5395,"Cl":5396,"Ġtut":5397,"phas":5398,"ensity":5399,"Ġchunk":5400,"ĠWater":5401,"ĠDown":5402,"Ġinstallation":5403,"Ġpolit":5404,"anging":5405,"Ġcalend":5406,"Ġdairy":5407,"Ġdiscount":5408,"Ġprescription":5409,"Ġcovering":5410,"Ġoperating":5411,"iveness":5412,"Ġdiscussion":5413,"ĠCar":5414,"Ġintense":5415,"Ġmechan":5416,"lord":5417,"Ġcars":5418,"Ġreject":5419,"Ġasks":5420,"Ġretail":5421,"Ġsore":5422,"ĠUsually":5423,"Ġrap":5424,"cium":5425,"Ġskirt":5426,"Ġpermanent":5427,"Ġshy":5428,"Ġfarm":5429,"Ġdev":5430,"Ġcompliment":5431,"Ġlat":5432,"Ġclin":5433,"ĠPlan":5434,"oph":5435,"Ġgrade":5436,"Ġsuccessfully":5437,"door":5438,"ading":5439,"uine":5440,"ĠSn":5441,"80":5442,"Ġcolour":5443,"Ġpracticing":5444,"Add":5445,"lor":5446,"Ġsplit":5447,"Ġdifferently":5448,"org":5449,"Ġboiling":5450,"Ġworried":5451,".,,":5452,"cloth":5453,"Ġacknow":5454,"Ġmarketing":5455,"ĠCent":5456,"Ġarrive":5457,"Ġphrase":5458,"pare":5459,"Ġspaces":5460,"Ġspirit":5461,"na":5462,"Ġoffering":5463,"aser":5464,"Ġcontribute":5465,"Ġattractive":5466,"Ġsigned":5467,"Ġresponsibility":5468,"Ġconsequ":5469,"Ġscalp":5470,"kward":5471,"Ġrolling":5472,"ensions":5473,"Ġvolunteer":5474,"awn":5475,"Ġguidelines":5476,"ĠMore":5477,"Ġbands":5478,"Ġcompare":5479,"Ġfund":5480,"bohydr":5481,"ĠContact":5482,"Ġsomewhat":5483,"Ġdehydr":5484,"Ġexplore":5485,"Ġcute":5486,"ifications":5487,"Ġsessions":5488,"coming":5489,"Ġfoil":5490,"Ġelev":5491,"Ġstored":5492,"Ġtodd":5493,"omfort":5494,"lig":5495,"Ġcough":5496,"Ġdisplayed":5497,"Ġconversations":5498,"Ġsqueeze":5499,"inct":5500,"Ġrecover":5501,"Ġsearching":5502,"Ġcreates":5503,"Ġlying":5504,"Ġhighest":5505,"Ġpicking":5506,"Ġdiabetes":5507,"Ġsmoking":5508,"Ġrose":5509,"uation":5510,"Ġdiscomfort":5511,"Ġster":5512,"Ġconven":5513,"ibr":5514,"my":5515,"vents":5516,"Ġexpectations":5517,"Ġtrade":5518,"Ġblanket":5519,"Ġmanager":5520,"Ġaccommod":5521,"Ġdesktop":5522,"Ġabsolutely":5523,"Ġink":5524,"Ġsem":5525,"even":5526,"Ġthank":5527,"rooms":5528,"Ġbirds":5529,"Ġfork":5530,"ulating":5531,"Ġtiny":5532,"Ġcrim":5533,"Ġseven":5534,"Ġsecret":5535,"Ġhorizontal":5536,"Ġinvite":5537,"oe":5538,"Ġtends":5539,"umber":5540,"gy":5541,"Ġrev":5542,"Ġpit":5543,"zzle":5544,"lets":5545,"Ġhairs":5546,"Ġcritic":5547,"aund":5548,"Ġtast":5549,"Ġsubs":5550,"Ġdetergent":5551,"ĠGl":5552,"Ġbars":5553,"rest":5554,"Ġ13":5555,"Ġbeach":5556,"Ġawkward":5557,"Ġsne":5558,"Ġunlike":5559,"13":5560,"ĠPC":5561,"Ġappeal":5562,"Ġlandlord":5563,"elp":5564,"Ġkeys":5565,"Ġextend":5566,"oke":5567,"Ġjacket":5568,"utes":5569,"Ġarticles":5570,"Ġsending":5571,"ĠTrans":5572,"Ġprovider":5573,"Ġobst":5574,"Ġbac":5575,"adder":5576,"sized":5577,"Ġsor":5578,"Ġvom":5579,"hesive":5580,"Ġhyd":5581,"Ġfever":5582,"Ġseriously":5583,"Ġculture":5584,"Ġhaz":5585,"Ġlabeled":5586,"Ġfertil":5587,"Ġselecting":5588,"Ġthigh":5589,"Ġsuspect":5590,"Ġreasonable":5591,"Ġirritation":5592,"lfr":5593,"Ġdie":5594,"Ġdrill":5595,"ĠAndroid":5596,"Ġleads":5597,"Ġimmune":5598,"ĠChristmas":5599,"Ġrace":5600,"hn":5601,"Ġvitamins":5602,"Ġtou":5603,"Ġtaxes":5604,"Ġenemy":5605,"Ġdoub":5606,"Ġsolve":5607,"Ġaudio":5608,"Ġbeneficial":5609,"hea":5610,"Ġmelt":5611,"Ġmasc":5612,"Ġtrash":5613,"ĠHigh":5614,"ĠOf":5615,"Ġentry":5616,"Ġpassion":5617,"Ġbeef":5618,"Ġacceptable":5619,"ici":5620,"17":5621,"Ġgrill":5622,"Ġblind":5623,"ieving":5624,"Ġoxy":5625,"Ġcountries":5626,"Ġconflict":5627,"Ġconcerned":5628,"cour":5629,"Ġslee":5630,"Tube":5631,"Ġspecies":5632,"Ġplaintiff":5633,"Ġshelter":5634,"Ġbare":5635,"Ġtraveling":5636,"Ġgoods":5637,"Ġchew":5638,"ĠBegin":5639,"Ġtruth":5640,"Ġlists":5641,"Ġsteel":5642,"tered":5643,"Ġtells":5644,"Ġcontroll":5645,"Ġrelaxing":5646,"Ġpalm":5647,"bies":5648,"Ġphotograph":5649,"Ġboot":5650,"Ġaccessories":5651,"Ġshr":5652,"Ġtransl":5653,"ounces":5654,"Ġrealistic":5655,"Ġgray":5656,"Ġcowork":5657,"Ġunsure":5658,"icip":5659,"Ġfrag":5660,"usive":5661,"Ġmostly":5662,"Ġvision":5663,"Ġdeeper":5664,"Ġmaster":5665,"Ġbrace":5666,"Ġjudgment":5667,"Ġprem":5668,"Ġsubt":5669,"etch":5670,"Ġroof":5671,"Ġneat":5672,"Ġmissing":5673,"Ġloosen":5674,"Ġheels":5675,"Ġonion":5676,"water":5677,"Ġworn":5678,"ologist":5679,"gov":5680,"Ġcabin":5681,"Ġven":5682,"ĠInsert":5683,"Ġarch":5684,"Ġmath":5685,"Ġemployment":5686,"Ġreviews":5687,"ĠDV":5688,"Ġluck":5689,"ovel":5690,"Ġcaffeine":5691,"Ġunne":5692,"Ġnap":5693,"ometer":5694,"Ġreducing":5695,"Ġconsistency":5696,"bage":5697,"Ġlaptop":5698,"ĠDisc":5699,"Ġchopped":5700,"Ġmeasurement":5701,"--------":5702,"Ġguarant":5703,"Ġclaims":5704,"Ġpony":5705,"Ġmortgage":5706,"ias":5707,"Ġenh":5708,"ĠSocial":5709,"ĠFire":5710,"soft":5711,"Ġprone":5712,"inter":5713,"Ġdil":5714,"Ġprocessed":5715,"Ġupdate":5716,"Ġlinks":5717,"inating":5718,"iber":5719,"Ġsaved":5720,"ulf":5721,"Ġasleep":5722,"amine":5723,"Ġhal":5724,"Ġseam":5725,"Ġelement":5726,"App":5727,"Ġhung":5728,"Ġharmful":5729,"Ġsewing":5730,"ĠYouTube":5731,"Ġcoverage":5732,"Ġmodels":5733,"Ġclar":5734,"Ġtemporary":5735,"Ġtherefore":5736,"Ġfats":5737,"left":5738,"iat":5739,"Ġconsume":5740,"ĠState":5741,"Ġpetition":5742,"ipper":5743,"Ġcarbohydr":5744,"Ġboundaries":5745,"Ġodd":5746,"Ġcame":5747,"Ġscen":5748,"Ġsteady":5749,"orders":5750,"Ġimpossible":5751,"Ġsew":5752,"Ġslice":5753,"ev":5754,"Ġelig":5755,"Ġcookie":5756,"Ġkitten":5757,"ĠUSB":5758,"itary":5759,"Ġcertified":5760,"ĠTypically":5761,"Ġmedicine":5762,"Ġmut":5763,"An":5764,"Ġgrand":5765,"ĠInt":5766,"Ġlearned":5767,"Ġdepth":5768,"ocate":5769,"Ġeyebr":5770,"Ġ>":5771,"berry":5772,"Ġcalculate":5773,"Ġdra":5774,"Ġhop":5775,"Ġrecovery":5776,"Ġwarr":5777,"Ġelectrical":5778,"Ġvacation":5779,"Ġhappening":5780,"point":5781,"Ġsignal":5782,"ĠKeeping":5783,"Ġliver":5784,"ername":5785,"ĠNet":5786,"lim":5787,"Ġbraid":5788,"poses":5789,"ĠAct":5790,"Ġsufficient":5791,"Ġdivid":5792,"ugs":5793,"Ġselection":5794,"doors":5795,"Ġoccasionally":5796,"Ġwires":5797,"Ġcorresp":5798,"Ġorganized":5799,"ĠUp":5800,"ĠRinse":5801,"Ġpromot":5802,"500":5803,"Ġdigital":5804,"Ġhandling":5805,"ĠIR":5806,"Ġoffered":5807,"bed":5808,"spe":5809,"Ġpeace":5810,"raphy":5811,"Ġsuggestions":5812,"Ġinternal":5813,"Ġtour":5814,"Ġsocks":5815,"Ġlighting":5816,"draw":5817,"Ġtelevision":5818,"Ġmoments":5819,"Ġinjuries":5820,"Ġtreating":5821,"Ġpatients":5822,"Ġtemperatures":5823,"Ġreaders":5824,"Ġopinions":5825,"Ġdating":5826,"Ġignore":5827,"charge":5828,"_{":5829,"ander":5830,"Ġtack":5831,"Ġbold":5832,"Ġcategory":5833,"Ġweigh":5834,"Ġcalcium":5835,"Ġradio":5836,"ado":5837,"quar":5838,"ĠOpt":5839,"Ġpermission":5840,"Ġreceiving":5841,"Ġbored":5842,"onsider":5843,"anges":5844,"Ġplatform":5845,"Ġmini":5846,"Ġloans":5847,"Ġsaucepan":5848,"osition":5849,"sters":5850,"Ġexchange":5851,"lfriend":5852,"Ġgender":5853,"iking":5854,"inea":5855,"Ġpocket":5856,"ĠProv":5857,"Avoid":5858,"Ġrecipes":5859,"Ġsubstitute":5860,"Ġbirthday":5861,"case":5862,"Ġtender":5863,"Ġpean":5864,"Ġpasta":5865,"PA":5866,"Ġdeliver":5867,"Ġapples":5868,"oxide":5869,"Ġshift":5870,"Ġpitch":5871,"Ġwip":5872,"Ġfuel":5873,"kn":5874,"Ġhandy":5875,"Ġgenuine":5876,"Ġpunch":5877,"Ġdemand":5878,"Ġentering":5879,"ĠCo":5880,"Ġweekly":5881,"Ġquarter":5882,"}}}":5883,"Ġmeasuring":5884,"icide":5885,"Ġvisiting":5886,"Ġretain":5887,"Ġanxious":5888,"Ġunnecess":5889,"Ġdesigns":5890,"Ġoutdoors":5891,"Ġstiff":5892,"Ġswing":5893,"Ġ<":5894,"Ġspell":5895,"ĠStick":5896,"Ġguinea":5897,"Ġaccidentally":5898,"Ġoxygen":5899,"Ġboards":5900,"Ġmotor":5901,"Ġspent":5902,"ĠBlack":5903,"proof":5904,"Ġcontaining":5905,"Ġcheaper":5906,"Ġoral":5907,"Ġadvanced":5908,"ĠUnless":5909,"Ġbelly":5910,"Ġast":5911,"angles":5912,"Ġwouldn":5913,"Ġguys":5914,"Ġofficer":5915,"Ġcalendar":5916,"ĠTaking":5917,"Ġshots":5918,"allel":5919,"Ġbrushing":5920,"cast":5921,"Ġalm":5922,"Ġcin":5923,"ĠMo":5924,"Ġpurposes":5925,"Ġescape":5926,"face":5927,"orie":5928,"Ġfailure":5929,"ini":5930,"Ġpoly":5931,"Ġprofessionals":5932,"Ġens":5933,"ĠAb":5934,"ĠGu":5935,"Ġpresentation":5936,"Ġserved":5937,"Ġinjured":5938,"Ġattitude":5939,"Ġpurple":5940,"Ġpatch":5941,"Ġsignificantly":5942,"RL":5943,"paper":5944,"Ġbother":5945,"ĠMy":5946,"Ġtold":5947,"Ġemphas":5948,"igs":5949,"Ġbones":5950,"Ġstressful":5951,"Ġspark":5952,"ĠRet":5953,"Ġcollar":5954,"aped":5955,"Ġsuffer":5956,"strate":5957,"Ġpray":5958,"Ġlimits":5959,"Ġseller":5960,"Ġcontents":5961,"Ġrecording":5962,"Ġceiling":5963,"sor":5964,"ĠOut":5965,"Ġimagine":5966,"lined":5967,"Ġtops":5968,"Ġsentences":5969,"Ġtherm":5970,"Ġelastic":5971,"Ġcomplicated":5972,"ogs":5973,"ĠSub":5974,"Ġagencies":5975,"Ġcollection":5976,"Ġresistance":5977,"Ġbod":5978,"Ġbills":5979,"Ġvari":5980,"ĠPerhaps":5981,"Ġpercentage":5982,"Ġstrategy":5983,"tend":5984,"Ġlaund":5985,"Ġscreens":5986,"Ġpads":5987,"Ġstruggling":5988,"etic":5989,"Ġpile":5990,"Ġ#":5991,"Ġconnections":5992,"Ġintell":5993,"Ġsandw":5994,"Ġpace":5995,"ĠSu":5996,"Ġrise":5997,"Ġsug":5998,"Ġunhe":5999,"Ġstur":6000,"____":6001,"arrhea":6002,"Ġsticky":6003,"riting":6004,"Ġextended":6005,"Ġthicker":6006,"ĠVisit":6007,"75":6008,"ĠAut":6009,"wear":6010,"Ġmoisturizer":6011,"Ġnumer":6012,"asy":6013,"Ġweekend":6014,"Ġhose":6015,"ĠResearch":6016,"Ġhumor":6017,"Ġhttps":6018,"Ġemails":6019,"Ġpotato":6020,"Ġtrained":6021,"Ġbake":6022,"Ġdeeply":6023,"Ġtoothbrush":6024,"Ġsyn":6025,"agram":6026,"Ġphr":6027,"see":6028,"ĠRight":6029,"Ġphysician":6030,"ĠPhot":6031,"Ġpushing":6032,"fish":6033,"ĠEither":6034,"ĠRub":6035,"Ġwonder":6036,"Ġdy":6037,"related":6038,"Ġounces":6039,"Ġbottles":6040,"Ġben":6041,"Ġbalanced":6042,"Ġfunds":6043,"Ġrisks":6044,"ĠCook":6045,"rought":6046,"Ġbedroom":6047,"Ġparallel":6048,"Ġbrands":6049,"ĠSave":6050,"Ġhealthier":6051,"Ġboat":6052,"uous":6053,"Ġdressing":6054,"ruit":6055,"abor":6056,"ĠWord":6057,"Ġdut":6058,"iform":6059,"Ġrooms":6060,"Ġsurrounding":6061,"aration":6062,"Ġlabor":6063,"Ġbeauty":6064,"Ġginger":6065,"ĠDet":6066,"Ġcoord":6067,"Ġpapers":6068,"Ġrecently":6069,"Ġtrail":6070,"ĠWhatever":6071,"Ġtypical":6072,"Ġcoloring":6073,"mble":6074,"ĠNational":6075,"Ġhidden":6076,"undred":6077,"Ġcentimeters":6078,"Ġvanilla":6079,"Ġhunt":6080,"Ġconstant":6081,"apt":6082,"Ġpul":6083,"asses":6084,"Ġadhesive":6085,"ĠMaking":6086,"Ġmush":6087,"Ġjoints":6088,"math":6089,"col":6090,"Ġdispos":6091,"Ġqualify":6092,"mates":6093,"Ġbeer":6094,"Ġrelief":6095,"Ġanaly":6096,"Ġalt":6097,"Ġdefense":6098,"anches":6099,"going":6100,"Ġoutdoor":6101,"with":6102,"Ġstroke":6103,"ications":6104,"Ġexcessive":6105,"Ġtan":6106,"Ġintend":6107,"ros":6108,"Ġflexible":6109,"Ġpronoun":6110,"craft":6111,"Ġincorporate":6112,"ĠIde":6113,"Ġgirlfriend":6114,"Ġgolden":6115,"Ġhappiness":6116,"Ġmeasurements":6117,"heit":6118,"Ġreaches":6119,"Ġsolutions":6120,"Ġfrequent":6121,"Ġ\\":6122,"Ġstreet":6123,"Ġbon":6124,"pack":6125,"Ġlaunch":6126,"Ġneighborhood":6127,"ta":6128,"ĠWill":6129,"Ġimpression":6130,"Ġpizz":6131,"ausea":6132,"Ġversions":6133,"ormal":6134,"Ġglitter":6135,"Ġrely":6136,"Ġchronic":6137,"ĠWrap":6138,"Ġlets":6139,"Ġmelted":6140,"Ġslight":6141,"Ġtoxic":6142,"Ġremed":6143,"Ġhiring":6144,"namon":6145,"ley":6146,"iche":6147,"renheit":6148,"ahrenheit":6149,"Ġtransition":6150,"Ġpreviously":6151,"Ġsignature":6152,"Ġwhisk":6153,"oli":6154,"Ġpinch":6155,"ml":6156,"Ġaer":6157,"Ġbought":6158,"Ġscience":6159,"Ġbent":6160,"Ġshades":6161,"ilies":6162,"Ġclosing":6163,"Ġcorpor":6164,"Ġfridge":6165,"Ġroute":6166,"heat":6167,"ĠFrench":6168,"Ġacadem":6169,"Ġcomprom":6170,"Ġstems":6171,"Ġchin":6172,"Ġbrow":6173,"Ġinfected":6174,"Ġfewer":6175,"person":6176,"Ġcritical":6177,"Ġprinter":6178,"Ġoverly":6179,"Ġpu":6180,"Ġmg":6181,"Ġdestro":6182,"aired":6183,"Ġath":6184,"Ġfolded":6185,"Ġprevents":6186,"ID":6187,"ĠSte":6188,"ĠListen":6189,"Ġcope":6190,"Ġavoiding":6191,"ystem":6192,"ĠBo":6193,"Ġspat":6194,"ept":6195,"des":6196,"Ġeyeliner":6197,"iki":6198,"ĠFahrenheit":6199,"Ġtear":6200,"ternal":6201,"Ġfitness":6202,"Ġmoderate":6203,"Ġemp":6204,"Ġpharm":6205,"Ġcrochet":6206,"Ġconsidering":6207,"Ġblender":6208,"Ġmodern":6209,"bell":6210,"ysis":6211,"Ġshared":6212,"Ġinstrument":6213,"Ġpraise":6214,"ĠÂ¼":6215,"worm":6216,"Ġlaundry":6217,"illy":6218,"Ġimpress":6219,"Ġdeli":6220,"Ġidentity":6221,"Ġcardio":6222,"ĠEdit":6223,"Ġconsequences":6224,"born":6225,"ĠEnsure":6226,"Ġ,,,,,,,":6227,"ĠDVD":6228,"ER":6229,"Ġusername":6230,"Ġbes":6231,"Ġalarm":6232,"Ġthus":6233,"Ġpoem":6234,"Ġpassed":6235,"cip":6236,"Ġstrings":6237,"dered":6238,"Ġfields":6239,"Ġreactions":6240,"mo":6241,"Ġdisable":6242,"Ġmature":6243,"ĠCr":6244,"Ġcleaned":6245,"agers":6246,"PS":6247,"Ġparticipate":6248,"Ġmaintaining":6249,"aler":6250,"Ġregardless":6251,"Ġestablished":6252,"Ġmer":6253,"Ġpreferred":6254,"ĠMeasure":6255,"Ġfollows":6256,"Ġpale":6257,"orses":6258,"Ġquant":6259,"Ġrepeated":6260,"ĠDif":6261,"Ġvul":6262,"Ġgloss":6263,"lear":6264,"cons":6265,"inant":6266,"uce":6267,"Ġalb":6268,"Ġindicates":6269,"mate":6270,"Ġwent":6271,"Ġbreaths":6272,"Ġcertification":6273,"Ġacids":6274,"Ġfrosting":6275,"alse":6276,"ements":6277,"Ġpointing":6278,"Ġintended":6279,"Ġhundred":6280,"ĠAssoci":6281,"aze":6282,"ograph":6283,"Ġdiagnosis":6284,"Ġindependent":6285,"Ġber":6286,"Ġlipstick":6287,"Ġdestination":6288,"long":6289,"Ġcurls":6290,"fortun":6291,"Ġstirring":6292,"Ġhomes":6293,"AT":6294,"meal":6295,"ĠSecurity":6296,"ĠMicro":6297,"Ġdose":6298,"Ġunits":6299,"Ġsavings":6300,"ĠFeel":6301,"Ġinterrupt":6302,"ĠChildren":6303,"ĠSign":6304,"Ġsorry":6305,"ieved":6306,"Ġcoach":6307,"Ġtook":6308,"Ġgreens":6309,"apy":6310,"Ġcloud":6311,"ĠOK":6312,"ieties":6313,"icies":6314,"Ġbranches":6315,"Ġchallenging":6316,"ĠSmall":6317,"Ġonions":6318,"Ġoptional":6319,"Ġapproved":6320,"Ġdiseases":6321,"uminum":6322,"omb":6323,"Ġrapid":6324,"kew":6325,"Ġwhom":6326,"ustom":6327,"unction":6328,"Ġprompted":6329,"Ġcoo":6330,"Ġtapping":6331,"Ġexercising":6332,"arnish":6333,"Ġbabies":6334,"Ġfighting":6335,"appe":6336,"tenance":6337,"ilize":6338,"Ġspine":6339,"Ġpolite":6340,"net":6341,"Ġappet":6342,"ĠComb":6343,"Ġcock":6344,"Ġgest":6345,"Ġcrate":6346,"ĠAdditionally":6347,"Ġvital":6348,"aith":6349,"Ġposture":6350,"Ġoblig":6351,"Ġqualities":6352,"ivil":6353,"Ġbedding":6354,"Ġstable":6355,"ĠColl":6356,"Ġreduced":6357,"Ġdollars":6358,"Ġinventory":6359,"Ġratio":6360,"Ġpossibility":6361,"ĠEat":6362,"igation":6363,"Ġacts":6364,"OT":6365,"ferent":6366,"Ġtomatoes":6367,"lease":6368,"Ġseeking":6369,"45":6370,"Ġharsh":6371,"Ġshadow":6372,"However":6373,"Ġphrases":6374,"orld":6375,"Ġcompost":6376,"Ġrelative":6377,"Ġadvis":6378,"Ġstruct":6379,"Ġcarrier":6380,"ĠEveryone":6381,"isher":6382,"ints":6383,"ĠAss":6384,"Ġtoss":6385,"Ġsuffering":6386,"Ġstones":6387,"Ġodor":6388,"Ġexfol":6389,"lay":6390,"Ġdemonstrate":6391,"Ġwithdraw":6392,"ĠChange":6393,"rome":6394,"Ġheel":6395,"Ġlabels":6396,"Start":6397,"gi":6398,"Ġdiarrhea":6399,"Ġrectangle":6400,"Ġunnecessary":6401,"Ġfulf":6402,"Ġintim":6403,"Ġadequate":6404,"Ġavoc":6405,"Ġresidue":6406,"Ġtoddler":6407,"Ġpuppies":6408,"aud":6409,"parent":6410,"Ġheating":6411,"Ġcomponents":6412,"cont":6413,"Ġengaging":6414,"Ġhobby":6415,"Ġcategories":6416,"Ġlawn":6417,"Ġintegr":6418,"Ġalter":6419,"Ġcurl":6420,"Ġcomputers":6421,"ĠNotice":6422,"Ġsodium":6423,"Ġwheat":6424,"Ġrelaxation":6425,"Ġcarbohydrates":6426,"Ġwitness":6427,"itamin":6428,"Ġfixed":6429,"gu":6430,"Ġchord":6431,"Ask":6432,"Ġprofit":6433,"Ġelectronic":6434,"iments":6435,"Ġplayed":6436,"Ġprocessor":6437,"rance":6438,"azing":6439,"Ġtuck":6440,"ero":6441,"Ġorganize":6442,"Ġhyper":6443,"Ġdecided":6444,"Ġexcited":6445,"ĠpH":6446,"Ġinsp":6447,"Ġdetermined":6448,"Ġshirts":6449,"Ġpolicies":6450,"Ġflag":6451,"eem":6452,"Ġextension":6453,"Ġexit":6454,"Ġforeign":6455,"De":6456,"ether":6457,"Ġabilities":6458,"Ġprocedures":6459,"Ġ80":6460,"Ġshops":6461,"Ġrude":6462,"Ġcompleting":6463,"Ġcarrots":6464,"Ġentertain":6465,"dent":6466,"ester":6467,"Ġprinted":6468,"Ġworst":6469,"Ġcourts":6470,"Ġplease":6471,"Ġsusp":6472,"ĠFood":6473,"Ġdisag":6474,"Ġnearly":6475,"Ġspatula":6476,"Ġdancing":6477,"ĠMus":6478,"ĠDecide":6479,"oids":6480,"Ġadvertising":6481,"eting":6482,"Ġcharges":6483,"Ġprescribe":6484,"Ġcorrespond":6485,"Ġpreparing":6486,"Ġfatty":6487,"ĠStr":6488,"200":6489,"Ġartist":6490,"Ġallergic":6491,"vings":6492,"while":6493,"Ġcitiz":6494,"Ġcrucial":6495,"Ġchannel":6496,"Ġsoy":6497,"Ġcompens":6498,"ĠDepartment":6499,"Ġpine":6500,"Ġraised":6501,"counter":6502,"Ġmascara":6503,"Ġcinnamon":6504,"Ġbear":6505,"acity":6506,"Ġperforming":6507,"Ġcapital":6508,"Ġbubbles":6509,"iating":6510,"Ġbelong":6511,"Ġregistered":6512,"Ġdatab":6513,"Ġjumping":6514,"Ġlease":6515,"Ġresolve":6516,"akers":6517,"Ġpossess":6518,"Ġmarker":6519,"Ġstack":6520,"Ġverify":6521,"Ġsole":6522,"Ġretire":6523,"ĠExper":6524,"Ġrecommendations":6525,"Ġerrors":6526,"Ġattacks":6527,"These":6528,"state":6529,"Ġshock":6530,"estic":6531,"Ġkidney":6532,"ĠiPod":6533,"Ġdispute":6534,"Ġwool":6535,"oses":6536,"Ġattorneys":6537,"Ġtickets":6538,"Ġsatisfied":6539,"Ġponytail":6540,"Ġzone":6541,"eline":6542,"Ġspices":6543,"Ġuniform":6544,"attoo":6545,"tress":6546,"Ġregion":6547,"ĠAD":6548,"Ġpoison":6549,"Ġpizza":6550,"Ġbrought":6551,"Ġcontrast":6552,"ype":6553,"Ġlens":6554,"Ġstops":6555,"Ġfalls":6556,"Ġholiday":6557,"Ġcig":6558,"Ġrows":6559,"Ġjell":6560,"Ġfer":6561,"Ġremains":6562,"Ġsibling":6563,"Ġdelivery":6564,"Ġgrades":6565,"Ġhiding":6566,"ĠPower":6567,"Ġunus":6568,"Ġremoval":6569,"ĠRest":6570,"Ġflavors":6571,"ds":6572,"Ġdiscover":6573,"usiness":6574,"Ġthrowing":6575,"Ġunhealthy":6576,"shaped":6577,"Ġwitnesses":6578,"Ġsturdy":6579,"Ġstretching":6580,"Ġrust":6581,"ĠSit":6582,"Ġsoci":6583,"Ġstrike":6584,"Ġresponsibilities":6585,"Ġencounter":6586,"âĢĿ,":6587,"Ġfatig":6588,"Ġstrands":6589,"Ġreligious":6590,"Ġcriminal":6591,"Ġsan":6592,"ilit":6593,"Ġpermit":6594,"Ġnotebook":6595,"omen":6596,"seling":6597,"Ġgifts":6598,"ĠMar":6599,"Ġlifting":6600,"Ġprecise":6601,"Ġingredient":6602,"ĠIdeally":6603,"ĠAnt":6604,"Ġnoticed":6605,"ĠMark":6606,"Ġlogo":6607,"aust":6608,"Ġprotective":6609,"Ġwider":6610,"Ġlender":6611,"Ġprivacy":6612,",,,":6613,"Ġgrease":6614,"Ġfif":6615,"Ġstays":6616,"Ġhotel":6617,"ĠRather":6618,"ĠWi":6619,"ĠRel":6620,"ulator":6621,"omy":6622,"Ġworkplace":6623,"Ġrings":6624,"Ġscroll":6625,"Ġapolog":6626,"Ġmeetings":6627,"Ġemotionally":6628,"Ġdiameter":6629,"inge":6630,"Ġrush":6631,"Ġsubtle":6632,"Ġtemplate":6633,"inding":6634,"Ġadministr":6635,"abol":6636,"Ġphones":6637,"uction":6638,"Ġplanting":6639,"Ġyeast":6640,"Ġwel":6641,"Ġpoll":6642,"Ġcertainly":6643,"Ġdecorations":6644,"vas":6645,"Ġupward":6646,"Ġfreeze":6647,"known":6648,"ray":6649,"Ġdamaging":6650,"how":6651,"Ġscoop":6652,"Ġaluminum":6653,"ava":6654,"Ġbeforehand":6655,"Ġmarried":6656,"Ġanyway":6657,"Ġmajority":6658,"tes":6659,"icular":6660,"Ġrins":6661,"ĠBre":6662,"Ġending":6663,"ĠWho":6664,"ĠExplain":6665,"Ġrecept":6666,"ĠExample":6667,"Ġterr":6668,"99":6669,"Ġtoe":6670,"Ġfault":6671,"Ġskillet":6672,"Ġstrengths":6673,"iant":6674,"Ġimprovement":6675,"Ġspeaker":6676,"Ġconstruction":6677,"icks":6678,"Ġsimmer":6679,"Ġdab":6680,"Ġriding":6681,"Ġtraum":6682,"Ġfunctions":6683,"ĠStop":6684,"Ġannual":6685,"ĠExerc":6686,"Ġunlikely":6687,"Ġcontext":6688,"Ġfolders":6689,"essert":6690,"Ġdownward":6691,"Ġmotions":6692,"ĠCarefully":6693,"ĠMon":6694,"Ġbranch":6695,"Ġhumans":6696,"Ġmatters":6697,"Ġallergies":6698,"ĠâĨ":6699,"Re":6700,"Ġrecipient":6701,"Ġbeliefs":6702,"Ġchecked":6703,"Ġsin":6704,"Ġmattress":6705,"ĠSlow":6706,"Ġhungry":6707,"Ġdoctors":6708,"Ġwhose":6709,"ĠAim":6710,"Ġefforts":6711,"Ġhall":6712,"Ġatte":6713,"onnect":6714,"Ġhus":6715,"Ġcu":6716,"Ġshorts":6717,"Ġnutrition":6718,"Ġprincip":6719,"Ġadmit":6720,"ales":6721,"Ġcurtain":6722,"erves":6723,"Ġcomfortably":6724,"fits":6725,"ĠSpend":6726,"aly":6727,"iends":6728,"Ġtyping":6729,"Ġdescribed":6730,"Ġreached":6731,"ĠTest":6732,"18":6733,"host":6734,"Ġchurch":6735,"Ġlotion":6736,"Ġstruggle":6737,"mb":6738,"ĠOb":6739,"fortunately":6740,"Ġroast":6741,"Ġportions":6742,"Ġcaps":6743,"Ġdental":6744,"grade":6745,"tte":6746,"Ġcapable":6747,").,":6748,"Get":6749,"ĠName":6750,"Ġlungs":6751,"Ġcompass":6752,"Ġsquares":6753,"âĢĵâĢĵ":6754,"Ġweapon":6755,"Ġdentist":6756,"Ġelbow":6757,"Ġinstalling":6758,"Ġtutor":6759,"date":6760,"working":6761,"een":6762,"Ġscarf":6763,"28":6764,"shirt":6765,"Ġmarked":6766,"Ġpiercing":6767,"hot":6768,"Ġturkey":6769,"thm":6770,"Ġdrum":6771,"Ġfont":6772,"ĠCenter":6773,"Ġprescribed":6774,"ecut":6775,"olar":6776,"Ġediting":6777,"Ġvomiting":6778,"Ġsaving":6779,"inkles":6780,"Ġinstit":6781,"Ġeligible":6782,"ĠAir":6783,"Ġdisorders":6784,"fting":6785,"tight":6786,"âģ":6787,"Ġyell":6788,"lex":6789,"Ġrear":6790,"ĠFile":6791,"ĠHelp":6792,"Ġdeveloped":6793,"Ġhalfway":6794,"Ġerror":6795,"Ġvirt":6796,"Ġunlock":6797,"Ġsuddenly":6798,"Ġbubble":6799,"Ġpores":6800,"Ġnational":6801,"abilities":6802,"pie":6803,"oma":6804,"umbs":6805,"Ġcompress":6806,"Ġ70":6807,"Ġcrisp":6808,"Ġdoubt":6809,"Ġflush":6810,"Ġward":6811,"Ġstrict":6812,"alous":6813,"ĠURL":6814,"Ġguess":6815,"Ġrul":6816,"Ġacknowledge":6817,"Ġsubstance":6818,"Ġreduces":6819,"Ġmaintenance":6820,"Ġsprinkle":6821,"Ġhitting":6822,"Ġperformed":6823,"Ġprop":6824,"LC":6825,"ĠPush":6826,"ogether":6827,"Ġpassing":6828,"Ġstands":6829,"Ġdiscip":6830,"Ġsnap":6831,"Ġconcl":6832,"Ġdrawn":6833,"Ġcurve":6834,"Ġupdates":6835,"ĠAssociation":6836,"Ġcharged":6837,"Ġpersonally":6838,"Ġgreatly":6839,"Ġhobbies":6840,"exp":6841,"Ġtattoo":6842,"Ġjoke":6843,"sec":6844,"Ġfishing":6845,"Ġagg":6846,"Ġreinforce":6847,"unge":6848,"Âº":6849,"Ġcupc":6850,"Ġeyesh":6851,"utter":6852,"uming":6853,"Ġcirculation":6854,"Ġwrapping":6855,"Ġsupposed":6856,"owel":6857,"Ġgauge":6858,"verages":6859,"Ġscient":6860,"Ġdessert":6861,"Ġwarrant":6862,"pected":6863,"Ġcarbon":6864,"Ġengaged":6865,"Ġcompetition":6866,"Ġexamine":6867,"Ġpaperwork":6868,"Ġirritate":6869,"Ġstandards":6870,"cue":6871,"check":6872,"Ġpant":6873,"Ġsubjects":6874,"Ġantibiotics":6875,"ĠExt":6876,"Ġauto":6877,"On":6878,"Ġcos":6879,"Ġfaith":6880,"ata":6881,"Ġbeads":6882,"your":6883,"Ġthy":6884,"Ġcoats":6885,"Ġincred":6886,"Ġaccent":6887,"Ġmindful":6888,"imeter":6889,"this":6890,"Ġcontinuing":6891,"Ġquit":6892,"fat":6893,"mm":6894,"Ġforming":6895,"Ġevaluate":6896,"Ġtoler":6897,"Ġilleg":6898,"Ġaccepted":6899,"Remember":6900,"Look":6901,"ĠDay":6902,"Ġholds":6903,"Consider":6904,"Ġvarieties":6905,"Ġaffection":6906,"Ġexternal":6907,"Ġwanting":6908,"Ġearr":6909,"luding":6910,"Ġorigin":6911,"atin":6912,"Ġbattle":6913,"alt":6914,"Ġkeyword":6915,"atches":6916,"Ġsequ":6917,"Ġemployers":6918,"Ġanymore":6919,"Ġdifferences":6920,"Ġtrusted":6921,"Ġeffici":6922,"Ġtile":6923,"Ġ*":6924,"Ġger":6925,"ĠMen":6926,"Ġrepet":6927,"Ġreveal":6928,"aled":6929,"ht":6930,"appy":6931,"ibit":6932,"Ġsquash":6933,"Ġfabrics":6934,"Ġovercome":6935,"Ġunwanted":6936,"Ġfeather":6937,"Ġlessons":6938,"Ġinfluence":6939,"Ġadoption":6940,"Ġhydrated":6941,"Com":6942,"Ġfalse":6943,"Ġborrow":6944,"Ġreports":6945,"lla":6946,"Ġdelicious":6947,"Ġpound":6948,"Ġmoved":6949,"Ġdownloaded":6950,"ĠKnowing":6951,"Ġlatest":6952,"Ġdisability":6953,"ĠMicrosoft":6954,"Ġwise":6955,"Ġpreventing":6956,"Ġmultiply":6957,"ifies":6958,"Ġmiles":6959,"Ġweights":6960,"Ġshine":6961,"avender":6962,"Ġsinging":6963,"Ġeth":6964,"Ġsupporting":6965,"orr":6966,"Ġnausea":6967,"ĠIdent":6968,"Ġjur":6969,"AM":6970,"Take":6971,"iance":6972,"Ġrestore":6973,"22":6974,"anks":6975,"anas":6976,"Ġstrategies":6977,"ĠConnect":6978,"ruptcy":6979,"ĠPlus":6980,"Ġlowest":6981,"Ġoat":6982,"ĠWhere":6983,"pense":6984,"Ġtechnology":6985,"Ġregistration":6986,"Ġreplacement":6987,"Cont":6988,"arms":6989,"Ġgap":6990,"amel":6991,"Ġcenters":6992,"Ġmagazines":6993,"Ġdeposit":6994,"pat":6995,"Ġintent":6996,"Ġpubl":6997,"Ġcubes":6998,"Ġcrust":6999,"Ġcounseling":7000,"300":7001,"rof":7002,"Ġchallenges":7003,"urs":7004,"Ġvaries":7005,"Ġguidance":7006,"Ġankle":7007,"igor":7008,"Ġbedtime":7009,"Ġexhaust":7010,"Ġpip":7011,"Ġfence":7012,"Ġstrand":7013,"Ġtighten":7014,"Ġnest":7015,"Ġdiaper":7016,"Ġticket":7017,"Ġmixer":7018,"Ġcrop":7019,"ĠDouble":7020,"Ġbuff":7021,"Ġpeanut":7022,"Ġcostume":7023,"Ġmessy":7024,"Ġexcuse":7025,"new":7026,"ĠUnderstand":7027,"Ġtact":7028,"Ġspinach":7029,"Ġenhance":7030,"Ġmas":7031,"angs":7032,"ĠYork":7033,"Ġsuits":7034,"ĠLight":7035,"ĠSpread":7036,"Ġdistractions":7037,"Ġreputation":7038,"Ġhorses":7039,"Ġchores":7040,"Ġunderlying":7041,"Ġsunscreen":7042,"Ġassociate":7043,"Ġepis":7044,"Ġprospect":7045,"ĠMet":7046,"Ġgro":7047,"90":7048,"oors":7049,"olf":7050,"apan":7051,"Ġtoothpaste":7052,"orrect":7053,"ĠBar":7054,"ĠExpl":7055,"Ġgotten":7056,"Ġtotally":7057,"ĠSimilar":7058,"Ġswallow":7059,"Ġfaces":7060,"Ġjaw":7061,"bu":7062,"Ġsized":7063,"angular":7064,"Ġelectron":7065,"Ġvirus":7066,"My":7067,"Ġnit":7068,"Ġprocessing":7069,"Ġassociation":7070,"Ġfluids":7071,"ĠProvide":7072,"Ġoz":7073,"ED":7074,"avy":7075,"ĠDry":7076,"arest":7077,"ĠHeat":7078,"ĠFinally":7079,"Ġbullying":7080,"Ġbarr":7081,"ĠChe":7082,"Ġconnecting":7083,"Ġassignment":7084,"px":7085,"ĠBet":7086,"atural":7087,"Ġvoc":7088,"uro":7089,"ĠWhy":7090,"Ġaccordingly":7091,"Ġrarely":7092,"Ġpractices":7093,"Ġdelay":7094,"Ġbulb":7095,"Ġjog":7096,"Ġeyeshadow":7097,"Ġplot":7098,"Ġupside":7099,"Ġcrab":7100,"rus":7101,"urb":7102,"orthy":7103,"Ġgrown":7104,"ycling":7105,"ĠTreat":7106,"Ġglow":7107,"Ġvulner":7108,"Ġheading":7109,"Ġharvest":7110,"Ġbacon":7111,"Ġclips":7112,"Ġsoften":7113,"Ġopens":7114,"!âĢĿ":7115,"Ġpou":7116,"isc":7117,"Ġacademic":7118,"ĠLine":7119,"ĠCommon":7120,"appropriate":7121,"Ġoily":7122,"Ġfract":7123,"Ġdresses":7124,"ifier":7125,"Ġdischarge":7126,"iforn":7127,"Ġconvert":7128,"ĠPat":7129,"\")":7130,"Ġdiagon":7131,"look":7132,"Ġmac":7133,"uting":7134,"Ġreliable":7135,"Ġconvenient":7136,"Ġdele":7137,"Ġjars":7138,"Ġindoors":7139,"Ġdiscard":7140,"sels":7141,"Ġrepresentative":7142,"Ġemotion":7143,"ĠSpray":7144,"Ġconfused":7145,"Ġgrav":7146,"ament":7147,"Ġbodies":7148,"Ġthous":7149,"Ġcalorie":7150,"Ġrocks":7151,"Ġfancy":7152,"Ġreality":7153,"Ġtraits":7154,"ĠMod":7155,"Ġwalks":7156,"Ġadds":7157,"Ġdestroy":7158,"Ġimproving":7159,"pite":7160,"Ġthinner":7161,"quarium":7162,"ĠTwo":7163,"Ġfrustrated":7164,"Ġconsistently":7165,"Ġwrapped":7166,"Ġchunks":7167,"elsius":7168,"Ġmemories":7169,"Ġobserve":7170,"Ġpursue":7171,"Ġverb":7172,"Ġforehead":7173,"ĠSur":7174,"Ġsurprised":7175,"Ġblades":7176,"angers":7177,"Ġsatur":7178,"Ġhun":7179,"olester":7180,"Ġdos":7181,"AR":7182,"iter":7183,"ĠBel":7184,"Ġwashed":7185,"ifornia":7186,"burn":7187,"Ġpeppers":7188,"Ġcombat":7189,"Ġrotate":7190,"Ġsurprise":7191,"vals":7192,"ĠClose":7193,"udd":7194,"Ġsynt":7195,"Ġjealous":7196,"aign":7197,"Ġbob":7198,"Ġapplies":7199,"Ġcommitment":7200,"24":7201,"erved":7202,"Ġdeciding":7203,"ĠBuild":7204,"oad":7205,"Ġves":7206,"Ġcaring":7207,"under":7208,"ĠCelsius":7209,"Ġpreferences":7210,"Ġduct":7211,"Ġoccup":7212,"Ġcandle":7213,"Ġstrokes":7214,"Ġsummary":7215,"Ġinternational":7216,"ĠStudies":7217,"Ġbunch":7218,"pes":7219,"olesterol":7220,"Once":7221,"Ġtoast":7222,"ication":7223,"ML":7224,"ĠJapan":7225,"cur":7226,"Ġliner":7227,"Ġmatching":7228,"odes":7229,"Ġcities":7230,"Ġbrist":7231,"Ġminimal":7232,"hips":7233,"Ġbiggest":7234,"Ġuniversity":7235,"Ġpunish":7236,"Ġpreparation":7237,"azon":7238,"ada":7239,"Ġdamages":7240,"Ġtried":7241,"Ġquotes":7242,"Ġdelicate":7243,"Ġclubs":7244,"Ġhormone":7245,"Ġmagazine":7246,"ĠDifferent":7247,"Ġdull":7248,"roud":7249,"Ġjelly":7250,"Ġbits":7251,"Ġdocumentation":7252,"pany":7253,"otect":7254,"Ġestimate":7255,"Ġshooting":7256,"ĠMain":7257,"Ġmentioned":7258,"Ġbaked":7259,"Ġreaching":7260,"Ġpreference":7261,"35":7262,"Ġmeats":7263,"Ġqualified":7264,"Ġclosest":7265,"Ġitch":7266,"Ġexecut":7267,"images":7268,"Ġsched":7269,"Ġvariable":7270,"Ġsmells":7271,"ifting":7272,"Ġrash":7273,"gal":7274,"Ġdisappe":7275,"Ġleader":7276,"Ġentered":7277,"Ġgrey":7278,"thumb":7279,"Ġcloset":7280,"Ġgrate":7281,"Ġperoxide":7282,"Ġshelf":7283,"While":7284,"Ġrewards":7285,"Ġsettlement":7286,"ĠPurch":7287,"Ġclassroom":7288,"Ġinteractions":7289,"lers":7290,"ĠWhite":7291,"ccoli":7292,"sis":7293,"igure":7294,"Ġvalve":7295,"Ġdreams":7296,"erals":7297,"piration":7298,"page":7299,"Ġagents":7300,"Ġdries":7301,"Ġapartment":7302,"Ġshaped":7303,"Ġslot":7304,"Ġmutual":7305,"ĠRoll":7306,"Ġcrease":7307,"Ġupright":7308,"izers":7309,"Ġcompared":7310,"Ġvegg":7311,"ĠCalifornia":7312,"Ġtire":7313,"Ġdiscour":7314,"oster":7315,"Ġmanip":7316,"ĠčĊ":7317,"alty":7318,"Ġpackaging":7319,"weet":7320,"Ġoverwhelmed":7321,"Ġlegally":7322,"Ġencl":7323,"ials":7324,"Ġlinked":7325,"Ġhate":7326,"Ġlin":7327,"arts":7328,"Ġsnake":7329,"Ġfertilizer":7330,"Ġlashes":7331,"Ġintroduction":7332,"high":7333,"hered":7334,"uls":7335,"Ġcham":7336,"Ġexciting":7337,"Ġassignments":7338,"Ġrim":7339,"eps":7340,"Ġstairs":7341,"Ġgrant":7342,"Ġcholesterol":7343,"27":7344,"Ġbeverages":7345,"overed":7346,"athy":7347,"Ġbandage":7348,"Ġnearest":7349,"Ġdrawer":7350,"ĠEnjoy":7351,"Ġshallow":7352,"Ġseparately":7353,"Ġrouter":7354,"Ġflexibility":7355,"Ġcaul":7356,"Ġbankruptcy":7357,"Ġbuyer":7358,"Ġaffects":7359,"esteem":7360,"Ġaftern":7361,"plant":7362,"Ġknock":7363,"Ġunex":7364,"Ġresting":7365,"Is":7366,"Ġpanc":7367,"Ġessentially":7368,"Ġheads":7369,"Ġamazing":7370,"Ġguest":7371,"Ġlicensed":7372,"Ġrestaurants":7373,"Ġplays":7374,"Ġtwe":7375,"Ġgrows":7376,"rics":7377,"Ġathlet":7378,"Ġlend":7379,"Ġcommands":7380,"mega":7381,"Set":7382,"Ġmetabol":7383,"Ġfraud":7384,"Ġjokes":7385,"Ġefficient":7386,"Ġshred":7387,"ĠSupp":7388,"Ġpassport":7389,"ulin":7390,"plete":7391,"Ġads":7392,"Ġthermometer":7393,"Ġwarning":7394,"Ġsus":7395,"ipts":7396,"Ġrequests":7397,"Ġboring":7398,"ola":7399,"Ġleash":7400,"Ġdirectory":7401,"Ġpractical":7402,"ĠOffice":7403,"Ġbrake":7404,"Ġhomemade":7405,"Ġexplan":7406,"infect":7407,"Ġthickness":7408,"Ġaquarium":7409,"Ġfears":7410,"Ġcompound":7411,"Ġsky":7412,"Ġsch":7413,"Ġnavigate":7414,"ĠVitamin":7415,"ĠReal":7416,"Ġparking":7417,"Ġwings":7418,"ĠiPad":7419,"ĠIRS":7420,"):":7421,"Ġlenses":7422,"Ġsubtract":7423,"cific":7424,"Ġfans":7425,"Ġcryst":7426,"Ġconcealer":7427,"iator":7428,"ppy":7429,"Ġcompar":7430,"Ġattempting":7431,"No":7432,"apor":7433,"Ġteams":7434,"Ġpillows":7435,"Ġconver":7436,"aughter":7437,"Ġtriggers":7438,"Ġproud":7439,"Ġunp":7440,"Ġaddresses":7441,"Ġicing":7442,"Ġfatigue":7443,"Ġfamilies":7444,"ippers":7445,"Ġunusual":7446,"Ġnovel":7447,"Ġidentification":7448,"Ġtomato":7449,"Ġsucceed":7450,"Ġeyebrows":7451,"Ġtries":7452,"Ġresulting":7453,"Ġdiffer":7454,"Ġprimer":7455,"Ġbreeds":7456,"Ġconsumption":7457,"Ġpalms":7458,"Ġobstac":7459,"Ġtruck":7460,"Ġroller":7461,"Ġtense":7462,"Ġgramm":7463,"Ġcoup":7464,"Ġaccum":7465,"Ġconsideration":7466,"ivate":7467,"Ġplane":7468,"Ġrhythm":7469,"vable":7470,"ĠCour":7471,"Ġworkers":7472,"Ġwheels":7473,"Ġmonit":7474,"Ġmachines":7475,"courage":7476,"Ġstool":7477,"Ġbackup":7478,"Ġhygi":7479,"Ġtiles":7480,"ublic":7481,"AC":7482,"âĢ¦":7483,"ĠChrome":7484,"Ġreset":7485,"Ġblo":7486,"Ġprotected":7487,"can":7488,"ĠTie":7489,"Ġpasses":7490,"ague":7491,"ĠJohn":7492,"fess":7493,"Ġlisting":7494,"Ġillegal":7495,"Ġlining":7496,"Ġenforce":7497,"Ġsupportive":7498,"Ġelbows":7499,"Ġsac":7500,"Ġrental":7501,"Ġcleanser":7502,"Ġjoining":7503,"Ġexperts":7504,"Ġsen":7505,"Ġdisrupt":7506,"Ġbackwards":7507,"Ġpointed":7508,"Ġfluff":7509,"Ġwig":7510,"Ġcleaners":7511,"Ġrespectful":7512,"Ġvehicles":7513,"Ġinsects":7514,"Ġfloss":7515,"Ġputs":7516,"ĠDid":7517,"Ġbulk":7518,"Ġpumpkin":7519,"Ġyes":7520,"Ġfamous":7521,"Ġloves":7522,"Ġactively":7523,"Ġreferences":7524,"Ġcrowd":7525,"Ġperf":7526,"Ġcapture":7527,"Ġoatmeal":7528,"Ġcush":7529,"Ġreverse":7530,"ĠDiv":7531,"Ġproductive":7532,"istry":7533,"Ġmeets":7534,"Ġpanic":7535,"Ġbrack":7536,"Ġbasically":7537,"Ġartists":7538,"Ġloops":7539,")=":7540,"expensive":7541,"Ġmint":7542,"Ġtum":7543,"rog":7544,"Ġreferral":7545,"Ġauthority":7546,"Ġdots":7547,"ĠWithout":7548,"32":7549,"ĠĠĠĠĠĠĠĠĠčĊ":7550,"Ġalternate":7551,"Ġ500":7552,"Ġcampaign":7553,"Ġleak":7554,"Ġdishw":7555,"normal":7556,"Ġraz":7557,"Ġscared":7558,"Ġstrap":7559,"Ġconscious":7560,"Ġchop":7561,"Ġclog":7562,"ĠDeterm":7563,"trl":7564,"Ġgums":7565,"Ġdefine":7566,"Ġafternoon":7567,"bur":7568,"Ġstub":7569,"Ġdeals":7570,"ĠInstagram":7571,"Ġmeasures":7572,"Ġresolution":7573,"Ġherb":7574,"Ġgarage":7575,"Ġretirement":7576,"cal":7577,"Ġspreading":7578,"Ġpronounced":7579,"Ġberries":7580,"Ġdebts":7581,"Ġcarrying":7582,"Ġlad":7583,"Ġaccessible":7584,"Ġscript":7585,"arc":7586,"being":7587,"Ġdrivers":7588,"Ġremote":7589,"Ġminerals":7590,"ittle":7591,"ĠOffer":7592,"ndrome":7593,"Ġplates":7594,"Ġappetite":7595,"Ġnone":7596,"ĠPass":7597,"Ġcentral":7598,"Ġstopping":7599,"Ġdefic":7600,"Ġsmoothly":7601,"irl":7602,"utch":7603,"ĠTheir":7604,"flamm":7605,"Ġnamed":7606,"Ġsiblings":7607,"Ġscenar":7608,"Ġdiscrim":7609,"Ġtalent":7610,"Ġresponses":7611,"stain":7612,"Ġcanvas":7613,"ka":7614,"Ġcyl":7615,"Ġadvent":7616,"Ġbanks":7617,"Ġaddiction":7618,"Ġsetup":7619,"Ġsupports":7620,"'.":7621,"Ġecon":7622,"ĠWorld":7623,"Ġages":7624,"Ġbowls":7625,"name":7626,"range":7627,"asal":7628,"Ġconcentr":7629,"ront":7630,"Ġpulled":7631,"Ġapplicable":7632,"cers":7633,"ĠPaint":7634,"Ġ17":7635,"Ġnursing":7636,"Ġdismiss":7637,"Ġvisa":7638,"house":7639,"ĠThose":7640,"Ġhousing":7641,"sm":7642,"Ġultimately":7643,"ĠHum":7644,"Ġearth":7645,"ĠOS":7646,"Ġbridge":7647,"ĠControl":7648,"Ġborn":7649,"ĠSystem":7650,"Ġballoon":7651,"Ġsubstances":7652,"Ġdeadline":7653,"Ġmotivated":7654,"Ġbrushes":7655,"Ġcompat":7656,"Ġjuices":7657,"Ġarguments":7658,"Ġdisk":7659,"Ġurge":7660,"Ġdomain":7661,"800":7662,"Ġpriority":7663,"ĠAmazon":7664,"itivity":7665,"Ġmeaningful":7666,"Ġcoating":7667,"ĠSpan":7668,"Ġtin":7669,"Ġpork":7670,"Ġinspect":7671,"ĠArt":7672,"pret":7673,"Ġfav":7674,"Ġchecks":7675,"ĠAttach":7676,"Ġlands":7677,"Ġopened":7678,"Ġmuc":7679,"Ġspecialist":7680,"ĠConsult":7681,"Ġstrawberries":7682,"Ġexpression":7683,"Ġrolls":7684,"Ġhes":7685,"Ġdecorate":7686,"lihood":7687,"Ġorient":7688,"Ġshiny":7689,"ermat":7690,"xid":7691,"ĠPost":7692,"Ġattending":7693,"Ġbroker":7694,"apes":7695,"ĠBas":7696,"Ġ21":7697,"Ġreputable":7698,"Ġshipping":7699,"ĠCur":7700,"Ġannoying":7701,"Ġsilly":7702,"Ġcustody":7703,"ussing":7704,"Ġcreams":7705,"Ġrepresents":7706,"Ġdigestive":7707,"Check":7708,"udge":7709,"Ġleaders":7710,"Ġconcentration":7711,"Ġtempting":7712,"Ġinteraction":7713,"Ġavocado":7714,"Ġbin":7715,"uten":7716,"Ġcooler":7717,"Ġconsuming":7718,"Ġeaten":7719,"ooth":7720,"ĠDi":7721,"Ġsignals":7722,"Ġhappier":7723,"Ġpurchases":7724,"phones":7725,"Ġexcl":7726,"Ġformer":7727,"Ġinstructor":7728,"Ġspeakers":7729,"ĠGrab":7730,"Ġspare":7731,"ificial":7732,"Ġconcentrate":7733,"isters":7734,"ikes":7735,"Ġremover":7736,"ĠSlowly":7737,"Ġfau":7738,"Ġlime":7739,"Ġbeside":7740,"Ġalph":7741,"user":7742,"Ġclimb":7743,"Ġintellig":7744,"fers":7745,"Ġbroccoli":7746,"Ġbanana":7747,"Ġabdomen":7748,"tens":7749,"rs":7750,"ĠTime":7751,"Ġcircuit":7752,"!)":7753,"Ġintensity":7754,"Ġconfront":7755,"DF":7756,"Ġdedicated":7757,"ule":7758,"Ġcivil":7759,"Ġdistracted":7760,"Ġneighbors":7761,"ĠDownload":7762,"Ġargue":7763,"acco":7764,"Ġhero":7765,"Ġangles":7766,"Ġsandwich":7767,"Ġupwards":7768,"Ġthesis":7769,"Ġstamp":7770,"Ġbreasts":7771,"Ġtrainer":7772,"Ġdatabase":7773,"Pro":7774,"especially":7775,"Ġfry":7776,"Ġunh":7777,"Ġblame":7778,"Ġcharacteristics":7779,"Ġwashcloth":7780,"Ġverbal":7781,"Ġpolitical":7782,"Ġhimself":7783,"ĠAccount":7784,"Ġequally":7785,"Ġattachment":7786,"Ġtempted":7787,"Ġcandidate":7788,"ĠExplore":7789,"Ġnic":7790,"Ġsuck":7791,"ĠEuro":7792,"Ġregulations":7793,"Ġproduced":7794,"ser":7795,"Ġsigning":7796,"ĠBrush":7797,"Ġcher":7798,"ritis":7799,"Ġbead":7800,"ĠIP":7801,"Ġfant":7802,"Ġcrown":7803,"istent":7804,"Ġcomplications":7805,"Ġbonds":7806,"Ġinexpensive":7807,"ĠBook":7808,"Many":7809,"Ġax":7810,"Ġpod":7811,"ĠPar":7812,"Ġredness":7813,"Ġmissed":7814,"Ġdramatic":7815,"ker":7816,"ĠeB":7817,"Ġpatches":7818,"Ġaccepting":7819,"Ġfather":7820,"Ġsalmon":7821,"Ġcooling":7822,"HD":7823,"Ġchlor":7824,"Ġsuggests":7825,"Ġaccommodate":7826,"Ġcolorful":7827,"Ġvulnerable":7828,"ĠExamples":7829,"ĠService":7830,"Ġtransportation":7831,"quality":7832,"osh":7833,"Ġtested":7834,"ĠSend":7835,"ĠBack":7836,"Ġcrime":7837,"Ġhood":7838,"Ġhits":7839,"Ġdisapp":7840,"ĠSprinkle":7841,"po":7842,"Ġsister":7843,"Ġgaps":7844,"Ġautistic":7845,"Ġidentified":7846,"ceeding":7847,"Ġlikelihood":7848,"Ġenemies":7849,"Ġtrace":7850,"Ġthinks":7851,"Ġrounded":7852,"ĠCertain":7853,"ĠExercise":7854,"Ġshad":7855,"ĠAdjust":7856,"nis":7857,"Ġshar":7858,"Most":7859,"Ġpills":7860,"abul":7861,"ĠEs":7862,"Ġ35":7863,"Ġder":7864,"Ġlace":7865,"Ġrelate":7866,"Ġmanually":7867,"Ġreturns":7868,"Ġruin":7869,"Ġfret":7870,"Ġmm":7871,"Ġreass":7872,"ĠTool":7873,"Ġcoins":7874,"ĠHead":7875,"idents":7876,"life":7877,"Ġstages":7878,"Ġdot":7879,"Ġbench":7880,"Ġmuff":7881,"Ġweapons":7882,"Ġcandles":7883,"Ġframes":7884,"Ġrefers":7885,"Ġhormones":7886,"Ġlavender":7887,"ott":7888,"ĠBusiness":7889,"Ġscrape":7890,"Ġtones":7891,"hma":7892,"Ġbump":7893,"ĠStep":7894,"Ġdirected":7895,"Ġpreferably":7896,"Ġoccasion":7897,"Ġcopper":7898,"Ġmineral":7899,"Ġbasics":7900,"hent":7901,"Ġwaves":7902,"Ġwonderful":7903,"ĠEating":7904,"Ġtablet":7905,"rylic":7906,"Ġautomatic":7907,"ĠCol":7908,"Ġinterfere":7909,"active":7910,"install":7911,"Ġobjective":7912,"We":7913,"Ġflying":7914,"amily":7915,"Ġchose":7916,"Ġbreeding":7917,"Ġfibers":7918,"ĠiOS":7919,"Ġalbum":7920,"Ġblush":7921,"Ġreplacing":7922,"Ġassigned":7923,"Ġmotivation":7924,"Ġherself":7925,"heduled":7926,"piece":7927,"hus":7928,"Ġheated":7929,"flow":7930,"Ġobsess":7931,"Ġbulbs":7932,"Ġcompromise":7933,"SP":7934,"Ġhumidity":7935,"DA":7936,"ĠWalk":7937,"Ġallergy":7938,"ĠCount":7939,"Ġwave":7940,"ĠServe":7941,"ĠMin":7942,"Ġconsent":7943,"oodles":7944,"Ġexhale":7945,"Ġshave":7946,"ĠPot":7947,"Ġthorough":7948,"arse":7949,"Ġgraduate":7950,"Ġbark":7951,"Ġelder":7952,"Ġwrinkles":7953,"Ġstab":7954,"ĠFree":7955,"Ġpops":7956,"Ġhistor":7957,"Ġcommitted":7958,"Ġinsight":7959,"MI":7960,"Ġoutcome":7961,"Ġquicker":7962,"Ġnegotiate":7963,"Ġspiritual":7964,"Ġhasn":7965,"Ġgallon":7966,"asher":7967,"ĠGreen":7968,"Ġimportance":7969,"ĠRemind":7970,"Ġsweater":7971,"Ġraising":7972,"Ġpretend":7973,"velope":7974,"Ġdecl":7975,"Ġmilitary":7976,"Ġreleased":7977,"Ġreplaced":7978,"Ġruler":7979,"plement":7980,"Ġtricks":7981,"Ġmall":7982,"Ġdu":7983,"Ġfort":7984,"Ġclimate":7985,"Ġcracks":7986,"Ġteaspoons":7987,"vention":7988,"Ġabdominal":7989,"Ġvocal":7990,"Ġopposed":7991,"Ġadm":7992,"Ġswab":7993,"Ġpairs":7994,"Ġtabs":7995,"gun":7996,"Ġinterior":7997,"Ġsoothing":7998,"Ġdivided":7999,"Ġconcert":8000,"Ġreferred":8001,"Ġdiamond":8002,"odor":8003,"Ġeducational":8004,"eed":8005,"Ġtang":8006,"Ġbackpack":8007,"Ġcaution":8008,"Ġcompetitive":8009,"Ġgran":8010,"ĠBlue":8011,"Fi":8012,"ĠPurchase":8013,"Even":8014,"Ġlogged":8015,"driver":8016,"ubric":8017,"Ġstrange":8018,"Ġcigare":8019,"Ġvill":8020,"Ġsurvive":8021,"Ġjunk":8022,"Ġdecorative":8023,"Ġcoworkers":8024,"Ġconvey":8025,"archment":8026,"Ġnegatively":8027,"ilty":8028,"Ġreserv":8029,"itations":8030,"Ġslower":8031,"Ġafterwards":8032,"En":8033,"Ġadjustments":8034,"Ġdesignated":8035,"Ġanticip":8036,"ĠUnlike":8037,"Ġdefined":8038,"Ġunexpected":8039,"rt":8040,"Ġpleasant":8041,"robe":8042,"Ġflatter":8043,"ĠOrgan":8044,"ĠWipe":8045,"Ġsecurely":8046,"ĠUV":8047,"Ġbladder":8048,"Ġattracted":8049,"Ġresource":8050,"Ġdissolve":8051,"rum":8052,"oral":8053,"Ġenvelope":8054,"BA":8055,"Ġphase":8056,"ĠHot":8057,"Ġincredibly":8058,"19":8059,"agine":8060,"Ġwasher":8061,"ĠDip":8062,"Ġeditor":8063,"Ġdepressed":8064,"Ġbrings":8065,"Ġmagic":8066,"Ġisol":8067,"imony":8068,"Ġcontamin":8069,"Ġbroth":8070,"ĠConf":8071,"Ġsemi":8072,"men":8073,"Ġtoolbar":8074,"ĠUnfortunately":8075,"Ġdownloading":8076,"Ġsealed":8077,"ĠHD":8078,"Ġportfol":8079,"Ġhammer":8080,"ĠSpanish":8081,"Ġlegit":8082,"Ġleftover":8083,"Ġpup":8084,"Ġwhereas":8085,"Ġgenerate":8086,"Ġpicked":8087,"Ġheavier":8088,"Ġoptim":8089,"Ġsweep":8090,"Ġthighs":8091,"Ġstraps":8092,"Ġanalysis":8093,"Ġcheeks":8094,"ĠDetermine":8095,")(":8096,"Ġconj":8097,"ĠEncourage":8098,"Un":8099,"ĠStar":8100,"Ġtsp":8101,"Ġuneven":8102,"ossip":8103,"One":8104,"Ġquote":8105,"Ġhandles":8106,"colored":8107,"Ġcouch":8108,"Ġelsewhere":8109,"criptions":8110,"Ġsed":8111,"obic":8112,"Ġviolence":8113,"ichever":8114,"Ġcodes":8115,"Ġdeter":8116,"ioxid":8117,"Ġcapacity":8118,"Ġtorso":8119,"Ġreligion":8120,"ravel":8121,"Ġmeters":8122,"Ġborder":8123,"Ġrip":8124,"Ġplanned":8125,"Ġwireless":8126,"ĠSlide":8127,"Ġinserted":8128,"Ġdosage":8129,"Ġhygiene":8130,"oa":8131,"Ġnine":8132,"eria":8133,"Ġinspiration":8134,"Ġspecialized":8135,"roup":8136,"ĠWhenever":8137,"Ġdefensive":8138,"Ġphotographs":8139,"wall":8140,"inflamm":8141,"Ġsupervis":8142,"Ġly":8143,"Ġshaving":8144,"Ġduration":8145,"ked":8146,"reet":8147,"Ġdermat":8148,"Ġcoin":8149,"Ġformed":8150,"Ġamb":8151,"Ġguilty":8152,"ĠReview":8153,"ustration":8154,"agus":8155,"ĠLog":8156,"Ġzero":8157,"Ġalmond":8158,"Ġearrings":8159,"Ġwand":8160,"Ġcharity":8161,"Ġproteins":8162,"Ġassert":8163,"Ġsymptom":8164,"Ġinternship":8165,"Ġbron":8166,"Ġwriter":8167,"ij":8168,"Ġsteak":8169,"Ġtent":8170,"Ġled":8171,"Ġsoaking":8172,"isd":8173,"Ġoperate":8174,"Ġaltogether":8175,"23":8176,"Ġdollar":8177,"Ġconvince":8178,"Ġexpense":8179,"Ġoutward":8180,"Ġfilters":8181,"ography":8182,"Ġwidely":8183,"Ġmile":8184,"Ġcanned":8185,"umble":8186,"Ġdominant":8187,"Ġacet":8188,"Ġshortcut":8189,"Ġheavily":8190,"Ġequival":8191,"storm":8192,"Ġpim":8193,"Ġinappropriate":8194,"Ġmole":8195,"ĠHy":8196,"Ġcomponent":8197,"Ġintest":8198,"text":8199,"Ġfraction":8200,"Ġreceipt":8201,"Ġdash":8202,"Ġlaying":8203,"Ġyield":8204,"iven":8205,"Ġimper":8206,"Ġheadaches":8207,"Ġutility":8208,"Ġinitially":8209,"books":8210,"ĠAccording":8211,"Ġbugs":8212,"Ġfrequency":8213,"Ġsubstant":8214,"Ġveggies":8215,"ica":8216,"Ġadvertis":8217,"Ġcrazy":8218,"Ġanch":8219,"reating":8220,"ĠDef":8221,"Ġstuffed":8222,"hens":8223,"teen":8224,"Ġparchment":8225,"ĠCtrl":8226,"Ġflesh":8227,"Ġconcepts":8228,"ĠReplace":8229,"ooked":8230,"Ġharass":8231,"year":8232,"ardless":8233,"interest":8234,"Ġpublished":8235,"Ġgarment":8236,"ĠAdding":8237,"Ġmediation":8238,"Ġrespir":8239,"Ġcontrolled":8240,"Ġherbal":8241,"Ġtechnical":8242,"Ġfranch":8243,"Ġneglect":8244,"Ġplacement":8245,"Ġlesson":8246,"Ġrolled":8247,"Ġstars":8248,"Ġoffices":8249,"Ġexams":8250,"bsp":8251,"inese":8252,"Ġbolt":8253,"Ġhusband":8254,"requ":8255,"rease":8256,"Ġcopyright":8257,"ĠHand":8258,"Ġnerve":8259,"Ġ75":8260,"Ġmesh":8261,"Ġbrother":8262,"Ġdisinfect":8263,"Ġrequirement":8264,"Ġbatteries":8265,"cure":8266,"Ġsoapy":8267,"isms":8268,"ĠMess":8269,"mathrm":8270,"ĠEurope":8271,"CA":8272,"front":8273,"Ġcandies":8274,"ĠScroll":8275,"ĠMult":8276,"Ġsafer":8277,"Ġairtight":8278,"Ġcriticism":8279,"sole":8280,"Ġscientific":8281,"Ġquot":8282,"Ġfinally":8283,"Ġsecured":8284,"Ġrazor":8285,"Ġcro":8286,"ĠGe":8287,"Ġexamination":8288,"Ġgrounds":8289,"Ġarts":8290,"Ġsooner":8291,"Ġgarbage":8292,"ilk":8293,"rimp":8294,"ĠCity":8295,"Ġbrowse":8296,"lication":8297,"rich":8298,"Ġnor":8299,"Ġshield":8300,"ĠPrepare":8301,"Ġjury":8302,"ĠPan":8303,"friendly":8304,"ari":8305,"olve":8306,"ĠVol":8307,"ĠToo":8308,"Ġproduces":8309,"Ġpetals":8310,"Ġfourth":8311,"fox":8312,"ĠWomen":8313,"Ġpredict":8314,"Ġmeter":8315,"ĠAmerica":8316,"Ġaward":8317,"Ġcontinues":8318,"Ġpowdered":8319,"ÂłÂłÂłÂł":8320,"Ġwardrobe":8321,"Ġcancel":8322,"ĠGold":8323,"pass":8324,"ĠLim":8325,"Ġspelling":8326,"...\"":8327,"Ġasthma":8328,"))":8329,"Ġliability":8330,"Ġdialogue":8331,"otic":8332,"road":8333,"Ġawake":8334,"ĠSnap":8335,"Ġbangs":8336,"rais":8337,"ĠInstall":8338,"Ġdistribute":8339,"Ġmentally":8340,"Ġexpose":8341,"Ġantioxid":8342,"Ġdumb":8343,"oof":8344,"ieves":8345,"Ġscheduled":8346,"formation":8347,"Ġtelephone":8348,"Ġpear":8349,"Ġscrewdriver":8350,"Ġhouses":8351,"Ġwiki":8352,"Ġrecommendation":8353,"ĠLink":8354,"Ġwatering":8355,"ermint":8356,"Ġcontacting":8357,"Ġmud":8358,"well":8359,"Ġhydrogen":8360,"ĠHang":8361,"Ġgluc":8362,"Ġgluten":8363,"Ġscratching":8364,"Ġpockets":8365,"Ġoutlet":8366,"Ġcoping":8367,"Ġenjoyable":8368,"Ġfloors":8369,"!,":8370,"Ġartificial":8371,"Ġtimer":8372,"rox":8373,"Ġskirts":8374,"stru":8375,"Ġhug":8376,"ĠHer":8377,"Ġcalming":8378,"Ġfreed":8379,"70":8380,"Ġproport":8381,"Ġnecklace":8382,"Ġensures":8383,"Ġhiking":8384,"Ġoutfits":8385,"Ġavoided":8386,"profit":8387,"fu":8388,"ette":8389,"Ġlargest":8390,"Ġidentifying":8391,"Ġbites":8392,"Ġallev":8393,"Ġdiscussing":8394,"ama":8395,"acterial":8396,"Ġnoticeable":8397,"Ġviews":8398,"Ġstimul":8399,"Ġmushrooms":8400,"Ġcucum":8401,"Ġproven":8402,"Ġpropos":8403,"Ġlubric":8404,"Ġtastes":8405,"Ġpause":8406,"Ġunple":8407,"Ġbru":8408,"Ġmargin":8409,"Ġclimbing":8410,"Ġbic":8411,"Ġfol":8412,"Ġdonate":8413,"Ġtricky":8414,"Ġaccurately":8415,"Ġperce":8416,"dry":8417,"Ġresort":8418,"Ġinterpret":8419,"Ġnetworking":8420,"ĠEspecially":8421,"Ġappealing":8422,"Ġjour":8423,"Ġspice":8424,"Ġsyll":8425,"Ġjurisd":8426,"Ġhay":8427,"amic":8428,"Ġcontrols":8429,"Ġhazard":8430,"Ġintervals":8431,"Ġpatience":8432,"clock":8433,"Ġpa":8434,"Ġimpl":8435,"ocks":8436,"ĠProgram":8437,"Ġlocked":8438,"Ġflame":8439,"Ġwherever":8440,"pray":8441,"Ġwhites":8442,"ĠColor":8443,"Ġextensive":8444,"Ġvenue":8445,"Ġportfolio":8446,"aple":8447,"}.":8448,"Ġtied":8449,"terior":8450,"Ġnasal":8451,"ĠTop":8452,"Ġsue":8453,"Ġappropriately":8454,"nuts":8455,"Ġskinny":8456,"cribe":8457,"missions":8458,"ĠSimilarly":8459,"alm":8460,"Ġcooker":8461,"anned":8462,"safe":8463,"Ġscary":8464,"Ġsurvey":8465,"Ġposting":8466,"Ġtenant":8467,"Ġwww":8468,"Ġjoy":8469,"Ġburns":8470,"Ġkeywords":8471,"ĠFed":8472,"Ġchewing":8473,"Ġsees":8474,"ĠCombine":8475,"ĠNumber":8476,"IM":8477,"ĠEvent":8478,"Ġlengths":8479,"Ġtouches":8480,"Ġcereal":8481,"So":8482,"Ġrabbits":8483,"Ġsofter":8484,"Ġpossibilities":8485,"ĠSpeak":8486,"Ġgossip":8487,"Ġinsulin":8488,"Ġsilk":8489,"Ġshells":8490,"Ġsorts":8491,"Ġpuff":8492,"ste":8493,"Ġmeasured":8494,"Ġmission":8495,"Ġfacility":8496,"ĠLearning":8497,"Ġseparated":8498,"Ġevalu":8499,"keep":8500,"Ġtrips":8501,"that":8502,"Ġvend":8503,"Ġpots":8504,"ĠNOT":8505,"ĠSkype":8506,"Ġapologize":8507,"Ġrinsing":8508,"Ġties":8509,"Ġterminal":8510,"Ġblankets":8511,"Ġobviously":8512,"Ġtags":8513,"ĠAC":8514,"Ġstimulate":8515,".).":8516,"Ġcure":8517,"Ġdeserve":8518,"Ġbarrel":8519,"={\\":8520,"BT":8521,"Ġimplement":8522,"Ġenthus":8523,"Ġauthent":8524,"oice":8525,"Ġrob":8526,"Ġguarantee":8527,"hern":8528,"Ġtract":8529,"Ġzip":8530,"Ġsuggested":8531,"Ġdepart":8532,"Ġunpleasant":8533,"Ġbait":8534,"Ġunderwear":8535,"That":8536,"Hey":8537,"Ġrum":8538,"ĠSleep":8539,"redit":8540,"Ġtexts":8541,"Ġestim":8542,"ĠXbox":8543,"Ġintimid":8544,"Ġblot":8545,"Ġbalm":8546,"Ġordinary":8547,"stead":8548,"Ġdiscl":8549,"monia":8550,"ĠLong":8551,"ĠLift":8552,"Ġinstant":8553,"Ġdirector":8554,"Ġrepairs":8555,"Ġsugars":8556,"Ġbacking":8557,"Ġfade":8558,"Ġforced":8559,"Ġdisabled":8560,"celer":8561,"Ġsustain":8562,"Ġrating":8563,"Ġincorrect":8564,"oly":8565,"pot":8566,"eras":8567,"enger":8568,"Ġprincipal":8569,"aque":8570,"fire":8571,"assium":8572,"anged":8573,"Ġexplaining":8574,"ĠScr":8575,"Ġunre":8576,"Ġgrooming":8577,"pres":8578,"Ġdeodor":8579,"Ġteens":8580,"ags":8581,"Ġloving":8582,"Ġparticles":8583,"Ġspecialty":8584,"Ġtemporarily":8585,"After":8586,"emon":8587,"Ġfingert":8588,"ugging":8589,"about":8590,"ĠNorth":8591,"Ġcompre":8592,"ĠLLC":8593,"Ġnutritional":8594,"ĠÃ":8595,"Ġyol":8596,"Ġstalk":8597,"Ġprimarily":8598,"Ġarise":8599,"Ġrecall":8600,"otherapy":8601,"Ġenjoying":8602,"Ġgrat":8603,"rem":8604,"Ġvibr":8605,"ĠDrive":8606,"Ġsyring":8607,"Ġholder":8608,"inecraft":8609,"Ġrestart":8610,"Ġsecondary":8611,"Ġoutput":8612,"Ġindividually":8613,"corn":8614,"Ġvigor":8615,"Ġacrylic":8616,"aft":8617,"secut":8618,"Ġsomebody":8619,"Ġitching":8620,"Ġsmiling":8621,"Ġarth":8622,"ingu":8623,"ĠLocate":8624,"Ġsupported":8625,"Ġbehavioral":8626,"Ġ,,,,,,":8627,"organ":8628,"ĠFur":8629,"ĠDiscuss":8630,"Ġcel":8631,"esome":8632,"usually":8633,"Ġsleeves":8634,"ĠReturn":8635,"Ġtrunk":8636,"ĠCopy":8637,"ĠPet":8638,"Ġembarrassed":8639,"itable":8640,"licking":8641,"Ġextensions":8642,"Ġsnug":8643,"ĠImagine":8644,"Ġlu":8645,"rav":8646,"Ġoverdo":8647,"Ġpurse":8648,"erting":8649,"itals":8650,"grad":8651,"Ġcurved":8652,"Ġfreely":8653,"Ġprofessor":8654,"Ġincident":8655,"Ġrestrictions":8656,"%.":8657,"Ġcoated":8658,"Ġspo":8659,"overs":8660,"irable":8661,"ĠCP":8662,"Ġconfusion":8663,"Ġprinting":8664,"Ġbullet":8665,"ĠThus":8666,"Ġconclusion":8667,"Ġadapt":8668,"Ġfinishing":8669,"US":8670,"Ġmim":8671,"ĠSaf":8672,".âĢĿ,":8673,"oes":8674,"Ġplanted":8675,"Ġbreeder":8676,"OK":8677,"rist":8678,"ida":8679,"Ġbraces":8680,"ĠĠĠĠĠĠĠĠčĊ":8681,"Ġlasts":8682,"Ġdishwasher":8683,"bacco":8684,"writ":8685,"Ġarbit":8686,"Ġdecent":8687,"Ġdetermining":8688,"ĠAdmin":8689,"Ġtrauma":8690,"omic":8691,"Ġentit":8692,"Ġequivalent":8693,"Ġgut":8694,"Ġbonus":8695,"Ġmucus":8696,"ĠBreat":8697,"Ġphotograp":8698,"Ġfolds":8699,"Find":8700,"Ġstere":8701,"Ġscores":8702,"Ġarrest":8703,"Ġtamp":8704,"Ġchapter":8705,"ĠPoint":8706,"Ġprocesses":8707,"Ġlaid":8708,"ccer":8709,"Ġretr":8710,"Ġwinning":8711,"Ġcalculator":8712,"ĠDrop":8713,"Ġhandful":8714,"ĠChar":8715,"Ġbacterial":8716,"yard":8717,"ĠGerm":8718,"Ġresident":8719,"Ġdurable":8720,"Ġpremium":8721,"ĠPosition":8722,"Ġoverwhelming":8723,"wash":8724,"Ġcube":8725,"Ġtransaction":8726,"Ġdealer":8727,"level":8728,"store":8729,"Ġintimate":8730,"Ġcompatible":8731,"Ġship":8732,"Ġpeas":8733,"Ġspecify":8734,"Ġmang":8735,"pm":8736,"ĠMass":8737,"Ġhealthcare":8738,"Ġcompliments":8739,"Ġbass":8740,"employ":8741,"Ġfellow":8742,"cover":8743,"ĠDrink":8744,"Ġperfume":8745,"Ġtires":8746,"aying":8747,"Ġshrimp":8748,"Ġadvise":8749,"Ġsandpaper":8750,"Ġsyndrome":8751,"Ġdietary":8752,"Ġupdated":8753,"Ġpoorly":8754,"Ġinqu":8755,"Ġtracks":8756,"Ġdeduct":8757,"chers":8758,"Ġwears":8759,"Ġusage":8760,"Ġ150":8761,"Ġnurse":8762,"Ġactivate":8763,"Ġjourney":8764,"agues":8765,"ĠHis":8766,"Ġceremon":8767,"ĠHealth":8768,"Ġlined":8769,"Ġchill":8770,"Ġawareness":8771,"abulary":8772,"car":8773,"mary":8774,"Ġdisagree":8775,"Ġintention":8776,"Other":8777,"Ġmuse":8778,"Ġcursor":8779,"ĠâĨĴ":8780,"Ġexplanation":8781,"Ġsenior":8782,"ĠAT":8783,"Ġbuildup":8784,"Ġwarmer":8785,"apple":8786,"ĠAnything":8787,"including":8788,"ĠDark":8789,"ĠInter":8790,"inflammatory":8791,"Ġfails":8792,"Ġsurroundings":8793,"Let":8794,"Ġgrasp":8795,"Ġsits":8796,"Ġnoodles":8797,"Ġsoccer":8798,"Ġspons":8799,"ĠKing":8800,"Ġstickers":8801,"Ġtrend":8802,"Ġflowing":8803,"Ġanalyze":8804,"irting":8805,"Ġdisplays":8806,"ĠGeneral":8807,"Ġsketch":8808,"Ġstretches":8809,"Ġworrying":8810,"Ġshelves":8811,"){\\":8812,"ĠADHD":8813,"Ġneedles":8814,"duc":8815,"Ġpainted":8816,"Ġdaughter":8817,"arks":8818,"Ġrepeating":8819,"ns":8820,"Ġterrit":8821,"Ġdependent":8822,"Ġmerch":8823,"Ġthemes":8824,"Ġrequested":8825,"Ġfried":8826,"ĠPDF":8827,"ĠChinese":8828,"Ġcontrolling":8829,"Ġalternatives":8830,"Ġgenre":8831,"regular":8832,"Ġcitizens":8833,"Ġbuyers":8834,"Ġcameras":8835,"Ġcitrus":8836,"Ġholidays":8837,"Ġjam":8838,"Ġtiming":8839,"Ġcurling":8840,"Ġmarkers":8841,"iatric":8842,"Ġemphasize":8843,"che":8844,"Ġblocked":8845,"Ġcriteria":8846,"Ġarrangement":8847,"Ġdrives":8848,"ĠStarting":8849,"Ġhurting":8850,"!;":8851,"tuce":8852,"va":8853,"Ġasset":8854,"Ġblocking":8855,"Ġunders":8856,"Ġgrammar":8857,"Ad":8858,"Ġpresented":8859,"ĠGoing":8860,"IF":8861,"good":8862,"Ġchalk":8863,"Ġtubes":8864,"Also":8865,"Ġjail":8866,"Ġswitching":8867,"RE":8868,"Ġbarrier":8869,"Ġrefuse":8870,"Ġlogin":8871,"conf":8872,"Ġcompassion":8873,"Ġash":8874,"Ġcontest":8875,"Ġentrance":8876,"Ġstraighten":8877,"ĠFirefox":8878,"low":8879,"Ġmul":8880,"ĠCert":8881,"intage":8882,"Ġpanels":8883,"Ġdefinition":8884,"ĠSecure":8885,"Ġcorresponding":8886,"Ġpliers":8887,"ĠVal":8888,"Ġrectangular":8889,"Ġorders":8890,"Ġ(\"":8891,"enced":8892,"ĠRegardless":8893,"Ġdemonstr":8894,"Ġvessels":8895,"54":8896,"ĠExcel":8897,"inyl":8898,"Ġgate":8899,"venue":8900,"iano":8901,"Ġtort":8902,"yes":8903,"Ġstoring":8904,"Ġdehydration":8905,"Ġcabinet":8906,"Ġcylinder":8907,"eries":8908,"ĠTex":8909,"Ġhandled":8910,"ĠOthers":8911,"Ġentertainment":8912,"Ġsociety":8913,"elf":8914,"beat":8915,"Ġpharmac":8916,"Ġcounts":8917,"ĠJapanese":8918,"Se":8919,"Ġinformed":8920,"Ġveterinary":8921,"Ġworkouts":8922,"Ġhel":8923,"Ġfootball":8924,"Ġbracelet":8925,").;":8926,"ĠFriends":8927,"Ġgrateful":8928,"Ġul":8929,"Ġinhale":8930,"Ġvocabulary":8931,"Ġthousands":8932,"ĠBend":8933,"Ġinvitation":8934,"Ġsword":8935,"Ġconfig":8936,"Save":8937,"Ġnights":8938,"Ġeverywhere":8939,"Ġdenom":8940,"ĠeBay":8941,"Ġcater":8942,"Ġheadache":8943,"Ġconsultation":8944,"inator":8945,"Ġpreserve":8946,"Ġmarking":8947,"Ġadvertise":8948,"Ġmillion":8949,"Cloud":8950,"Ġcuff":8951,"They":8952,"Ġdrainage":8953,"86":8954,"Ġtwenty":8955,"Ġsliced":8956,"Ġindoor":8957,"Ġmulti":8958,"Ġfemin":8959,"ipation":8960,"ubs":8961,"Ġpromise":8962,"Ġaccompan":8963,"Ġsatisfact":8964,"ĠMusic":8965,"Ġbolts":8966,"oper":8967,"atching":8968,"Ġtitles":8969,"ollen":8970,"Ġsymbols":8971,"Ġpars":8972,"Ġpacking":8973,"oman":8974,"Ġfrizz":8975,"Ġsear":8976,"Ġthrive":8977,"Ġmillilit":8978,"MS":8979,"cos":8980,"iency":8981,"rely":8982,"Ġwife":8983,"Ġstability":8984,"ĠIdentify":8985,"Ġvel":8986,"Ġforgot":8987,"kins":8988,"Ġseverity":8989,"Ġissued":8990,"ĠRegular":8991,"Ġbananas":8992,"ih":8993,"Ġbid":8994,"Ġlamp":8995,"ĠLab":8996,"reek":8997,"Ġslim":8998,"Ġsliding":8999,"Ġposted":9000,"ĠCommand":9001,"Ġfreedom":9002,"Go":9003,"Ġcraw":9004,"ĠThrow":9005,"Ġobserv":9006,"Ġsaturated":9007,"Ġgarnish":9008,"Ġchairs":9009,"Ġconsists":9010,"ĠVe":9011,"Ġgave":9012,"Ġmusical":9013,"Ġtendency":9014,"âĢľ":9015,"Ġid":9016,"Ġtears":9017,"Ġguilt":9018,"oken":9019,"ĠSqu":9020,"aping":9021,"cient":9022,"All":9023,"Ġfolding":9024,"Ġconfirmation":9025,"36":9026,"Ġaspir":9027,"Ġshall":9028,"ĠDist":9029,"Ġcooled":9030,"Ġpole":9031,"Ġ36":9032,"ission":9033,"Ġlocks":9034,"ĠCross":9035,"ĠPop":9036,"Ġspill":9037,"Ġcomplement":9038,"Ġsalary":9039,"tage":9040,"Ġexception":9041,"Ġfart":9042,"Ġrac":9043,"Ġaloe":9044,"olars":9045,"ĠPres":9046,"Ġproviders":9047,"Ġsurg":9048,"Ġliquids":9049,"ĠMedic":9050,"Ġcurtains":9051,"Ġdisappoint":9052,"Ġwaterproof":9053,"aneously":9054,"build":9055,"ĠWorking":9056,"Ġboys":9057,"Ġinsult":9058,"ĠShare":9059,"ĠFrid":9060,"Ġhunting":9061,"Ġwelcome":9062,"Ġgrid":9063,"Ġreturning":9064,"Ġsoothe":9065,"Ġov":9066,"Ġneither":9067,"ĠPol":9068,"ĠPack":9069,"ĠHar":9070,"ĠSuper":9071,"Ġcakes":9072,"ĠSy":9073,"ppings":9074,"Ġnoises":9075,"ĠAlternately":9076,"Ġantibiotic":9077,"xx":9078,"Ġpencils":9079,"Ġduty":9080,"Ġlyrics":9081,"Ġperm":9082,"ĠEl":9083,"ĠNon":9084,"Ġelectronics":9085,"erving":9086,"Ġsued":9087,"Ġdrip":9088,"Ġoverlap":9089,"Ġwarn":9090,"Ġsteep":9091,"Ġcrying":9092,"Ġservings":9093,"Ġreporting":9094,"Ġcoworker":9095,"den":9096,"Ġshares":9097,"Ġseats":9098,"Ġgardening":9099,"Ġinfant":9100,"Ġhundreds":9101,"lower":9102,"Ġknots":9103,"cope":9104,"ĠFormat":9105,"amiliar":9106,"Ġworms":9107,"ĠDevelop":9108,"Ġsoaked":9109,"Ġmand":9110,"Ġsaddle":9111,"Ġefficiently":9112,"Ġtune":9113,"Ġcolon":9114,"Ġauction":9115,"idal":9116,"Ġcarp":9117,"Ġammonia":9118,"Ġsexy":9119,"Ġ48":9120,"Ġresponding":9121,"Ġabsorbed":9122,"Ġretailers":9123,"istration":9124,"Ġbasketball":9125,"fessional":9126,"ĠCats":9127,"Ġsilic":9128,"Ġodds":9129,"imen":9130,"Ġcrushed":9131,"ĠTransfer":9132,"Ġrepeatedly":9133,"onym":9134,"imp":9135,"Ġprolong":9136,"Ġchip":9137,"Ġnative":9138,"cem":9139,"Ġcontracts":9140,"Ġcollected":9141,"Ġgathering":9142,"itize":9143,"coal":9144,"obe":9145,"Ġconfusing":9146,"Ġarrangements":9147,"ĠAust":9148,"Ġheader":9149,"Ġarthritis":9150,"Ġbuildings":9151,"Ġdiary":9152,"Ġlettuce":9153,"Ġoint":9154,"ĠThings":9155,"Ġguides":9156,"Ġpigs":9157,"rag":9158,"xual":9159,"Ġworker":9160,"Ġmanaging":9161,"Ġdiagnosed":9162,"Ġshrink":9163,"rets":9164,"Ġfest":9165,"heme":9166,"Ġoval":9167,"Ġtennis":9168,"Ġearned":9169,"aby":9170,"Ġfollowers":9171,"Ġvisits":9172,"Ġkilling":9173,"ersonal":9174,"glasses":9175,"Ġlucky":9176,"Ġpest":9177,"Ġparas":9178,"Ġinjection":9179,"Sign":9180,"Ġomega":9181,"ĠmL":9182,"Ġrail":9183,"ĠGather":9184,"Ġpotassium":9185,"Ġfriendships":9186,"Pal":9187,"Ġcarbs":9188,"ĠRef":9189,"Ġcolleges":9190,"Ġirritated":9191,"Ġtread":9192,"Ġpel":9193,"Ġawesome":9194,"Choose":9195,"Ġcables":9196,"Ġdislike":9197,"Ġ300":9198,"Ġforgive":9199,"Ġsurge":9200,"ĠProper":9201,"Ġscrubbing":9202,"NA":9203,"Ġtablets":9204,"Ġcompensation":9205,"hab":9206,"Ġpap":9207,"Ġfright":9208,"ema":9209,"sheet":9210,"55":9211,"rams":9212,"Ġflatten":9213,"Ġrapidly":9214,"Ġalleviate":9215,"Ġsyringe":9216,"stone":9217,"Ġperiodically":9218,"aters":9219,"Ġdys":9220,"Ġattrib":9221,"Ġpressed":9222,"Ġpacked":9223,"Ġsadness":9224,"Pr":9225,"Ġbean":9226,"Ġdece":9227,"ĠBox":9228,"agger":9229,"Ġreadily":9230,"Ġkits":9231,"Ġinstruction":9232,"Ġcolumns":9233,"Ġpassionate":9234,"Ġcort":9235,"Ġgly":9236,"Ġbowel":9237,"Ġgravel":9238,"Ġdisappear":9239,"Ġtracking":9240,"Ġvice":9241,"Ġentitled":9242,"itle":9243,"ĠUlt":9244,"Ġbeds":9245,"Ġkissing":9246,"ha":9247,"Ġsulf":9248,"Ġfitting":9249,"print":9250,"Ġmoisturizing":9251,"Ġweeds":9252,"Ġventil":9253,"Ġtobacco":9254,"Ġghost":9255,"Ġorg":9256,"Ġsuicide":9257,"Ġsnip":9258,"Ġfacilities":9259,"ĠAccept":9260,"Ġstrainer":9261,"writing":9262,"oubles":9263,"Ġfreezing":9264,"Ġreported":9265,"Ġvertically":9266,"ĠCommun":9267,"IV":9268,"Ġweird":9269,"fall":9270,"Ġbending":9271,"Ġvegan":9272,"Ġmembership":9273,"Ġdisposable":9274,"agging":9275,"Ġdespite":9276,"Ġdistress":9277,"izzle":9278,"Ġutens":9279,"ascular":9280,"Ġsynthetic":9281,"ien":9282,"owing":9283,"call":9284,"Ġbatch":9285,"Ġneeding":9286,"Ġnewer":9287,"Ġsuscept":9288,"oul":9289,"esus":9290,"Ġlash":9291,"Ġabusive":9292,"Ġspecified":9293,"aborate":9294,"Ġbristles":9295,"home":9296,"mosp":9297,"Ġcider":9298,"Ġcentered":9299,"Ġadminister":9300,"Ġnumerous":9301,"IS":9302,"Ġseiz":9303,"ĠHT":9304,"Ġincom":9305,"Ġfitted":9306,"Ġlanguages":9307,"Tr":9308,"Ġlies":9309,"stery":9310,"Ġrenew":9311,"Ġdisconnect":9312,"Ġbehalf":9313,"Ġroles":9314,"Ġtraps":9315,"Ġsamples":9316,"Ġmit":9317,"Ġ32":9318,"Ġmilliliters":9319,"ended":9320,"ĠMP":9321,"Ġacidic":9322,"ĠOptions":9323,"Ġdebit":9324,"ĠRequ":9325,"Ġburst":9326,"Ġinstantly":9327,"Ġtrends":9328,"ĠQuick":9329,"ĠMail":9330,"Ġmane":9331,"Ġvisitors":9332,"Ġmountain":9333,"earing":9334,"Ġkindness":9335,"Ġelectro":9336,"Ġlegitimate":9337,"CD":9338,"nic":9339,"Ġmast":9340,"esium":9341,"Ġdistinct":9342,"ĠTouch":9343,"Ġcone":9344,"Ġ\"=":9345,"Ġbaseball":9346,"Ġrug":9347,"Ġkil":9348,"ĠBlend":9349,"enic":9350,"Ġlaser":9351,"Ġmant":9352,"Ġtissues":9353,"Ġexpertise":9354,"Ġblended":9355,"Ġcontractor":9356,"Ġfigures":9357,"Ġpermanently":9358,"ji":9359,"Ġstance":9360,"ĠCard":9361,"ĠWriting":9362,"aching":9363,"Ġpopcorn":9364,"Ġoperation":9365,"Ġnewspapers":9366,"Ġownership":9367,"Ġwar":9368,"ĠSP":9369,"ivered":9370,"Ġdiapers":9371,"ĠWeb":9372,"Ġconstruct":9373,"Ġfeathers":9374,"Ġmodify":9375,"Ġfrustration":9376,"Ġtrapped":9377,"Ġpouring":9378,"fly":9379,"Ġunion":9380,"ĠMem":9381,"Ġanswering":9382,"Ġpublication":9383,"code":9384,"fiber":9385,"Ġtaught":9386,"ours":9387,"ĠElect":9388,"Ġpoet":9389,"Ġpenet":9390,"Ġcocoa":9391,"Ġdiscipline":9392,"AS":9393,"EO":9394,"char":9395,"Ġinvesting":9396,"Ġtoothpick":9397,"Ġstopped":9398,"Ġprayer":9399,"Ġunhappy":9400,"ĠGmail":9401,"ĠVer":9402,"Ġconsole":9403,"Ġcreativity":9404,"bet":9405,"Ġdecimal":9406,"Ġproducing":9407,"Ġapproaches":9408,"Ġviewing":9409,"ĠYes":9410,"Ġblogs":9411,"ĠAp":9412,"itives":9413,"Ġpans":9414,"irls":9415,"cean":9416,"Ġacceler":9417,"Ġrescue":9418,"Ġserves":9419,"Ġweaknesses":9420,"Ġclinic":9421,"He":9422,"Ġalive":9423,"Ġenroll":9424,"Ġdiscussed":9425,"Ġenabled":9426,"Ġpuzzle":9427,"worthy":9428,"Ġelectricity":9429,"Ġposter":9430,"Ġlanding":9431,"break":9432,"Ġtasty":9433,"onin":9434,"Ġabnormal":9435,"Ġdragon":9436,"ĠExplorer":9437,"Ġspider":9438,"ĠRo":9439,"Ġpeers":9440,"Ġscope":9441,"Ġairport":9442,"Ġchildhood":9443,"Ġdump":9444,"Ġforever":9445,"Ġindicator":9446,"Ġcy":9447,"lee":9448,"Ġatmosp":9449,"Ġproceeding":9450,"usions":9451,"Ġtopical":9452,"Ġregret":9453,"Ġcutter":9454,"Ġ400":9455,"Ġcatching":9456,"Ġcomplaints":9457,"âģ¡":9458,"Ġglucose":9459,"ĠDoc":9460,"Ġbund":9461,"Ġreleases":9462,"Ġbees":9463,"iances":9464,"ĠClass":9465,"ĠInvest":9466,"Ġinstruct":9467,"omatic":9468,"Ġexterior":9469,"Ġrespiratory":9470,"Ġaccounting":9471,"Ġsensation":9472,"Ġow":9473,"atically":9474,"Ġmig":9475,"estern":9476,"Ġcans":9477,"asm":9478,"Ġcogn":9479,"ĠChances":9480,"Ġreply":9481,"Ġpsychological":9482,"Ġoverweight":9483,"Ġstrangers":9484,"Ġounce":9485,"Ġups":9486,"standing":9487,"ĠSmith":9488,"Ġcandidates":9489,"Ġpil":9490,"ĠJesus":9491,"Ġadjusting":9492,"Ġdiagnose":9493,"Ġassemb":9494,"inates":9495,"Ġenvironmental":9496,"pendicular":9497,"Ġdiscrimination":9498,"ĠShift":9499,"Ġcords":9500,"effect":9501,"Ġsuited":9502,"Ġcounting":9503,"minute":9504,"Ġduck":9505,"Ġfinds":9506,"Ġautom":9507,"Ġdistracting":9508,"Talk":9509,"Ġabras":9510,"Ġconserv":9511,"Ġcurly":9512,"Ġapproval":9513,"Ġhalves":9514,"Create":9515,"inging":9516,"tery":9517,"Ġinstinct":9518,"Ġshed":9519,"Ġhorizontally":9520,"Ġgrout":9521,"Ġassistant":9522,"marks":9523,"Ġcrackers":9524,"ĠGlue":9525,"bow":9526,"iac":9527,"Ġbeats":9528,"Ġlayout":9529,"Ġcreamy":9530,"aning":9531,"Ġrif":9532,"Ġevapor":9533,"Ġcombinations":9534,"Ġremedy":9535,"kewarm":9536,"ĠEventually":9537,"Ġpens":9538,"Ġmos":9539,"Ġpoke":9540,"Ġlessen":9541,"Ġpackages":9542,"Ġaffordable":9543,"IC":9544,"Ġstyl":9545,"Ġrig":9546,"ĠClear":9547,"ĠWashing":9548,"Ġphil":9549,"Not":9550,"Ġdiets":9551,"Ġwriters":9552,"Ġmicrop":9553,"Ġpoult":9554,"Ġscream":9555,"Ġflirt":9556,"Ġcreep":9557,"Ġfinances":9558,"Ġsprays":9559,"strual":9560,"ĠPin":9561,"Ġgrime":9562,"Ġbathing":9563,"Ġflap":9564,"ĠInv":9565,"Ġexpressing":9566,"Ġprospective":9567,"Ġsusceptible":9568,"produ":9569,"Ġnipp":9570,"ĠSouth":9571,"indle":9572,"Ġnewly":9573,"Ġoccurred":9574,"Ġfleas":9575,"Ġgrind":9576,"Ġrecorded":9577,"obile":9578,"Ġtuna":9579,"Ġdistingu":9580,"Ġgraphic":9581,"Ġelderly":9582,"gines":9583,"Ġpositioned":9584,"Ġsquat":9585,"ĠFeed":9586,"Ġmetabolism":9587,"ĠDogs":9588,"Ġwasn":9589,"Ġmad":9590,"Ġstations":9591,"Ġanest":9592,"Ġvintage":9593,"Ġweakness":9594,"ĠFinish":9595,"Ġcushion":9596,"ĠAccess":9597,"ÏĢ":9598,"Ġscheme":9599,"ĠServices":9600,"Ġcontroller":9601,"Ġassum":9602,"Ġstrongly":9603,"Ġnutrient":9604,"Ġdiagonal":9605,"Ġperpendicular":9606,"Ġcollecting":9607,"Ġfloat":9608,"Ġvaginal":9609,"Ġdynam":9610,"Ġduties":9611,"stock":9612,"Ġnotification":9613,"Ġcheer":9614,"ĠTexas":9615,"Ġcalf":9616,"Ġinvestig":9617,"Ġsuspicious":9618,"ĠBreak":9619,"Ġfingertips":9620,"ouses":9621,"Ġdifficulties":9622,"Ġachieved":9623,"ĠPhys":9624,"Ġpeppermint":9625,"ĠFriday":9626,"ES":9627,"Ġfluffy":9628,"power":9629,"Ġsake":9630,"Ġmaps":9631,"Ġchili":9632,"ĠWar":9633,"feeding":9634,"Ġoccasional":9635,"Ġauthentic":9636,"Ġbumps":9637,"anes":9638,"ĠIS":9639,"Ġwallet":9640,"ĠCourt":9641,"ĠFigure":9642,"Ġapology":9643,"Ġpunct":9644,"ĠJoin":9645,"Ġcosmet":9646,"64":9647,"Ġthirty":9648,"Ġfoster":9649,"Ġconditioning":9650,"Ġintroducing":9651,"Ġhats":9652,"Ġsilent":9653,"Ġattempts":9654,"Ġcamping":9655,"',":9656,"Ġspecialize":9657,"Ġinterviews":9658,"Ġfauc":9659,"Ġalphabet":9660,"Ġwing":9661,"Ġerase":9662,"Ġpell":9663,"Ġcaut":9664,"Ġcalmly":9665,"Ġsweating":9666,"azz":9667,"Ġthreads":9668,"Ġresistant":9669,"Ġpiano":9670,"aky":9671,"Ġinstruments":9672,"Ġremedies":9673,"Ġnerves":9674,"Ġsubstit":9675,"Dr":9676,"Ġcues":9677,"Ġgranted":9678,"Ġobtained":9679,"Ġpond":9680,"Ġvinyl":9681,"Ġlukewarm":9682,"iated":9683,"ppers":9684,"Ġaccuracy":9685,"Ġdropping":9686,"Ġaligned":9687,"ahoo":9688,"Ġvagina":9689,"TS":9690,"ĠPS":9691,"Ġindicated":9692,"Ġsupervisor":9693,"looking":9694,"inent":9695,"Ġwal":9696,"Ġinn":9697,"ested":9698,"ĠWould":9699,"Ġcomprehens":9700,"Ġinstances":9701,"Ġrecommends":9702,"Ġcontinu":9703,"add":9704,"ĠMode":9705,"reated":9706,"Ġlimitations":9707,"Ġindication":9708,"section":9709,"ĠGreat":9710,"Ġdressed":9711,"Ġgratitude":9712,"Ġmulch":9713,"ico":9714,"Ġpatent":9715,"Ġdesigner":9716,"forward":9717,"idav":9718,"Ġwrists":9719,"Ġtransmit":9720,"Ġlasting":9721,"Ġpulse":9722,"Ġhunger":9723,"Ġpartially":9724,"Ġcharcoal":9725,"Ġrefres":9726,"Ġdimensions":9727,"IP":9728,"xy":9729,"Ġkittens":9730,"Ġstarter":9731,"ban":9732,"Ġ_{":9733,"Ġremoves":9734,"Sp":9735,"Ġtill":9736,"Ġowe":9737,"Ġvote":9738,"pur":9739,"Ġengines":9740,"bone":9741,"Ġlumps":9742,"Ġblur":9743,"Ġimproves":9744,"xting":9745,"Ġfailed":9746,"icit":9747,"ĠCustom":9748,"Ġapproaching":9749,"Ġcabbage":9750,"Ġobstacles":9751,"ĠFurther":9752,"Ġnotify":9753,"Ġforums":9754,"icted":9755,"Ġgenerous":9756,"Ġzinc":9757,"aneous":9758,"Ġcalculated":9759,"boy":9760,"Ġply":9761,"Ġreturned":9762,"Ġgreeting":9763,"Ġfond":9764,"Ġallowance":9765,"Ġhooks":9766,"ĠRecord":9767,"Ġsugary":9768,"perate":9769,"Ġtons":9770,"Ġinward":9771,"Ġgrief":9772,"Ġcrunch":9773,"Ġencouraging":9774,"ĠTalking":9775,"ĠWin":9776,"Ġbeginner":9777,"Ġbehave":9778,"ĠSeek":9779,"balls":9780,"Ġdomestic":9781,"Ġstencil":9782,"Ġblond":9783,"Ġvolunteering":9784,"nut":9785,"Ġrejection":9786,"Ġceremony":9787,"ĠLin":9788,"Ġflirting":9789,"ĠAustral":9790,"qrt":9791,"Ġimproved":9792,"ritious":9793,"Have":9794,"ĠiCloud":9795,"Ġparsley":9796,"Ġfres":9797,"ĠPublic":9798,"Ġslides":9799,"Ġnicely":9800,"Ġathletic":9801,"Ġlandsc":9802,"bra":9803,"Ġdizz":9804,"olution":9805,"Ġcloves":9806,"Ġtimeline":9807,"Ġgrape":9808,"ĠPayPal":9809,"Ġbriefly":9810,"Ġcelery":9811,"pel":9812,"Ġspect":9813,"Ġeyelid":9814,"Ġappointments":9815,"Ġwrench":9816,"ocation":9817,"Ġ180":9818,"Ġsync":9819,"aven":9820,"vy":9821,"ĠSatur":9822,"ĠMot":9823,"Ġirregular":9824,"Ġseasoning":9825,"Ġants":9826,"Ġrelatives":9827,"fold":9828,"uling":9829,"Ġmailing":9830,"natural":9831,"Ġuter":9832,"Ġrit":9833,"Ġkale":9834,"Ġreps":9835,"Ġdeadlines":9836,"Ġparagraphs":9837,"Ġbind":9838,"Ġ22":9839,"Ġsticker":9840,"Ġmaximize":9841,"Ġpipes":9842,"Ġpunishment":9843,"tles":9844,"Ġbust":9845,"Ġvib":9846,"Ġresent":9847,"ugged":9848,"Ġankles":9849,"Ġwithdrawal":9850,"Ġoats":9851,"Ġstarch":9852,"ideo":9853,"Ġintact":9854,"Ġinfo":9855,"Ġdad":9856,"ĠDig":9857,"Ġswollen":9858,"Ġaccompany":9859,"Ġthyroid":9860,"Ġhelped":9861,"ĠArrange":9862,"Ġfrying":9863,"omething":9864,"Ġdistraction":9865,"PC":9866,"Ġbacks":9867,"ĠSoak":9868,"Ġagreed":9869,"ĠNetwork":9870,"Ġeffectiveness":9871,"Ġnutritious":9872,"ĠBrit":9873,"nia":9874,"ĠAf":9875,"Ġrh":9876,"Ġupgrade":9877,"ancer":9878,"Ġseparation":9879,"Ġconstipation":9880,"brace":9881,"Ġgerms":9882,"ken":9883,"Ġicons":9884,"Ġcautious":9885,"Ġtexting":9886,"Ġsmoother":9887,"Ġweekends":9888,"Ġpublisher":9889,"ĠRock":9890,"Ġleafy":9891,"Ġlicensing":9892,"Ġstated":9893,"ĠCanada":9894,"ĠFederal":9895,"Ġvase":9896,"Ġposes":9897,"Ġdrama":9898,"Ġvariations":9899,"length":9900,"Ġcyst":9901,"ĠMex":9902,"andon":9903,"Ġoffensive":9904,"Ġqualifications":9905,"Think":9906,"Ġhairspray":9907,"Ġhistorical":9908,"Ġconvin":9909,"TC":9910,"ĠSun":9911,"ĠLow":9912,"ĠView":9913,"Ġparks":9914,"Ġcav":9915,"ĠLower":9916,"Ġcramps":9917,"Ġdelivered":9918,"Ġstaple":9919,"Ġdigit":9920,"Ġtradem":9921,"Ġribs":9922,"ĠMinecraft":9923,"Ġpeak":9924,"Ġalongside":9925,"ĠPrint":9926,"Res":9927,"Ġpopulation":9928,"Ġcommunicating":9929,"Ġtackle":9930,"Ġcouples":9931,"Ġcabinets":9932,"Ġnostr":9933,"Ġlocker":9934,"Ġantibacterial":9935,"Ġsleeve":9936,"29":9937,"atched":9938,"ĠDress":9939,"Ġobligations":9940,"Ġatmosphere":9941,"Ġwishes":9942,"arer":9943,"ĠProtect":9944,"Ġalmonds":9945,"ĠBake":9946,"ocol":9947,"Ġsensitivity":9948,"Pl":9949,"Ġupcoming":9950,"Ġthrown":9951,"Ġson":9952,"Ġpy":9953,"ĠMag":9954,"Ġskew":9955,"ĠCra":9956,"Ġregulate":9957,"Ġpassive":9958,"Ġvera":9959,"Ġwhis":9960,"Ġextent":9961,"Ġwarmth":9962,"Ġfreshly":9963,"Ġcelebrate":9964,"Ġbiting":9965,"Ġfocuses":9966,"ĠFlip":9967,"Ġphotographer":9968,"ĠWell":9969,"Ġpastry":9970,"ĠEmploy":9971,"Note":9972,"Ġequipped":9973,"Ġtint":9974,"ĠSchool":9975,"Ġproh":9976,"Ġvegetarian":9977,"ĠSwitch":9978,"Ġscenario":9979,"vascular":9980,"gree":9981,"Ġwhichever":9982,"Ġreceives":9983,"ĠUnivers":9984,"Ġappliances":9985,"lishing":9986,"Ġcue":9987,"ained":9988,"Ġvot":9989,"Ġbabys":9990,"ĠReading":9991,"from":9992,"ĠFamily":9993,"ĠLaw":9994,"ĠFlor":9995,"Ġfist":9996,"ĠSchedule":9997,"Ġcrafting":9998,"AN":9999,"Ġrank":10000,"ĠItal":10001,"Ġcupcakes":10002,"ĠSuch":10003,"Ġmortar":10004,"33":10005,"ictions":10006,"Ġlawyers":10007,"ĠST":10008,"ĠTrim":10009,"mel":10010,"Ġlact":10011,"Ġcomed":10012,"amboo":10013,"Ġsequence":10014,"Ġbrick":10015,"Ġimportantly":10016,"Ġcaramel":10017,"Instead":10018,"Ġdumbbell":10019,"Ġhonor":10020,"apse":10021,"Ġsmartphone":10022,"Ġcrystals":10023,"Ġpist":10024,"Ġsunglasses":10025,"Ġinvestors":10026,"Ġfulfill":10027,"Ġaggression":10028,"Ġepisode":10029,"gly":10030,"Ġbrew":10031,"Ġscales":10032,"Ġornam":10033,"Ġplaylist":10034,"arness":10035,"lessly":10036,"Ġwarranty":10037,"edia":10038,"Ġexempt":10039,"Ġspawn":10040,"ĠEqu":10041,"Ġbeard":10042,"Ġcomic":10043,"Ġtestify":10044,"Ġstocks":10045,"Ġlenders":10046,"Ġshaft":10047,"Ġconvent":10048,"Ġrecruit":10049,"Ġeleg":10050,"Ġinstitution":10051,"ĠAlcohol":10052,"Ġinvestigate":10053,"Ġvariables":10054,"rant":10055,"role":10056,"ĠGiving":10057,"Ġheadband":10058,"Ġgreatest":10059,"away":10060,"Ġabandon":10061,"iva":10062,"Ġdiff":10063,"Ġpolitely":10064,"they":10065,"Ġcolleagues":10066,"Ġstained":10067,"making":10068,"anking":10069,"Ġequals":10070,"Ġscratches":10071,"Ġitchy":10072,"foot":10073,"idth":10074,"Ġnotary":10075,"reement":10076,"Ġtongs":10077,"rofen":10078,"nes":10079,"tion":10080,"ulas":10081,"Ġlightweight":10082,"Ġdiscolor":10083,"Ġnetworks":10084,"Ġfranchise":10085,"zers":10086,"Ġloy":10087,"queeze":10088,"Ġawhile":10089,".\",":10090,"Ġbadly":10091,"Ġimagination":10092,"Ġbackyard":10093,"mill":10094,"ĠBat":10095,"Ġillnesses":10096,"fin":10097,"eling":10098,"Ġturtle":10099,"worms":10100,"Ġvariation":10101,"Ġantioxidants":10102,"Ġroutines":10103,"stood":10104,"rolling":10105,"Ġendor":10106,"ycles":10107,"ĠDivide":10108,"bered":10109,"Ġprompts":10110,"backs":10111,"Ġnorth":10112,"ĠOnline":10113,"Ġstubborn":10114,"Ġgaining":10115,"Ġabst":10116,"ĠLevel":10117,"roduce":10118,"Ġchemistry":10119,"athered":10120,"Ġinteracting":10121,"Always":10122,"rix":10123,"reath":10124,"Ġdonation":10125,"Ġunknown":10126,"Ġairline":10127,"Ġdealers":10128,"preview":10129,"ĠKey":10130,"Ġdiscovery":10131,"Ġaudition":10132,"Ġfunctioning":10133,"Ġaerobic":10134,"Ġsurgical":10135,"\").":10136,"aved":10137,"ĠText":10138,"uk":10139,"Ġtrop":10140,"Ġprofessionally":10141,"Ġmanageable":10142,".),":10143,"sin":10144,"ĠSal":10145,"Ġactors":10146,"Ġinviting":10147,"Ġstructures":10148,"ĠCa":10149,"igned":10150,"Ġsimult":10151,"flower":10152,"oir":10153,"olen":10154,"unci":10155,"uprofen":10156,"Ġcorporation":10157,"Ġdistilled":10158,"ĠComp":10159,"Ġgraphics":10160,"ĠSupport":10161,"Ġspicy":10162,"ĠIts":10163,"boards":10164,"Ġzoom":10165,"Ġ120":10166,"Ġphilos":10167,"hist":10168,"Ġbounce":10169,"entive":10170,"Ġroses":10171,"Ġplanner":10172,"Ġtransform":10173,"ĠXP":10174,"Ġquantity":10175,"ege":10176,"Ġstall":10177,"Ġnobody":10178,"Ġregimen":10179,"Ġlob":10180,"Ġsocket":10181,"Ġstyling":10182,"Ġconsumer":10183,"Ġcultures":10184,"Ġparticipants":10185,"ĠCO":10186,"Ġmotivate":10187,"Ġguardian":10188,"Ġchains":10189,"Ġweaken":10190,"Ġreminder":10191,"pd":10192,"Ġdefect":10193,"Ġdecorating":10194,"Ġaccomplished":10195,"ĠHard":10196,"Ġpaints":10197,"Ġinvestments":10198,"Ġexpressions":10199,"Ġquietly":10200,"Ġchannels":10201,"Ġchords":10202,"icul":10203,"Ġstating":10204,"Ġlistener":10205,"Ġoperations":10206,"times":10207,"ĠStret":10208,"Ġmarin":10209,"Ġodors":10210,"New":10211,"Ġsouth":10212,"iches":10213,"starch":10214,"ipolar":10215,"Ġcramp":10216,"Ġvisually":10217,"Ġaffecting":10218,"ĠAdv":10219,"puter":10220,"ĠPerform":10221,"ĠSomeone":10222,"Ġcurious":10223,"ĠSecond":10224,"Ġlaughing":10225,"21":10226,"itors":10227,"Ġscare":10228,"Ġopenings":10229,"helor":10230,"Ġcoupons":10231,"()":10232,"ora":10233,"Ġhoop":10234,"ĠExpect":10235,"ĠFinding":10236,"Ġparticipating":10237,"Ġmenstrual":10238,"Ġbenefici":10239,"Ġhurts":10240,"Ġpineapple":10241,"ĠExperiment":10242,"ca":10243,"shirts":10244,"Ġtemptation":10245,"Ġorgans":10246,"block":10247,"orge":10248,"quit":10249,"Ġlowering":10250,"Ġpositively":10251,"Ġsmoothie":10252,"Ġrecognized":10253,"Ġgestures":10254,"Ġsatisfaction":10255,"roleum":10256,"AD":10257,"Ġtilt":10258,"Ġladder":10259,"Ġchap":10260,"Ġ28":10261,"Ġroommate":10262,"ugar":10263,"Ġversa":10264,"Con":10265,"ri":10266,"Ġwaking":10267,"Ġmites":10268,"istant":10269,"Ġliters":10270,"ĠDisney":10271,"Ġmagnesium":10272,"ping":10273,"ilant":10274,"Ġcentimeter":10275,"Ġsacr":10276,"Ġdermatologist":10277,"bor":10278,"Ġlump":10279,"ĠMS":10280,"Ġadhere":10281,"Ġstap":10282,"ĠPlease":10283,"Ġrepay":10284,"ĠBlu":10285,"Ġtrading":10286,"Ġoccasions":10287,"ĠRecogn":10288,"ingle":10289,"Ġdict":10290,"Ġpros":10291,"ĠEduc":10292,"Ġliterally":10293,"Ġaspirin":10294,"ĠComplete":10295,"Ġformatting":10296,"Ġfeminine":10297,"Ġhired":10298,"estion":10299,"respect":10300,"odge":10301,"Ġgrit":10302,"Ġrestr":10303,"Ġpacks":10304,"ĠNothing":10305,"Ġassociations":10306,"Ġembarrassing":10307,"Ġgenuinely":10308,"Ġcitation":10309,"Ġdying":10310,"iler":10311,"upid":10312,"ception":10313,"Ġscholars":10314,"sqrt":10315,"Ġgross":10316,"acer":10317,"ĠBible":10318,"Ġheadphones":10319,"Ġredirect":10320,"Ġadjusted":10321,"Ġspreadsheet":10322,"RO":10323,"Ġmug":10324,"amination":10325,"Ġdoses":10326,"ĠPlant":10327,"Ġloaded":10328,"Ġtoxins":10329,"Ġlun":10330,"Ġstorm":10331,"Ġseams":10332,"Ġflood":10333,"Ġbreakup":10334,"ountain":10335,"Ġenvironments":10336,"Ġacquaint":10337,"48":10338,"IT":10339,"ĠBig":10340,"Ġpartnership":10341,"iations":10342,"Ġwary":10343,"Ġforces":10344,"Ġbitter":10345,"Ġsunny":10346,"apply":10347,"Ġwhipped":10348,"Ġexceed":10349,"Ġoptimal":10350,"Ġbinder":10351,"Ġharness":10352,"Ġstolen":10353,"Ġshaking":10354,"Ġket":10355,"Ġbackward":10356,"Ġstudio":10357,"Ġdiscounts":10358,"Ġelevated":10359,"Ġbobby":10360,"Ġburned":10361,"ĠFlorida":10362,"atile":10363,"oline":10364,"Ġadapter":10365,"Ġflea":10366,"Ġdeodorant":10367,"ĠAP":10368,"Ġreleasing":10369,"rying":10370,"Ġtwee":10371,"Ġinformal":10372,"Ġbeginners":10373,"ttes":10374,"Ġrasp":10375,"Ġtriangles":10376,"Ġjogging":10377,"Ġsubstantial":10378,"Ġbinding":10379,"Ġcurves":10380,"Ġsplash":10381,"Ġfifteen":10382,"encing":10383,"ĠSpecial":10384,"uctions":10385,"Ġsmallest":10386,"Ġaffirm":10387,"Ġdistributed":10388,"Ġwipes":10389,"Ġgenetic":10390,"Ġensuring":10391,"Ġrehe":10392,"ĠDM":10393,"Ġprotecting":10394,"Ġplywood":10395,"Ġflare":10396,"Ġnumb":10397,"Ġcrossing":10398,"Ġcement":10399,"itating":10400,"Ġexists":10401,"ĠHTML":10402,"Ġrounds":10403,"Ġpersu":10404,"type":10405,"arring":10406,"Ġassessment":10407,"Ġpor":10408,"Ġdigits":10409,"Ġgauze":10410,"Ġmechanism":10411,"Ġplatforms":10412,"Ġdeleted":10413,"ĠLinux":10414,"ĠHair":10415,"Ġquarters":10416,"walk":10417,"Ġskate":10418,"Ġago":10419,"ylon":10420,"Ġeyelashes":10421,"Ġtwisting":10422,"ĠSep":10423,"Ġlever":10424,"Ġcourth":10425,"onic":10426,"child":10427,"Ġclamp":10428,"Ġbloom":10429,"Ġperimeter":10430,"tee":10431,"Ġstripes":10432,"Ġvaccine":10433,"Ġcer":10434,"ĠGame":10435,"Ġdisturb":10436,"Ġ65":10437,"Ġspraying":10438,"Ġfries":10439,"uration":10440,"Ġsubm":10441,"Ġaccomplishments":10442,"Ġcognitive":10443,"Ġcreation":10444,"Ġenjoyed":10445,"omile":10446,"Ġcurren":10447,"Ġincorporated":10448,"Ġworries":10449,"Ġclassmates":10450,"Ġsupermark":10451,"Ġphotography":10452,"Ġmanufacturers":10453,"Ġenforcement":10454,"Ġfet":10455,"Ġworsen":10456,"Ġbraids":10457,"Ġferment":10458,"Ġmart":10459,"chat":10460,"ĠWearing":10461,"Ġadministrator":10462,"Ġbou":10463,"Ġaccidents":10464,"Ġsolving":10465,"stream":10466,"ĠPain":10467,"Ġnozzle":10468,"html":10469,"Ġhike":10470,"workers":10471,"Ġlids":10472,"allic":10473,"Ġbrass":10474,"Ġstray":10475,"specific":10476,"ĠLife":10477,"Ġtransferred":10478,"Ġlatex":10479,"Ġsilicone":10480,"tling":10481,"Ġmarsh":10482,"ĠSil":10483,"Ġcommunities":10484,"Ġresponds":10485,"Ġsimplest":10486,"ĠSand":10487,"quet":10488,"Ġcattle":10489,"Ġmyself":10490,"Ġkilled":10491,"Ġuniversities":10492,"Open":10493,"bling":10494,"ĠSqueeze":10495,"Ġclinical":10496,"Ġmicrophone":10497,"Ġongoing":10498,"entimes":10499,"Ġfloral":10500,"Ġdeceased":10501,"ĠLive":10502,"Ġprotects":10503,"ĠGerman":10504,"Ġliking":10505,"ĠDO":10506,"Ġflaws":10507,"ĠYahoo":10508,"Ġmomentum":10509,"Apply":10510,"Ġschedules":10511,"Ġwis":10512,"hesis":10513,"Ġaddressed":10514,"Ġarmor":10515,"Ġlicenses":10516,"pell":10517,"Ġscars":10518,"Ġadmire":10519,"ĠIr":10520,"Ġshame":10521,"ĠCat":10522,"Ġenerg":10523,"Ġocean":10524,"ĠUt":10525,"Ġinitiate":10526,"Ġreception":10527,"mind":10528,"Ġthaw":10529,"Ġrecur":10530,"Ġmainly":10531,"ĠProm":10532,"Ġtu":10533,"Ġsores":10534,"ennel":10535,"Ġplayful":10536,"Ġ360":10537,"ĠShake":10538,"ĠwikiHow":10539,"ĠJe":10540,"Ġsharpen":10541,"Ġles":10542,"entials":10543,"Ġtalents":10544,"Ġbarely":10545,"Ġaccompanied":10546,"Ġpoetry":10547,"onts":10548,"ĠMaster":10549,"Ġcoarse":10550,"Ġblending":10551,"Ġdiscussions":10552,"Ġgesture":10553,"Ġsimultaneously":10554,"Ġconference":10555,"Ġloosely":10556,"Ġgallons":10557,"Ġclockwise":10558,"pace":10559,"held":10560,"Ġtheory":10561,"ĠParent":10562,"Ġforest":10563,"Ġcardiovascular":10564,"Ġtbsp":10565,"Ġnod":10566,"Ġformation":10567,"ologists":10568,"Ġzipper":10569,"Ġcupcake":10570,"ĠAud":10571,"ĠSund":10572,"At":10573,"Ġtofu":10574,"Ġseated":10575,"Ġspoken":10576,"Ġblem":10577,"Ġsilence":10578,"Ġflakes":10579,"Ġhopefully":10580,"uana":10581,"rock":10582,"ĠWood":10583,"ureau":10584,"Ġarrows":10585,"fitting":10586,"Ġneatly":10587,"Ġpharmacy":10588,"Ġunderside":10589,"Ġcheating":10590,"Ġpractition":10591,"Ġburner":10592,"Ġexcit":10593,"Ġconsumed":10594,"Ġlone":10595,"ĠVir":10596,"autions":10597,"Ġvirtual":10598,"Ġshredded":10599,"ĠAfric":10600,"uary":10601,"Ġ____":10602,"acent":10603,"Ġradius":10604,"Ġconfidential":10605,"Ġhonestly":10606,"heart":10607,"arate":10608,"Ġended":10609,"Ġinterface":10610,"Ġconfir":10611,"Ġviolation":10612,"otal":10613,"Ġrays":10614,"Ġscam":10615,"Ġchickens":10616,"Ġobstru":10617,"ĠHit":10618,"Ġportable":10619,"Ġproposal":10620,"Ġinsulation":10621,"Ġhardest":10622,"Ġinvitations":10623,"Ġmarkets":10624,"Ġcrafts":10625,"Ġprecautions":10626,"Ġmemorize":10627,"Ġdeed":10628,"Ġcheat":10629,"Ġclutter":10630,"izard":10631,"Ġpersistent":10632,"Ġchees":10633,"Ġcork":10634,"Ġartwork":10635,"Ġquantities":10636,"ĠPanel":10637,"Ġjurisdiction":10638,"SS":10639,"step":10640,"ĠTem":10641,"ĠEst":10642,"Ġannounce":10643,"Ġevaluation":10644,"ĠAbout":10645,"Ġchlorine":10646,"Ġpermits":10647,"Bl":10648,"file":10649,"Ġpud":10650,"ĠEnd":10651,"Ġyards":10652,"Ġflats":10653,"Ġemo":10654,"Ġarc":10655,"Ġstuds":10656,"Ġhosting":10657,"Ġpedal":10658,"don":10659,"also":10660,"Ġdesires":10661,"idavit":10662,"Ġwick":10663,"Ġimmun":10664,"Ġeyebrow":10665,"vie":10666,"ĠCredit":10667,"Ġmustard":10668,"aturity":10669,"kill":10670,"Ġfilms":10671,"ĠExpress":10672,"ĠShort":10673,"ĠYe":10674,"eners":10675,"Ġblowing":10676,"Ġfaucet":10677,"ĠItalian":10678,"Ġec":10679,"Ġburden":10680,"bin":10681,"pi":10682,"Ġintro":10683,"ĠBall":10684,"Ġstatic":10685,"Ġcorporate":10686,"Ġwhit":10687,"Ġmanagers":10688,"boot":10689,"Ġdivision":10690,"Ġcartr":10691,"Ġwiping":10692,"ographic":10693,"bons":10694,"osph":10695,"Ġdissolved":10696,"Ġhoping":10697,"Ġmimic":10698,"HA":10699,"swe":10700,"Ġfiction":10701,"Ġsenses":10702,"Ġbrainstorm":10703,"Ġmonitoring":10704,"550":10705,"ham":10706,"Ġmats":10707,"Ġshim":10708,"Ġelaborate":10709,"Ġgreet":10710,"Ġjackets":10711,"Ġspinning":10712,"Ġcharts":10713,"38":10714,"mbre":10715,"Ġweren":10716,"Ġloos":10717,"Ġliterature":10718,"Ġacknowled":10719,"isible":10720,"ĠMond":10721,"Ġbasil":10722,"Ġcharging":10723,"Ġorganizing":10724,"Ġcongest":10725,"ĠEarth":10726,"ĠInformation":10727,"ello":10728,"Ġdigging":10729,"Ġextending":10730,"Ġuncertain":10731,"Ġvolunteers":10732,"rons":10733,"Ġjerk":10734,"Ġlengthwise":10735,"250":10736,"ggy":10737,"viously":10738,"Ġinjure":10739,"asive":10740,"Ġcharm":10741,"ĠGrad":10742,"Ġcomparison":10743,"Ġheater":10744,"ĠAv":10745,"Ġpays":10746,"lessness":10747,"Ġcredits":10748,"Ġsquir":10749,"Ġlogical":10750,"Ġshout":10751,"ĠPark":10752,"ĠHouse":10753,"Ġconversion":10754,"Ġpublish":10755,"gae":10756,"Ġterrible":10757,"Ġexcuses":10758,"Ġtrademark":10759,"150":10760,"Ġbay":10761,"Ġdiction":10762,"Ġafterward":10763,"Ġpresents":10764,"handed":10765,"Ġimmig":10766,"Ġmolec":10767,"Ġentries":10768,"Ġexcitement":10769,"jud":10770,"Ġfingern":10771,"nov":10772,"ĠBit":10773,"Ġslope":10774,"aphrag":10775,"Ġcrowded":10776,"Ġguaranteed":10777,"Ġpromotion":10778,"ĠBoard":10779,"With":10780,"Ġbamboo":10781,"Ġnotifications":10782,"ĠWarm":10783,"Ġcontained":10784,"Ġremainder":10785,"screw":10786,"Ġmoisturize":10787,"Ġrejected":10788,"uh":10789,"inity":10790,"Ġwreath":10791,"Ġpom":10792,"ĠRAM":10793,"Ġ350":10794,"ympt":10795,"Ġoriginally":10796,"Ġrecycling":10797,"Ġcustomize":10798,"Ġcocktail":10799,"nan":10800,".,,,":10801,"ĠHP":10802,"Ġflax":10803,"Ġlimiting":10804,"Ġbasement":10805,"Ġrosemary":10806,"Ġclarify":10807,"Ġpoultry":10808,"actions":10809,"Ġski":10810,"Ġwrote":10811,"worker":10812,"Ġsteal":10813,"Ġvarying":10814,"Ġindicating":10815,"ĠCollect":10816,"Ġdisl":10817,"ĠBeat":10818,"Ġthrift":10819,"Place":10820,"tw":10821,"Ġnoted":10822,"Ġmoon":10823,"Ġmanic":10824,"Ġreduction":10825,"Ġacceptance":10826,"Ġdescribing":10827,"Ġdeny":10828,"ĠGroup":10829,"Ġtalks":10830,"Ġrepresented":10831,"Ġgrandparent":10832,"ĠLove":10833,"Ġachieving":10834,"Ġromance":10835,"Ġorientation":10836,"LL":10837,"dep":10838,"Ġ|":10839,"Ġoranges":10840,"Ġcray":10841,"Ġstraightforward":10842,"hale":10843,"aline":10844,"ĠMa":10845,"tails":10846,"Ġtid":10847,"Ġreads":10848,"Ġworkshe":10849,"Ġassembly":10850,"mers":10851,"Ġdining":10852,"Ġboiled":10853,"Ġpacket":10854,"Ġdemands":10855,"conscious":10856,"Ġwounds":10857,"llo":10858,"olic":10859,"ĠPV":10860,"Ġattaching":10861,"Ġrequesting":10862,"Ġdenim":10863,"ĠWhich":10864,"Ġsalon":10865,"Ġidentical":10866,"Ġexhib":10867,"oking":10868,"iger":10869,"Ġleaks":10870,"upun":10871,"Ġfinishes":10872,"ĠSoft":10873,"Ġleadership":10874,"ders":10875,"ĠCong":10876,"Ġbrowsing":10877,"Ġcultural":10878,"ĠManager":10879,"Ġdividing":10880,"Le":10881,"Next":10882,"Ġtheater":10883,"Ġtheft":10884,"ĠCand":10885,"Ġlighten":10886,"Ġsprink":10887,"Ġbeverage":10888,"aunt":10889,"Ġdistur":10890,"Ġbleed":10891,"Ġhypot":10892,"Ġtemplates":10893,"Ġhesitate":10894,"Ġcourthouse":10895,"rine":10896,"Ġbothering":10897,"Ġcitizen":10898,"itz":10899,"Ġgolf":10900,"ĠSwe":10901,"rous":10902,"inoa":10903,"pad":10904,"Ġnoun":10905,"Ġhairstyle":10906,"Ġprints":10907,"Ġmentor":10908,"Ġyelling":10909,"Ġyouth":10910,"Ġattraction":10911,"Ġguns":10912,"rac":10913,"Ġwins":10914,"alog":10915,"iflower":10916,"Ġlooked":10917,"Ġwallpaper":10918,"Ġadjustment":10919,"Ġthoughtful":10920,"Ġtransferring":10921,"Ġflashlight":10922,"Ġgravity":10923,"Ġdread":10924,"Ġdispose":10925,"Ġunfamiliar":10926,"width":10927,"orus":10928,"ĠLa":10929,"Ġcooks":10930,"ĠĠĠčĊ":10931,"Ġpleasure":10932,"Ġintellect":10933,"Ġcucumber":10934,"Im":10935,"Sc":10936,"degree":10937,"Ġtomorrow":10938,"Ġprun":10939,"Ġgreasy":10940,"Ġhighlights":10941,"Ġcolours":10942,"Ġripe":10943,"ĠSum":10944,"ĠDel":10945,"ĠAsking":10946,"Ġunderstands":10947,"irds":10948,"ĠMaintain":10949,"ijuana":10950,"Ġbrighter":10951,"Ġaccred":10952,"Ġsaus":10953,"Ġapplicants":10954,"Ġpenalty":10955,"annel":10956,"Ġdehydrated":10957,"Ġscenes":10958,"Ġanchor":10959,"ĠLimit":10960,"ĠSaturday":10961,"Ġhint":10962,"icians":10963,"Ġgy":10964,"idepress":10965,"Ġglove":10966,"Ġtrimming":10967,"Ġore":10968,"Ġcompact":10969,"def":10970,"BC":10971,"NS":10972,"Wind":10973,"Ġstocking":10974,"ashed":10975,"ĠPort":10976,"Ġsolo":10977,"Ġencourages":10978,"ĠBelow":10979,"88":10980,"Pe":10981,"Ġpic":10982,"Ġapprais":10983,"Play":10984,"rals":10985,"Ġoutlets":10986,"Ġpreview":10987,"Ġdescribes":10988,"Ġsummar":10989,"AP":10990,"heads":10991,"Ġtaller":10992,"Ġindu":10993,"Ġconstructive":10994,"Ġalleg":10995,"ĠâĢĿ":10996,"Ġspeeds":10997,"Ġdiaphrag":10998,"ĠYog":10999,"Ġempathy":11000,"mun":11001,"Ġmur":11002,"udes":11003,"Ġenl":11004,"Ġgrace":11005,"Ġinvolving":11006,"Ġpellets":11007,"ativity":11008,"Ġthirst":11009,"ille":11010,"Ġtroubles":11011,"Ġpreferable":11012,"pdf":11013,"law":11014,"Ġtourn":11015,"Ġrehab":11016,"Ġexec":11017,"Ġdescriptions":11018,"Ġhanger":11019,"dit":11020,"Ġcreditor":11021,"Ġinvestigation":11022,"Ġfrog":11023,"Ġseasonings":11024,"ĠIndian":11025,"onal":11026,"etooth":11027,"paragus":11028,"Ġchi":11029,"Ġclause":11030,"brev":11031,"verted":11032,"Ġchase":11033,"ĠCome":11034,"Ġloads":11035,"Ġtrustworthy":11036,"orient":11037,"pection":11038,"Ġcravings":11039,"Ġdenominator":11040,"Ġcontinuously":11041,"Ġparenting":11042,"Ġpetroleum":11043,"uffle":11044,"Ġcarrot":11045,"ibrary":11046,"gie":11047,"ĠCor":11048,"rounds":11049,"Ġconfuse":11050,"Ġprogramming":11051,"ĠDrag":11052,"Ġforcing":11053,"Ġspiders":11054,"comes":11055,"Ġintentions":11056,"ĠCap":11057,"Ġgrants":11058,"Ġconflicts":11059,"Ġtolerate":11060,"clockwise":11061,"Ġinfr":11062,"Ġouts":11063,"Ġcreditors":11064,"Ġsauces":11065,"Ġdistribution":11066,"hemat":11067,"cil":11068,"}{\\":11069,"Ġthereby":11070,"Ġauthorities":11071,"Ġdragging":11072,"oshop":11073,"gent":11074,"Ġmoss":11075,"rost":11076,"Ġcompounds":11077,"Ġslider":11078,"Ġassemble":11079,"ĠDS":11080,"ĠDirect":11081,"Ġscents":11082,"Ġrisky":11083,"Ġstatistics":11084,"Ġdropped":11085,"otine":11086,"Ġstupid":11087,"Ġclues":11088,"ĠLast":11089,"Ġeverybody":11090,"Ġadvised":11091,",,,,,,,,":11092,"Ġsickness":11093,"Ġstrawberry":11094,"Ġsneakers":11095,"ĠRelax":11096,"Ġjumps":11097,"Ġdisput":11098,"Ġsanit":11099,"orrh":11100,"ĠBreathe":11101,"lands":11102,"zed":11103,"Ġlived":11104,"ĠHam":11105,"Ġmediator":11106,"Ġdampen":11107,"Ġsuperv":11108,"Ġopposing":11109,"Ġsubmitted":11110,"Ġcling":11111,"Ġinserting":11112,"ĠInternational":11113,"Ġtrimmed":11114,"Ġdeficiency":11115,"oh":11116,"Ġlamps":11117,"Ġrefined":11118,"Ġfunding":11119,"ĠDrinking":11120,"Ġviruses":11121,"Ġvague":11122,"Ġmarshm":11123,"!!":11124,"Ġcampus":11125,"Ġpix":11126,"Ġcommission":11127,"Ġglaze":11128,"Ġreceipts":11129,"Ġspecializes":11130,"Ġirritating":11131,"party":11132,"/.":11133,"clean":11134,"Ġflies":11135,"Ġoccurring":11136,"hero":11137,"Ġsubsequ":11138,"ĠVery":11139,"Ġintroduced":11140,"Ġintimacy":11141,"Ġdonations":11142,"Ġaging":11143,"Ġservers":11144,"ĠKn":11145,"Ġdimin":11146,"ĠAdministration":11147,"Ġceramic":11148,"=\"":11149,"Ġskim":11150,"Ġlistings":11151,"Ġpassage":11152,"Ġsexually":11153,"ymph":11154,"ĠPict":11155,"unless":11156,"Ġsincere":11157,"Ġdebate":11158,"Ġointment":11159,"ĠRot":11160,"Ġknit":11161,"Ġcornstarch":11162,"Ġvisualize":11163,"Ġcurrency":11164,"BS":11165,"Ġfarther":11166,"Ġgast":11167,"ĠLarge":11168,"Ġgem":11169,"Ġhotels":11170,"white":11171,"Ġpursuing":11172,"Ġdiaphragm":11173,"Yes":11174,"dge":11175,"Ġcerv":11176,"Ġbomb":11177,"Ġlaz":11178,"Ġfriction":11179,"Ġreserved":11180,"Ġcomparing":11181,"Ġcigarette":11182,"Ġanticipate":11183,"\\\\":11184,"oric":11185,"Ġlent":11186,"Ġfloating":11187,"Ġinspire":11188,"ĠFoods":11189,"mg":11190,"Ġling":11191,"ados":11192,"Ġsends":11193,"Ġrewarding":11194,"Ġfifth":11195,"âģĦ":11196,"Bu":11197,"Ġknead":11198,"Ġcolander":11199,"Ġlint":11200,"otch":11201,"Ġembell":11202,"Ġmaneu":11203,"Ġmigrain":11204,"green":11205,"Ġaddressing":11206,"Ġhamsters":11207,"Ġinsecure":11208,"Ġbunny":11209,"Ġpartial":11210,"ĠTeach":11211,"Ġsterile":11212,"ĠCell":11213,"Ġdetermines":11214,"Ġshelters":11215,"See":11216,"iotics":11217,"Ġsurprising":11218,"Ġadvisable":11219,"ĠStress":11220,"Ġenjoys":11221,"Ġcompete":11222,"Ġtopping":11223,"Ġteenager":11224,"Ġelegant":11225,"Ġconsulting":11226,"Ġconnector":11227,"Ġviolent":11228,"Ġhighlighted":11229,"By":11230,"Ġdense":11231,"Ġfung":11232,"Ġcreatures":11233,"Inc":11234,"Ġunderstood":11235,"Ġleaning":11236,"Ġdisposal":11237,"size":11238,"emia":11239,"Ġsteering":11240,"Ġsafest":11241,"write":11242,"othing":11243,"Ġcrash":11244,"Ġthreatening":11245,"Ġmosquit":11246,"Ġpunk":11247,"Ġdow":11248,"ophy":11249,"Ġavail":11250,"Ġexpecting":11251,"ET":11252,"Ġmol":11253,"ĠII":11254,"Ġremembering":11255,"Ġexplicit":11256,"Ġseedlings":11257,"Ġcoughing":11258,"Ġshadows":11259,"OU":11260,"Ġforum":11261,"Ġattacking":11262,"Ġswings":11263,"Ġmembr":11264,"Ġrepell":11265,"Ġorth":11266,"run":11267,"Ġformulas":11268,"Ġdistrict":11269,"Ġcredentials":11270,"core":11271,"Ġliked":11272,"ĠOld":11273,"ĠSew":11274,"Ġappreciation":11275,"Ġeyelids":11276,"Ġsolely":11277,"Ġbrackets":11278,"Ġdeer":11279,"ĠThrough":11280,"ivir":11281,"....":11282,"oning":11283,"Ġdied":11284,"ĠSS":11285,"Ġstranger":11286,"ĠJava":11287,"ĠChristian":11288,"Ġmicrofiber":11289,"Ġabrasive":11290,"cor":11291,"Ġinclined":11292,"Ġrefresh":11293,"Ġstuffing":11294,"Ġdevot":11295,"minded":11296,"ĠIce":11297,"ĠEast":11298,"ĠGreek":11299,"Ġgrapes":11300,"ruff":11301,"Ġreasonably":11302,"Ġprivile":11303,"Ġaiming":11304,"Ġenclosure":11305,"fa":11306,"ĠUK":11307,"Ġeraser":11308,"Ġsurgeon":11309,"Ġbilling":11310,"Ġunpl":11311,"Ġagreements":11312,"ĠTwist":11313,"asty":11314,"Ġcareg":11315,"Ġconnects":11316,"ĠPutting":11317,"Ġadvantages":11318,"Ġfragile":11319,"----------------":11320,"Ġlonely":11321,"Since":11322,"Ġmice":11323,"Ġlecture":11324,"ĠEss":11325,"Ġrefund":11326,"Ġconcise":11327,"65":11328,"Ġib":11329,"ptions":11330,"Ġquart":11331,"ixtures":11332,"Ġadequately":11333,"Ġfrustrating":11334,"Ġinstitutions":11335,"Ġharassment":11336,"}+":11337,"Ġbail":11338,"Ġabbrev":11339,"Ġbug":11340,"Ġplank":11341,"Ġbuilds":11342,"Ġtherapists":11343,"Ġtorn":11344,"Ġeats":11345,"ĠIV":11346,"Ġmeditate":11347,"Ġsearches":11348,"ĠSPF":11349,"ĠPhysical":11350,"Ġmatte":11351,"ĠSecret":11352,"Ġking":11353,"Ġaids":11354,"ĠFore":11355,"Ġequity":11356,"Ġstainless":11357,"ĠMenu":11358,"Never":11359,"sided":11360,"esides":11361,"ĠTre":11362,"iration":11363,"Ġdecline":11364,"ucking":11365,"ggings":11366,"Ġwedge":11367,"iasis":11368,"inals":11369,"Ġresidence":11370,"ĠNav":11371,"rors":11372,"Ġbush":11373,"Ġnylon":11374,"Ġkg":11375,"Ġcauliflower":11376,"Ġteasing":11377,"Ġmaple":11378,"Ġisolated":11379,"hour":11380,"Ġwages":11381,"Ġlatter":11382,"ĠIron":11383,"Ġresearching":11384,"Ġsupervision":11385,"Ġspiral":11386,"Ġintelligent":11387,"Why":11388,"Ġpiles":11389,"Ġmaturity":11390,"Ġplugs":11391,"Ġflavored":11392,"Ġpitcher":11393,"ĠMultip":11394,"gments":11395,"erge":11396,"Ġfuse":11397,"Ġgerm":11398,"cience":11399,"Ġimproper":11400,"Ġhelmet":11401,"Search":11402,"Ġclippers":11403,"ĠHallow":11404,"ĠLikewise":11405,"Ġultimate":11406,"Ġconvenience":11407,"Ġmindfulness":11408,"rowse":11409,"Ġhearts":11410,"Ġmounting":11411,"igslist":11412,"Ġutensils":11413,"Ġgam":11414,"Ġfeces":11415,"odka":11416,"Ġkidneys":11417,"Ġpimples":11418,"unciation":11419,"esity":11420,"Ġgay":11421,"Ġdrunk":11422,"Ġshampoos":11423,"Ġstrictly":11424,"?;":11425,"wide":11426,"Ġfax":11427,"Ġhill":11428,"Ġswipe":11429,"Ġauth":11430,"Ġscented":11431,"Settings":11432,"Ġterritory":11433,"Ġblonde":11434,"log":11435,"mus":11436,"},":11437,"sets":11438,"ĠPersonal":11439,"Ġprison":11440,"ĠEgg":11441,"Ġinspection":11442,"erged":11443,"ĠExp":11444,"Ġsteer":11445,"ĠProfessional":11446,"Ġhurtful":11447,"Ġbracket":11448,"Ġpests":11449,"Ġsoph":11450,"ortion":11451,"Ġintr":11452,"ĠHist":11453,"Ġendurance":11454,"Ġdrawers":11455,"ĠStat":11456,"Ġresemble":11457,"Ġscheduling":11458,"Down":11459,"mons":11460,"oured":11461,"Ġwiring":11462,"Ġbipolar":11463,"Ġthumbs":11464,"Ġbarg":11465,"Ġtights":11466,"Ġfights":11467,"120":11468,"Ġchamp":11469,"Ġarmp":11470,"Ġtweezers":11471,"uity":11472,"Ġted":11473,"enter":11474,"Ġanonym":11475,"ilized":11476,"ĠGar":11477,"Ġtying":11478,"Ġrifle":11479,"ĠTape":11480,"Ġstake":11481,"gered":11482,"ĠCode":11483,"ĠWet":11484,"Ġteas":11485,"Ġnewborn":11486,"Ġgradu":11487,"Ġepisodes":11488,"Ġwalnuts":11489,"afood":11490,"Ġskilled":11491,"Ġpolitics":11492,"Ġpalette":11493,"Ġmerely":11494,"ws":11495,"Ġspan":11496,"Ġprofessors":11497,"Ġunsafe":11498,"oving":11499,"icidal":11500,"Ġalgae":11501,"Ġsaliva":11502,"Ġdynamic":11503,"ĠUniversity":11504,"Ġmonsters":11505,"otein":11506,"Ġcountertop":11507,"Ġtubing":11508,"Ġescal":11509,"Ġpediatric":11510,"ĠSnapchat":11511,"Ġcran":11512,"Ġbuds":11513,"ÂºF":11514,"Ġrepetitions":11515,"Ġliber":11516,"Ġfirms":11517,"Ġtouched":11518,"ĠHalloween":11519,"37":11520,"Ġlux":11521,"ĠTher":11522,"Ġprime":11523,"Ġversus":11524,"Ġutilize":11525,"ĠStudy":11526,"Ġcelebrity":11527,"Ġbracelets":11528,"Ġadventure":11529,"Ġenthusi":11530,"Ġdistinguish":11531,")+":11532,"onn":11533,"Ġdice":11534,"Ġdorm":11535,"ami":11536,"ĠSelf":11537,"ulpt":11538,"Ġpeer":11539,"Ġdrown":11540,"Ġdipping":11541,"Ġiniti":11542,"Because":11543,"Ġdecreased":11544,"Ġstreaks":11545,"Ġinspired":11546,"Ġabstract":11547,"Ġcompletion":11548,"Ġregions":11549,"Ġcourage":11550,"Ġpaintbrush":11551,"Ġshovel":11552,"ĠObs":11553,"Ġquinoa":11554,"Ġearnings":11555,"Ġlady":11556,"lr":11557,"Ġgathered":11558,"ulum":11559,"Ġknuck":11560,"Ġblisters":11561,"Ġvoltage":11562,"ĠFlash":11563,"Ġsubmitting":11564,"dig":11565,"Ġpaired":11566,"Ġweed":11567,"ĠWhisk":11568,"Ġdevelops":11569,"Ġsimilarly":11570,"Ġblueberries":11571,"Ġfinely":11572,"Ġdiscouraged":11573,"Sm":11574,"Ġsher":11575,"Ġlogs":11576,"Ġbutterfly":11577,"Ġknowledgeable":11578,"Ġfailing":11579,"ĠPhotoshop":11580,"ĠTer":11581,"ulates":11582,"ource":11583,"Ġflee":11584,"Ġibuprofen":11585,"mbles":11586,"Ġspecially":11587,"Ġdistin":11588,"Ġthicken":11589,"lin":11590,"heated":11591,"Ġmarijuana":11592,"ĠBra":11593,"Ġlibraries":11594,"Read":11595,"Ġundergo":11596,"ĠKids":11597,"ĠCompare":11598,"Gener":11599,"vet":11600,"umer":11601,"Ġhover":11602,"Ġhaircut":11603,"Ġfinan":11604,"Ġtanks":11605,"Ġtargets":11606,"Ġpaws":11607,"ĠMary":11608,"Ġbases":11609,"ĠMonday":11610,"bf":11611,"Ġbeating":11612,"ggle":11613,"Ġmetals":11614,"Ġmetallic":11615,"Ġbreastfeeding":11616,"95":11617,"Ġtoppings":11618,"ĠTim":11619,"Ġquitting":11620,"Ġthanks":11621,"Ġmedicines":11622,"Ġdigestion":11623,"Ġprosecut":11624,"Ġspaced":11625,"Ġcouldn":11626,"Ġedible":11627,"Ġmouthwash":11628,"Ġinterviewer":11629,"Ġreflection":11630,"ĠCalc":11631,"ĠVolunte":11632,"ĠISO":11633,"/(":11634,"cards":11635,"Ġlane":11636,"Ġric":11637,"ĠRefer":11638,"Ġopponents":11639,"Ġofficers":11640,"Ġpuree":11641,"Ġnitrogen":11642,"ĠCam":11643,"Ġspam":11644,"ciously":11645,"Ġdesirable":11646,"Ġactivated":11647,"Ġ64":11648,"Ġignoring":11649,"Ġthyme":11650,"Ġchamber":11651,"ĠRecognize":11652,"ĠSunday":11653,"yn":11654,"heel":11655,"ĠTravel":11656,"ulse":11657,"Ġtwine":11658,"Ġflooring":11659,"ĠScreen":11660,"Ġcasting":11661,"Ġlargely":11662,"Ġcontinuous":11663,"yles":11664,"Ġrising":11665,"Ġcleanse":11666,"Ġgeneric":11667,"Ġdistances":11668,"Ġresear":11669,"Ġsanding":11670,"Ġexploring":11671,"Ġexhibit":11672,"ayed":11673,"ibble":11674,"ĠHope":11675,"Ġstriking":11676,"Ġinterpre":11677,"ĠPlayer":11678,"Ġinsurer":11679,"Ġtalked":11680,"Ġtransmission":11681,"77":11682,"Ġriver":11683,"Ġranges":11684,"ĠSD":11685,"Ġsuppress":11686,"ggles":11687,"Ġideally":11688,"Ġfinancing":11689,"purpose":11690,"bel":11691,"Ġcrumbs":11692,"Ġstylish":11693,"Ġfemales":11694,"Ġcracked":11695,"pin":11696,"Ġcul":11697,"ĠFish":11698,"Ġsperm":11699,"ĠEye":11700,"Ġindul":11701,"Ġtransparent":11702,"ucch":11703,"Ġinfest":11704,"Ġacquire":11705,"Ġcrisis":11706,"Select":11707,"44":11708,"Ġbisc":11709,"Ġsnakes":11710,"Ġantidepress":11711,"Ġseasonal":11712,"Ġpeaceful":11713,"ezing":11714,"Ġspinal":11715,"ĠAddress":11716,"ĠInvite":11717,"ymptoms":11718,"lls":11719,"Ġplugged":11720,"Ġtransactions":11721,"SAID":11722,"Ġadministrative":11723,"Or":11724,"Pre":11725,"Ġtart":11726,"ĠPo":11727,"Ġopenly":11728,"Ġprofits":11729,"Ġsoups":11730,"ÂºC":11731,"ĠHuman":11732,"rin":11733,"vic":11734,"Ġmop":11735,"Ġreserve":11736,"Ġhollow":11737,"Ġcostly":11738,"Ġstepping":11739,"Ġdestru":11740,"Ġunfold":11741,"Ġfragrance":11742,"Ġrigid":11743,"Ġtease":11744,"Ġrequiring":11745,"Ġinstaller":11746,"Ġribbons":11747,"Ġbachelor":11748,"OR":11749,"erget":11750,"Ġasparagus":11751,"ĠSomething":11752,"Ġclumps":11753,"Ġkills":11754,"ources":11755,"Ġenerget":11756,"Ġdisrespect":11757,"Ġmemorable":11758,"tub":11759,"Ġpointer":11760,"Ġsprout":11761,"Ġevil":11762,"Ġinhibit":11763,"ĠSafari":11764,"ÃĹ":11765,"Ġ1000":11766,"Ġincons":11767,"Ġblister":11768,"Ġclassified":11769,"ĠMedical":11770,"Good":11771,"obs":11772,"Ġcass":11773,"Ġbeet":11774,"abs":11775,"Ġmildew":11776,"Ġhospitals":11777,"ĠBetter":11778,"Ġpushed":11779,"oodle":11780,"ĠAnsw":11781,"Ġsmelling":11782,"Ġreinforcement":11783,"osterone":11784,"Can":11785,"Ġhind":11786,"Ġadverse":11787,"Ġbrisk":11788,"rence":11789,"Ġpositioning":11790,"optional":11791,"Ġsophistic":11792,"Ġbooking":11793,"Ġplaque":11794,"Ġreflects":11795,"Ġblinds":11796,"ĠObviously":11797,"Are":11798,"cho":11799,"Ġknitting":11800,"Ġcrib":11801,"Ġglob":11802,"ĠBlood":11803,"Ġbiking":11804,"Ġfinancially":11805,"Ġtil":11806,"Ġrides":11807,"Ġprey":11808,"Ġrotating":11809,"ĠReduce":11810,"Ġsandwiches":11811,"esticides":11812,"âĢĻâĢĻ":11813,"Ġexplos":11814,"cycle":11815,"Ġinac":11816,"etime":11817,"Ġabuser":11818,"ĠStill":11819,"Ġdivers":11820,"covery":11821,"Ġpeeling":11822,"Ġimperfect":11823,"Ġprolonged":11824,"400":11825,"ĠâĪ":11826,"only":11827,"Ġlice":11828,"Ġexagger":11829,"Ġpride":11830,"Ġordering":11831,"Ġsprouts":11832,"ĠSmile":11833,"ĠManage":11834,"LA":11835,"ĠSan":11836,"ĠPage":11837,"Ġamp":11838,"Just":11839,"ĠData":11840,"Ġkicking":11841,"Ġpreserv":11842,"zzles":11843,"ĠBluetooth":11844,"alties":11845,"tending":11846,"ĠTrust":11847,"Ġdyes":11848,"Ġcrops":11849,"laces":11850,"istle":11851,"ophen":11852,"Ġdepress":11853,"Ġstrongest":11854,"ĠStaying":11855,"Ġdramatically":11856,"LE":11857,"oam":11858,"anta":11859,"Ġdraining":11860,"Ġcompression":11861,"ĠRefr":11862,"Ġsells":11863,"Ġpromises":11864,"Ġcalculation":11865,"ĠRealize":11866,"Ġdupl":11867,"Ġflattering":11868,"arians":11869,"ĠGirls":11870,"ftentimes":11871,"veloper":11872,"Ġcracking":11873,"Ġcolder":11874,"Ġcleansing":11875,"ustomed":11876,"Ġcherry":11877,"Ġsarc":11878,"ĠTight":11879,"ĠTax":11880,"idget":11881,"ĠAM":11882,"aware":11883,"ĠTrad":11884,"Windows":11885,"Ġauthors":11886,"Ġais":11887,"rey":11888,"Ġpersonnel":11889,"Ġslipping":11890,"Ġindent":11891,"Ġassault":11892,"umping":11893,"Ġjudges":11894,"Ġexceptions":11895,"oz":11896,"will":11897,"Ġske":11898,"ĠTur":11899,"Ġskull":11900,"Ġembrace":11901,"Ġ26":11902,"Ġballoons":11903,"Ġhemorrh":11904,"Ġscreenshot":11905,"Ġsip":11906,"Ġmaker":11907,"Ġisland":11908,"plane":11909,"Ġfunnel":11910,"Ġteammates":11911,"Ġviewed":11912,"Ġspirits":11913,"Ġyolk":11914,"melon":11915,"Ġinbox":11916,"Ġchore":11917,"Ġveins":11918,"Ġmanif":11919,"Ġproductivity":11920,"beh":11921,"Ġcasually":11922,"rat":11923,"test":11924,"Ġwhip":11925,"ĠBody":11926,"Ġoverhead":11927,"Ġdecoration":11928,"Ġbreach":11929,"Ġcommittee":11930,"Ġtailor":11931,"Ġmuseum":11932,")\"":11933,"iel":11934,"Ġmate":11935,"Ġallergens":11936,"mathbf":11937,"Ġcrispy":11938,"Ġanswe":11939,"ĠSIM":11940,"Ġparam":11941,"Ġdiscoloration":11942,"best":11943,"school":11944,"veys":11945,"osit":11946,"uster":11947,"Ġbelts":11948,"Ġbathe":11949,"Ġseverely":11950,"Ġeliminating":11951,"Ġtucked":11952,"aus":11953,"aments":11954,"Ġleth":11955,"Ġtheirs":11956,"Ġbride":11957,"ĠÂ¾":11958,"Ġsimpler":11959,"Ġdiscourage":11960,"Ġcaulk":11961,"wind":11962,"Ġbee":11963,"idges":11964,"orted":11965,"uble":11966,"Ġaccessed":11967,"ĠSpir":11968,"Remove":11969,"di":11970,"Ġdensity":11971,"Ġoutcomes":11972,"Ġpane":11973,"ĠLeft":11974,"Ġtrailer":11975,"ĠReach":11976,"Ġloudly":11977,"Ġsurvival":11978,"Ġavailability":11979,"34":11980,"ĠEar":11981,"Ġpartition":11982,"Ġadministered":11983,"ĠLinked":11984,"Ġtangles":11985,"Ġcave":11986,"istance":11987,"Ġvast":11988,"Ġtransplant":11989,"ĠClub":11990,"employment":11991,"Ġinev":11992,"Ġpotty":11993,"Ġobtaining":11994,"merge":11995,"ĠComputer":11996,"Ġsellers":11997,"Ġcontributing":11998,"Ġstruggles":11999,"iatrist":12000,"Another":12001,"Ġblemishes":12002,"Ġanswered":12003,"sl":12004,"elling":12005,"Ġtechnically":12006,"Ġrepresenting":12007,"Ġoverlapping":12008,"ĠTools":12009,"gling":12010,"Ġgems":12011,"gel":12012,"Ġreflex":12013,"Ġresembles":12014,"Ġlosses":12015,"Ġangled":12016,"ĠCy":12017,"Ġartistic":12018,"phins":12019,"Ġversatile":12020,"ĠSimple":12021,"ĠHolding":12022,"Ġsoul":12023,"Ġâħ":12024,"ucchini":12025,"26":12026,"Ġknob":12027,"Ġoffense":12028,"Ġreviewing":12029,"Ġuncommon":12030,"ĠScrub":12031,"Ġenergetic":12032,"itched":12033,"ĠFil":12034,"Ġcoil":12035,"aminophen":12036,"ĠGrand":12037,"Ġunfair":12038,"Ġglossy":12039,"Ġmarinade":12040,"link":12041,"war":12042,"Ġvodka":12043,"ĠMich":12044,"ĠStreet":12045,"othy":12046,"Ġdecreases":12047,"Ġgears":12048,"ĠTom":12049,"urities":12050,"ĠCoun":12051,"ĠLooking":12052,"Ġmobility":12053,"Ġmuffin":12054,"Ġprohib":12055,"Ġadj":12056,"Ġverification":12057,"Ġperfection":12058,"bye":12059,"Ġultras":12060,"Ġwondering":12061,"Ġcomprehensive":12062,"Ġpaw":12063,"Ġaloud":12064,"ĠWest":12065,"Ġglad":12066,"Ġsalads":12067,"Ġswap":12068,"ndant":12069,"awai":12070,"flix":12071,"Ġfallen":12072,"Ġourselves":12073,"ĠBrown":12074,"Ġadvertisements":12075,"Ġquad":12076,"ĠLean":12077,"Ġinjections":12078,"ĠBasically":12079,"bat":12080,"igan":12081,"ĠCT":12082,"Ġfuneral":12083,"Ġroutes":12084,"semble":12085,"Ġbottoms":12086,"Ġachievements":12087,"Although":12088,"Ġcereals":12089,"ambling":12090,"ĠBritish":12091,"AA":12092,"mp":12093,"Ġaest":12094,"Ġcous":12095,"Ġtoner":12096,"unger":12097,"ĠKindle":12098,"Ġsocialize":12099,"ffered":12100,"ĠSpot":12101,"Ġsporting":12102,"arget":12103,"ievable":12104,"Ġstrive":12105,"Ġcarried":12106,"Ġmasks":12107,"ĠSkip":12108,"Ġvirtually":12109,"ĠDeep":12110,"Ġprize":12111,"ruits":12112,"Ġclearing":12113,"coat":12114,"Ġhabitat":12115,"Ġflights":12116,"limited":12117,"Ġmashed":12118,"NT":12119,"color":12120,"Ġloses":12121,"âĢĿ)":12122,"Ġfootage":12123,"Ġcompetitors":12124,"Ġpublishing":12125,"effective":12126,"Ġdizziness":12127,"cup":12128,"mes":12129,"nity":12130,"isp":12131,"Ġbearing":12132,"ĠToss":12133,"Ġspills":12134,"ĠRuss":12135,"fulness":12136,"Ġaccustomed":12137,"Ġfinance":12138,"ĠPhotos":12139,"ricular":12140,"Ġinvested":12141,"Ġfluct":12142,"Ġrenting":12143,"Ġsqueezing":12144,"Ġelectroly":12145,"roach":12146,"Ġgoggles":12147,"ĠJan":12148,"Ġlegumes":12149,"ĠOrder":12150,"Ġstretched":12151,"ĠSmooth":12152,"Ġthreats":12153,"Ġadvisor":12154,"ĠAff":12155,"isting":12156,"Ġhighl":12157,"astered":12158,"Ġports":12159,"lining":12160,"Ġrhyme":12161,"Ġconcentrated":12162,"^{\\":12163,"pill":12164,"Ġwarp":12165,"ita":12166,"Ġsoaps":12167,"ĠBen":12168,"Ġsculpt":12169,"pert":12170,"Ġshears":12171,"Ġcoordinate":12172,"Ġparasites":12173,"help":12174,"isy":12175,"Ġstair":12176,"ceeds":12177,"Ġleggings":12178,"Ġchilled":12179,"Ġweave":12180,"ĠOlder":12181,"Ġtestimony":12182,"ĠSetting":12183,"Ġwedges":12184,"Ġconvincing":12185,"bound":12186,"Ġpry":12187,"astics":12188,"Ġarrives":12189,"Ġdefeat":12190,"Ġphosph":12191,"Ġfiring":12192,"Ġreceiver":12193,"Ġposters":12194,"Ġpatterned":12195,"Ġpesticides":12196,"irs":12197,"ĠBesides":12198,"Ġtextbook":12199,"Ġexcessively":12200,"Ġcraving":12201,"uggage":12202,"Ġcrossed":12203,"Altern":12204,"Ġviral":12205,"Ġdeposits":12206,"Ġassertive":12207,"ugin":12208,"epad":12209,"Ġslots":12210,"Ġpromotes":12211,"Ġverbs":12212,"Ġrotation":12213,"Ġcycles":12214,"Ġordered":12215,"Ġdock":12216,"eless":12217,"Before":12218,"ĠSociety":12219,"Ġdictionary":12220,"entine":12221,"Ġoutlined":12222,"izon":12223,"Ġcreases":12224,"Ġrunny":12225,"Ġgained":12226,"ĠTechn":12227,"Ġpeach":12228,"Ġdisaster":12229,"Ġexfoliating":12230,"Ġsinus":12231,"Ġtextures":12232,"Ġnegativity":12233,"ĠShop":12234,"ĠConst":12235,"Ġcontaminated":12236,"htt":12237,"Ġsegment":12238,"ĠOftentimes":12239,"available":12240,"Ġcrew":12241,"Ġsniff":12242,"Ġcommunications":12243,"Ġintelligence":12244,"card":12245,"aded":12246,"ĠThree":12247,"everal":12248,"Ġlocally":12249,"Ġesoph":12250,"Ġcontributions":12251,"Ġefficiency":12252,"Ġvigorously":12253,"Ac":12254,"Ġdowel":12255,"Ġgig":12256,"Ġstaring":12257,"Ġadditives":12258,"Ġmanaged":12259,"Ġmindset":12260,"gano":12261,"Ġmelts":12262,"Ġtailored":12263,"Ġconducted":12264,"icularly":12265,"Ġvendors":12266,"Ġlentils":12267,"%,":12268,"PM":12269,"Ġeast":12270,"outhern":12271,"ĠNatural":12272,"rug":12273,"connect":12274,"rd":12275,"ĠFit":12276,"ĠRaise":12277,"Ġutilities":12278,"Ġpossession":12279,"acc":12280,"Ġseasons":12281,"ooks":12282,"ĠLightly":12283,"Ġmagnet":12284,"ĠDiscard":12285,"Ġventilation":12286,"non":12287,"elve":12288,"Ġapplicant":12289,"Ġforearm":12290,"Ġmaneuver":12291,"km":12292,"Ġren":12293,"acle":12294,"ĠMr":12295,"acts":12296,"Ġappearing":12297,"Ġfactory":12298,"Ġdeliber":12299,"Ġstitching":12300,"Ġsurrounded":12301,"Ġmales":12302,"Oh":12303,"apped":12304,"fill":12305,"orp":12306,"Ġtrays":12307,"ista":12308,"Ġjun":12309,"ĠDue":12310,"ĠHIV":12311,"Ġ250":12312,"Ġbarbe":12313,"Ġworksh":12314,"Ġrespectively":12315,"Ġcongestion":12316,"Ġembellish":12317,"Ġshoots":12318,"Ġbathtub":12319,"Ġbatches":12320,"Ġcircumference":12321,"Ġmechanical":12322,"Ġuterus":12323,"Ġdive":12324,"Ġabroad":12325,"Ġoverd":12326,"ĠTrying":12327,"ucks":12328,"Ġobjectives":12329,"Ġurinate":12330,"Ġsatisfy":12331,"Ġexfoliate":12332,"Ġchamomile":12333,"ĠCraigslist":12334,"asters":12335,"Ġspecifics":12336,"Ġbuddy":12337,"Ġreminders":12338,"Ġstationary":12339,"Ġluggage":12340,"ican":12341,"Ġknew":12342,"Ġdisabilities":12343,"Ġblaz":12344,"Ġ23":12345,"Ġembro":12346,"ĠPVC":12347,"Ġiv":12348,"Ġpassages":12349,"Ġfastest":12350,"Ġappreciated":12351,"ĠFresh":12352,"Ġsideways":12353,"lications":12354,"Ġmanipulate":12355,"ĠUltimately":12356,"And":12357,"Ġrats":12358,"ĠPract":12359,"ickets":12360,"Ġhairline":12361,"Ġundert":12362,"Ġfreel":12363,":\\":12364,"itudes":12365,"Ġcancell":12366,"Ġseafood":12367,"Ġglands":12368,"Ġdisplaying":12369,"Ġstimulation":12370,"Ġinability":12371,"Ġhack":12372,"ĠLG":12373,"Ġharden":12374,"Ġdiamonds":12375,"Ġnurs":12376,"Ġcrystal":12377,"File":12378,"ena":12379,"abies":12380,"Ġlimbs":12381,"ĠSlice":12382,"Ġtuning":12383,"Ġconfiguration":12384,"rels":12385,"eng":12386,"Ġlbs":12387,"Ġcanal":12388,"Ġdrywall":12389,"ĠDragon":12390,"ĠAustralia":12391,"Give":12392,"field":12393,"fruit":12394,"zema":12395,"Ġnation":12396,"asted":12397,"Ġinval":12398,"Ġinvited":12399,"ferably":12400,"ĠPlug":12401,"Ġinflamed":12402,"Ġteenagers":12403,"Ġmisunder":12404,"Ġresolved":12405,"Ġhazel":12406,"Ġpulp":12407,"rated":12408,"zym":12409,"Ġtug":12410,"Ġove":12411,"open":12412,"ĠChapter":12413,"Ġearning":12414,"Ġestimated":12415,"iri":12416,"ĠLic":12417,"Ġantihist":12418,"ĠStandard":12419,"Ġbundle":12420,"47":12421,"ingly":12422,"Ġfaced":12423,"crast":12424,"arriage":12425,"Ġradiation":12426,"ĠPlaying":12427,"Ġnipple":12428,"function":12429,"atis":12430,"seed":12431,"aine":12432,"ĠDa":12433,"Ġslack":12434,"Ġprofiles":12435,"Ġrefuses":12436,",,,,,":12437,"Ġpsychologist":12438,"ĠVisual":12439,"Ġpudding":12440,"ean":12441,"Ġgaming":12442,"Ġcertificates":12443,"ĠOutlook":12444,"ĠFeeling":12445,"graduate":12446,"Ġlazy":12447,"Ġdand":12448,"ifted":12449,"Ġampl":12450,"iverse":12451,"Ġfearful":12452,"through":12453,"iously":12454,"Ġaccountable":12455,"Ġscreening":12456,"Ġnecklaces":12457,"Ġalternating":12458,"Ġpriorities":12459,"Ġbloating":12460,"Ġsuing":12461,"Ġ(âĢľ":12462,"Ġrefrain":12463,"Ġfuller":12464,"Ġdraws":12465,"Ġelevator":12466,"Ġdemanding":12467,"Ġtutorial":12468,"OM":12469,"ĠPen":12470,"Ġ27":12471,"Ġrefill":12472,"Ġhazards":12473,"Ġwealth":12474,"oler":12475,"ĠRoman":12476,"ĠAlmost":12477,"Ġsalts":12478,"Ġpowers":12479,"Download":12480,"rad":12481,"ĠWii":12482,"Ġfavour":12483,"Ġconjunction":12484,"Ġdepartments":12485,"ports":12486,"wax":12487,"Ġpus":12488,"ailing":12489,"oys":12490,"Ġpotting":12491,"Ġpublications":12492,"dominant":12493,"Ġsubscription":12494,"bought":12495,"talk":12496,"Ġmash":12497,"Ġclue":12498,"Ġknives":12499,"Ġresc":12500,"Ġagrees":12501,"ĠChoosing":12502,"ĠVideo":12503,"Ġzucchini":12504,"Ġencouragement":12505,"Ġloading":12506,"Ġdilute":12507,"Ġincur":12508,"ormally":12509,"Ġindirect":12510,"exe":12511,"Ġcounselors":12512,"Ġvaccinations":12513,"Ġclarity":12514,"Ġretrieve":12515,"confidence":12516,"Ġnursery":12517,"enne":12518,"Ġendless":12519,"ucent":12520,"Ġcopying":12521,"Ġpadding":12522,"Ġpancakes":12523,"Hi":12524,"ĠTitle":12525,"Ġranging":12526,"istur":12527,"Ġspa":12528,"ĠSeason":12529,"Ġreasoning":12530,"porary":12531,"Ġfrogs":12532,"Ġforgotten":12533,"Ġstare":12534,"Ġalimony":12535,"ĠCold":12536,"Ġcrank":12537,"Ġwoods":12538,"Ġaggrav":12539,"Ġtactics":12540,"Man":12541,"rays":12542,"ĠÎ":12543,"amines":12544,"ĠLuck":12545,"ĠPopular":12546,"Ġconservative":12547,"PN":12548,"clicking":12549,"Ġwavy":12550,"leg":12551,"Ġbrittle":12552,"Ġwildlife":12553,"ĠDesign":12554,"Ġcoupon":12555,"Ġfungus":12556,"39":12557,"Edit":12558,"hole":12559,"Ġmodest":12560,"Ġalcoholic":12561,"Ġturmeric":12562,"Ġadopted":12563,"Ġdevote":12564,"Ġendorphins":12565,"RI":12566,"oty":12567,"Ġadren":12568,"opath":12569,"Ġsandals":12570,"Ġengagement":12571,"Ġrestricted":12572,"omnia":12573,"Ġcompartment":12574,"Ġwinner":12575,"Ġdrained":12576,"Ġintimidating":12577,"Ġvibrant":12578,"Up":12579,"advant":12580,"Ġsofa":12581,"Ġlovely":12582,"Ġemphasis":12583,"Ġhen":12584,"estone":12585,"estones":12586,"ĠPsych":12587,"Ġcombining":12588,"upuncture":12589,"((":12590,"Pay":12591,"facing":12592,"Ġshifting":12593,"Ġweld":12594,"Ġwatermelon":12595,"Ġaccommodations":12596,"ĠRequest":12597,"Ġchapters":12598,"Ġmastered":12599,"Ġlymph":12600,"Ġtee":12601,"Ġreadings":12602,"Ġplanet":12603,"Ġraises":12604,"}}\\":12605,"ĠEuropean":12606,"Ġcasser":12607,"LO":12608,"TA":12609,"ĠFour":12610,"Ġflaps":12611,"Ġroads":12612,"Ġcondens":12613,"ĠApplication":12614,"Ġtraditionally":12615,"Log":12616,"grounds":12617,"}=":12618,"ĠIll":12619,"ĠBad":12620,"ĠEaster":12621,"Ġdripping":12622,"Ġcopied":12623,"Ġmagnifying":12624,"Ġpeanuts":12625,"Ġroasted":12626,"Ġproportion":12627,"Ġritual":12628,"giving":12629,"Ġ($":12630,"Ġque":12631,"Ġpersons":12632,"Ġrecre":12633,"Ġformulated":12634,"Ġdryness":12635,"Ġparental":12636,"Ġsolvent":12637,"ĠShould":12638,"ffeinated":12639,"ĠMedia":12640,"Ġreservoir":12641,"Ġsophisticated":12642,"PD":12643,"star":12644,"ĠDI":12645,"Ġblues":12646,"Ġbelieved":12647,"Ġshutter":12648,"Ġpollen":12649,"Ġquotation":12650,"inges":12651,"feed":12652,"Ġregistry":12653,"Ġseizures":12654,"Ġsubsequent":12655,"She":12656,"Ġlately":12657,"Ġneur":12658,"Ġsparing":12659,"cknow":12660,"Ġfiller":12661,"ĠPeel":12662,"Ġpasswords":12663,"Ġexpressed":12664,"Ġtreadmill":12665,"Ġmantra":12666,"Ġintellectual":12667,"iences":12668,"Ġreboot":12669,"Ġsting":12670,"ĠBro":12671,"Ġcarries":12672,"Ġprovision":12673,"Ġsalty":12674,"Ġsubstrate":12675,"Ġfunctional":12676,"Ġembed":12677,"Ġmoderation":12678,"Ġbullied":12679,"ĠStretch":12680,"ĠEducation":12681,"EG":12682,"mental":12683,"ĠLocal":12684,"Ġtwelve":12685,"Ġsecuring":12686,"Ġminds":12687,"headed":12688,"Ġarguing":12689,"Ġsummons":12690,"Ġcigarettes":12691,"ĠLinkedIn":12692,"Ġformats":12693,"Ġbanking":12694,"Ġretailer":12695,"Ġvomit":12696,"ĠYellow":12697,"some":12698,"Ġcane":12699,"Ġsuffered":12700,"Ġramp":12701,"ĠJack":12702,"uccess":12703,"Ġfumes":12704,"ĠSure":12705,"Ġcoaches":12706,"Ġcontem":12707,"Ġroy":12708,"weed":12709,"Ġdealt":12710,"Ġrais":12711,"Ġcalculating":12712,"Ġmirrors":12713,"ĠNetflix":12714,"Ġinnoc":12715,"pical":12716,"uzzle":12717,"Ġwasting":12718,"Ġlon":12719,"Ġlen":12720,"Ġrevenue":12721,"ongs":12722,"Ġapparent":12723,"ĠProcess":12724,"obody":12725,"ĠYear":12726,"Ġtargeted":12727,"Ġpoisoning":12728,"Ġtropical":12729,"Using":12730,"ondition":12731,"Ġcares":12732,"Ġencouraged":12733,"Ġsuperior":12734,"ĠNews":12735,"Ġvest":12736,"Ġquail":12737,"Ġmelting":12738,"ĠReport":12739,"Ġaccredited":12740,"gon":12741,"inj":12742,"Ġboun":12743,"Ġdies":12744,"Ġgaze":12745,"uty":12746,"avings":12747,"Ġroasting":12748,"Ġskins":12749,"Ġarray":12750,"Ġdispens":12751,"presso":12752,"Ġwines":12753,"Ġumbre":12754,"ĠCoc":12755,"ults":12756,"Ġcomma":12757,"Ġgelatin":12758,"Ġnicotine":12759,"RA":12760,"bones":12761,"Ġcycling":12762,"Ġcarb":12763,"Ġsensations":12764,"Ġmoral":12765,"Ġrandomly":12766,"Ġsucc":12767,"Ġhomeown":12768,"Ġdepr":12769,"ĠDelete":12770,"Ġvolunt":12771,"Ġchatting":12772,"Ġscraps":12773,"Ġspells":12774,"got":12775,"lux":12776,"Ġracing":12777,"ĠOur":12778,"Ġmonster":12779,"Ġsaline":12780,"shield":12781,"Ġcomplaining":12782,"Ġbrakes":12783,"Ġannoyed":12784,"Ġstructured":12785,"Ġtails":12786,"Ġshin":12787,"ilitate":12788,"Ġspont":12789,"Ġdefender":12790,"Ġpiping":12791,"Ġultrasound":12792,"bag":12793,"sey":12794,"Ġbecame":12795,"Ġowned":12796,"iolet":12797,"asket":12798,"Ġantis":12799,"Ġfiguring":12800,"Ġmasking":12801,"Ġsausage":12802,"rown":12803,"Ġtens":12804,"Ġgains":12805,"ĠWestern":12806,"ĠUber":12807,"heses":12808,"Ġaccessory":12809,"Ġantivir":12810,"Ġtrainers":12811,"Ġforgiveness":12812,"Ġsnugly":12813,"85":12814,"bro":12815,"Ġnour":12816,"rength":12817,"Ġcorre":12818,"Ġwarming":12819,"Ġhorn":12820,"Ġarranged":12821,"Ġsemester":12822,"Ġstylist":12823,"ĠFurthermore":12824,"Ġsubmerged":12825,"itated":12826,"ircle":12827,"umper":12828,"Ġvoid":12829,"izable":12830,"ĠRad":12831,"Ġsuffice":12832,"ĠIncre":12833,"fo":12834,"van":12835,"Ġmine":12836,"Ġeager":12837,"Ġspacing":12838,"Ġfoll":12839,"Ġskipping":12840,"Ġappeals":12841,"arrow":12842,"Ġprobate":12843,"Ġconsumers":12844,"Ġdenied":12845,"Ġalignment":12846,"Ġbenz":12847,"66":12848,"ON":12849,"ktop":12850,"engers":12851,"olving":12852,"Ġexposing":12853,"Ġsunflower":12854,"Ġmodified":12855,"Ġtermination":12856,"Ġpigment":12857,"Ġclimates":12858,"Ġclinics":12859,"Ġnapkin":12860,"Ġdiluted":12861,"rator":12862,"}\\":12863,"ref":12864,"Ġoct":12865,"Ġnoticing":12866,"Ġjudging":12867,"Ġtorrent":12868,"Ġbroadcast":12869,"Ġbesides":12870,"Ġcrawl":12871,"Ġpunctuation":12872,"cro":12873,"lass":12874,"Ġtriple":12875,"Ġgrinder":12876,"Ġthreatened":12877,"Ġtanning":12878,"ho":12879,"Ġgren":12880,"olored":12881,"Ġpopping":12882,"ĠLeaving":12883,"Ġextends":12884,"Ġestablishing":12885,"Ġpenetrate":12886,"Ġdiced":12887,"ĠFiles":12888,"ĠBal":12889,"Ġrelation":12890,"ĠChart":12891,"son":12892,"Ġhinge":12893,"ige":12894,"Ġ72":12895,"Ġbonding":12896,"ĠAccordingly":12897,"Ġstaples":12898,"Ġtidy":12899,"Ġwander":12900,"ayenne":12901,"Ġrou":12902,"ĠWall":12903,"Ġquiz":12904,"Ġrollers":12905,"ĠSpace":12906,"Ġdiagonally":12907,"Įĺ":12908,"nea":12909,"Ġconsiderably":12910,".\";":12911,"Ġ55":12912,"Ġpracticed":12913,"Ġillusion":12914,"Ġperceived":12915,"called":12916,"bate":12917,"laws":12918,"Ġlake":12919,"Ġcharger":12920,"Ġbarking":12921,"Ġsuffici":12922,"ĠIncorpor":12923,"ĠIncrease":12924,"Ġcheapest":12925,"job":12926,"Ġphen":12927,"ĠOcc":12928,"Ġadopting":12929,"Ġrevealing":12930,"Ġfantasy":12931,"</":12932,"ogram":12933,"Ġarbitration":12934,"ĠWed":12935,"ĠLie":12936,"Ġcleared":12937,"Ġcontinued":12938,"ika":12939,"Ġtranslucent":12940,"sect":12941,"Ġenzym":12942,"closure":12943,"Ġfatal":12944,"ategory":12945,"ĠRunning":12946,"finger":12947,"Ġtighter":12948,"Ġlure":12949,"illas":12950,"Ġuphol":12951,"Ġslipper":12952,"Ġlongest":12953,"Ġsheep":12954,"alsa":12955,"Ġloaf":12956,"ĠExcess":12957,"claim":12958,"Ġtrustee":12959,")*":12960,"Spe":12961,"uitive":12962,"Ġsaves":12963,"Ġattire":12964,"Ġtestosterone":12965,"ĠAnimal":12966,"Ġmathemat":12967,"Ġdipl":12968,"Ġulcers":12969,"!).":12970,"eye":12971,"onia":12972,"icoster":12973,"Ġabused":12974,"ĠCreating":12975,"ĠThank":12976,"Ġestrogen":12977,"Ġguardians":12978,"Ġboredom":12979,"Ġgerb":12980,"when":12981,"otonin":12982,"tones":12983,"Ġcalves":12984,"Ġdrawings":12985,"Ġzones":12986,"ĠMassage":12987,"Put":12988,"nda":12989,"arger":12990,"ĠSeveral":12991,"Ġespresso":12992,"Ġshortly":12993,"Ġpolished":12994,"ĠHeart":12995,"Install":12996,"ĠPreferences":12997,"Ġticks":12998,"Ġbiological":12999,"Ġsneak":13000,"Ġwisdom":13001,"ĠMultiply":13002,"Ġclutch":13003,"Ġdesperate":13004,"ĠAlong":13005,"Ġinvisible":13006,"Ġaffidavit":13007,"ĠSpecific":13008,"Ġeligibility":13009,"Ġgravy":13010,"Reg":13011,"Ġcows":13012,"oops":13013,"Ġshowers":13014,"Ġobesity":13015,"Ġcaf":13016,"pril":13017,"Ġimprovements":13018,"ĠWeight":13019,"Ġadministration":13020,"Ġtimely":13021,"Ġgrated":13022,"Ġlifetime":13023,"ĠSharing":13024,"Ġfasten":13025,"Ġbreeders":13026,"Ġrevise":13027,"Ġhazardous":13028,"hire":13029,"Ġrevers":13030,"ĠBest":13031,"ateral":13032,"Ġinterval":13033,"Ġirre":13034,"Ġgenital":13035,"Ġinquire":13036,"Ġcitizenship":13037,"ĠHopefully":13038,"Ġmerc":13039,"ano":13040,"ĠIM":13041,"ievers":13042,"Ġoverboard":13043,"ĠLo":13044,"Ġsweets":13045,"ĠApplying":13046,"Ġuploaded":13047,"Ġalk":13048,"Ġdisadvant":13049,"Ġqueen":13050,"Ġaccountant":13051,"Ġinfants":13052,"Ġgroceries":13053,"Ġoregano":13054,"180":13055,"aver":13056,"imm":13057,"luded":13058,"Ġguards":13059,"Ġrunner":13060,"Ġretreat":13061,"Ġpoles":13062,"ĠMeet":13063,"ĠFollowing":13064,"Ġtunnel":13065,"rolog":13066,"ĠMoving":13067,"ĠSeparate":13068,"Ġris":13069,"ĠCast":13070,"protect":13071,"Ġcalculations":13072,"Ġhonesty":13073,"ĠSkin":13074,"Ġsettled":13075,"adian":13076,"ovels":13077,"Ġapplicator":13078,"Ġurinary":13079,"Ġmotherboard":13080,"Ġalbums":13081,"âĢ¦âĢĿ":13082,"Ġbouquet":13083,"Ġoffset":13084,"gets":13085,"Ġballet":13086,"Ġsunburn":13087,"oked":13088,"Ġpronunciation":13089,"Ġcrabs":13090,"Ġbroom":13091,"ulture":13092,"Ġminced":13093,"Ġreprodu":13094,"Ġspecifications":13095,"Ġgenres":13096,"Ġsufficiently":13097,"tor":13098,"ĠCool":13099,"Ġvamp":13100,"ipher":13101,"ĠRout":13102,"Ġapprent":13103,"Ġflows":13104,"ractor":13105,"Ġreacts":13106,"ĠMessenger":13107,"tip":13108,"Ġanemia":13109,"Ġrugs":13110,"ĠBureau":13111,"ĠExamine":13112,"Ġcontinually":13113,"Ġsensory":13114,"Ġstrengthening":13115,"personal":13116,"Ġobstacle":13117,"Ġsheriff":13118,"drop":13119,"Ġrests":13120,"Ġleftovers":13121,"Ġhormonal":13122,"Ġincreasingly":13123,"Ġtactic":13124,"Ġlinger":13125,"Ġreuse":13126,"Ġpresenting":13127,"Ġauthorized":13128,"Ġuncons":13129,"Ġsweaters":13130,"Ġbegan":13131,"pelling":13132,"Ġprecious":13133,"ĠQue":13134,"Ġsealer":13135,"Ġvictims":13136,"Ġfondant":13137,"ulent":13138,"ĠPO":13139,"Ġbricks":13140,"Ġbless":13141,"ĠNight":13142,"Ġbetray":13143,"Ġdetox":13144,"Ġprominent":13145,"ĠNeed":13146,"Ġdecreasing":13147,"Ġstabilize":13148,"Ġdisappointed":13149,"ĠNavigate":13150,"Ġwithhold":13151,"ĠSpl":13152,"ulators":13153,"olves":13154,"Ġexpiration":13155,"Ġequations":13156,"Ġexplained":13157,"Depending":13158,"Ġfavors":13159,"written":13160,"ĠWashington":13161,"ĠLord":13162,"ĠLibrary":13163,"Ġamend":13164,"Ġenters":13165,"valuate":13166,"Show":13167,"Ġconverted":13168,"Ġpilot":13169,"Ġfreshen":13170,"resistant":13171,"astically":13172,"Ġpeeled":13173,"Ġpulls":13174,"Ġanimation":13175,"Ġrepresentation":13176,"Ġfixing":13177,"Ġeczema":13178,"Allow":13179,"asts":13180,"avior":13181,"Ġcomply":13182,"Ġputty":13183,"Ġlotions":13184,"Ġsweats":13185,"note":13186,"ĠCommission":13187,"Ġconsultant":13188,"Ġfulfilling":13189,"game":13190,"Ġacute":13191,"Ġdesert":13192,"Ġpackaged":13193,"umblr":13194,"Ġferret":13195,"Continue":13196,"Ġmandatory":13197,"EM":13198,"Ġcages":13199,"email":13200,"Ġuninstall":13201,"Ġdriven":13202,"Ġsymmet":13203,"Ġpairing":13204,"Ġweaker":13205,"Ġimpressive":13206,"Ġcooper":13207,"calorie":13208,"Ġpelvic":13209,"xic":13210,"Ġbaths":13211,"Ġrefrigerate":13212,"Ġtranslate":13213,"Ġfracture":13214,"Ġpharmacies":13215,"67":13216,"Ġupgr":13217,"reeze":13218,"Ġplanks":13219,"Ġantique":13220,"Ġtrait":13221,"ulsive":13222,"Ġattributes":13223,"Ġinaccur":13224,"ĠBrowse":13225,"reatening":13226,"ĠDrain":13227,"Ġhurry":13228,"Tell":13229,"Ġtoen":13230,"oths":13231,"crow":13232,"atsApp":13233,"Ġpersonalities":13234,"Ġillustr":13235,"Ġexecute":13236,"fare":13237,"Ġbows":13238,"Ġanten":13239,"ocated":13240,"Ġanytime":13241,"Ġpricing":13242,"Ġimpaired":13243,"Ġslit":13244,"ocket":13245,"Ġspeaks":13246,"Ġnarrative":13247,"Ġincorporating":13248,"Ġacquired":13249,"ĠâĨµ":13250,"Ġvendor":13251,"Ġpruning":13252,"ua":13253,"Ġreel":13254,"Ġadject":13255,"Ġcomposition":13256,"ensitive":13257,"Ġmyth":13258,"Ġmodeling":13259,"guard":13260,"Out":13261,"Ġrecess":13262,"ĠBB":13263,"Ġ99":13264,"Ġundo":13265,"Ġjealousy":13266,"Ġscenarios":13267,")}":13268,"Press":13269,"Ġplumb":13270,"Ġoutlook":13271,"osc":13272,"ometers":13273,"Ġcollabor":13274,"Ġhumidifier":13275,"Ġswallowing":13276,"Ġspoil":13277,"pay":13278,"ĠTerm":13279,"Ġunused":13280,"Ġgrilled":13281,"Ġwaiver":13282,"clip":13283,"Ġsquats":13284,"iotic":13285,"Ġtoddlers":13286,"Ġenclosed":13287,"Ġworksheet":13288,"Ġsparingly":13289,"othed":13290,"Ġliable":13291,"ĠBle":13292,"ĠOh":13293,"pload":13294,"Ġsecrets":13295,"Ġflyers":13296,"Ġcaption":13297,"ĠPrograms":13298,"Ġsap":13299,"ĠTod":13300,"Ġupfront":13301,"Ġnonprofit":13302,"ĠWithin":13303,"Ġreferrals":13304,"Ġarchite":13305,"Ġtampon":13306,"Ġlingering":13307,"Off":13308,"Ġleague":13309,"Ġhass":13310,"Ġdaytime":13311,"ĠResp":13312,"Ġwebpage":13313,"balanced":13314,"Ġengineering":13315,"Ġowed":13316,"Ġconventional":13317,"Name":13318,"Ġstroll":13319,"Ġneu":13320,"Ġcontag":13321,"Ġwhoever":13322,"orship":13323,"ĠSeal":13324,"untu":13325,"Ġbreads":13326,"Ġfertility":13327,"ĠDMV":13328,"Ġft":13329,"Ġrises":13330,"ĠMuch":13331,"Ġpeg":13332,"Ġintervention":13333,"Ġcools":13334,"Ġapprove":13335,"Ġpimple":13336,"Ġperceive":13337,"bi":13338,"Ġadap":13339,"ĠAdobe":13340,"Ġproposed":13341,"Ġrational":13342,"ection":13343,"ĠWhole":13344,"Ġvein":13345,"lights":13346,"Ġprioritize":13347,"Ġoxid":13348,"eptic":13349,"ilantro":13350,"alistic":13351,"Ġcompressed":13352,"Ġinsist":13353,"ĠKit":13354,"Ġincrements":13355,"Ġverse":13356,"Ġpromptly":13357,"Ġbelongings":13358,"Ġlandscape":13359,"Me":13360,"worth":13361,"Ġporn":13362,"imental":13363,"Ġflick":13364,"hesia":13365,"Ġbuzz":13366,"roph":13367,"ĠPrior":13368,"Ġiod":13369,"ĠDJ":13370,"Ġclasp":13371,"Ġvalued":13372,"Ġassuming":13373,"Ġmystery":13374,"ĠIsland":13375,"Ġvenues":13376,"ĠHistory":13377,"Us":13378,"opping":13379,"Ġfonts":13380,"Ġstaining":13381,"root":13382,"Ġspit":13383,"Ġgoat":13384,"Ġtourist":13385,"ĠYoga":13386,"Ġpediatrician":13387,"Ġlig":13388,"Ġflaw":13389,"Ġcondom":13390,"retion":13391,"Ġmusicians":13392,"Ġaccumulate":13393,"08":13394,"Ġwarts":13395,"Ġparr":13396,"aligned":13397,"Ġnude":13398,"ĠAcknow":13399,"Ġundergraduate":13400,"Ġentity":13401,"Ġviewers":13402,"letter":13403,"125":13404,"ĠSmoking":13405,"icylic":13406,"oriented":13407,"Ġfel":13408,"Ġsuicidal":13409,"Ġalien":13410,"Ġpee":13411,"Ġample":13412,"ĠVar":13413,"Ġtower":13414,"Ġstreaming":13415,"ĠHDMI":13416,"People":13417,"och":13418,"xiety":13419,"Ġpouch":13420,"allows":13421,"Ġnotices":13422,"Ġstrikes":13423,"Ġpersonalized":13424,"Ġslowing":13425,"Ġadjustable":13426,"Ġtenants":13427,"Ġsuede":13428,"PI":13429,"la":13430,"Ġfired":13431,"ĠSymptoms":13432,"Ġblouse":13433,"âĪĹ":13434,"Acc":13435,"à¤":13436,"ĠMarch":13437,"Ġdownwards":13438,"ometry":13439,"Ġlocking":13440,"Ġcamps":13441,"Ġabsorption":13442,"Ġrods":13443,"Ġtant":13444,"ĠApril":13445,"ĠWalking":13446,"Ġjazz":13447,"Ġspike":13448,"Ġenamel":13449,"ĠWhatsApp":13450,"Ġshorten":13451,"Ġfacilitate":13452,"Ġtriggered":13453,"ĠZe":13454,"Ġprinciples":13455,"Ġtaut":13456,"Ġprocrast":13457,"ĠHawai":13458,"ĠRose":13459,"Ġbroke":13460,"Ġworthwhile":13461,"Ġpaths":13462,"Ġdrafting":13463,"Ġcompensate":13464,"lied":13465,"Ġcasing":13466,"Ġlatch":13467,"ifiers":13468,"Ġdrizzle":13469,"ĠBull":13470,"ago":13471,"ĠEv":13472,"ĠGen":13473,"Ġreflux":13474,"Ġpopularity":13475,"Ġnavy":13476,"Ġpremature":13477,"Ġraces":13478,"ĠMal":13479,"iper":13480,"Ġenables":13481,"Ġglued":13482,"Ġpaycheck":13483,"Ġabsence":13484,"Ġacetone":13485,"ĠSpirit":13486,"Ġbom":13487,"orse":13488,"Ġlou":13489,"Ġlaces":13490,"Ġnaked":13491,"Ġnotch":13492,"Ġcardstock":13493,"hyl":13494,"Ġbleaching":13495,"ĠUnderstanding":13496,"Ġashamed":13497,"ĠLGBT":13498,"make":13499,"orize":13500,"Ġnick":13501,"ĠTH":13502,"amas":13503,"ĠDam":13504,"ĠĠĠĠčĊ":13505,"Ġguided":13506,"Ġlimb":13507,"ucaly":13508,"Ġreplen":13509,"Ġpuzzles":13510,"Ġrepetitive":13511,"Ġrestraining":13512,"ucalypt":13513,"Ġtro":13514,"Ġell":13515,"Ġleaking":13516,"ĠFound":13517,"ventil":13518,"ontin":13519,"Ġlan":13520,"Ġrebuild":13521,"Ġ(-":13522,"Ġremovable":13523,"frame":13524,"ĠSims":13525,"Ġrecognition":13526,"ĠIndivid":13527,"Ġhopes":13528,"Ġpermitted":13529,"Ġthousand":13530,"DS":13531,"Follow":13532,"Ġworthy":13533,"ĠImpro":13534,"roidism":13535,"esame":13536,"Ġdunge":13537,"ixed":13538,"Ġdiverse":13539,"Ġtraumatic":13540,"Ġfantastic":13541,"Ġphilosophy":13542,"ĠGradually":13543,"Ġhatch":13544,"ĠWas":13545,"Ġfeeder":13546,"Ġzig":13547,"ustrial":13548,"Ġofficials":13549,"Ġshimmer":13550,"Rec":13551,"Ġsque":13552,"opard":13553,"Ġstatute":13554,"Ġtortilla":13555,"Ġpractitioner":13556,"Ġ(.":13557,"Ġtech":13558,"Ġzest":13559,"ĠIndia":13560,"soriasis":13561,"Ġwisely":13562,"string":13563,"roke":13564,"cending":13565,"ĠClicking":13566,"ĠMic":13567,"Ġwraps":13568,"ĠChina":13569,"Ġmanners":13570,"Ġdirectors":13571,"Ġdefenses":13572,"Ġtradition":13573,"Ġmounted":13574,"Ġmultiplying":13575,"Ġpredators":13576,"Ġcomedy":13577,"Ġembroider":13578,"after":13579,"start":13580,"ĠBaby":13581,"Ġpersist":13582,"ansion":13583,"Ġdrains":13584,"Ġcommer":13585,"Ġsnaps":13586,"Ġobserving":13587,"Ġexhausted":13588,"Ġgiant":13589,"stones":13590,"Ġnotified":13591,"Ġoverse":13592,"ignment":13593,"ĠNobody":13594,"Ġdecides":13595,"Ġpassengers":13596,"Ġaircraft":13597,"ungal":13598,"ĠAuto":13599,"Ġavocados":13600,"Ġwiggle":13601,"ucalyptus":13602,"Any":13603,"cle":13604,"oni":13605,"Ġrept":13606,"ĠTuck":13607,"keys":13608,"abling":13609,"ĠPur":13610,"Ġchef":13611,"Ġinsomnia":13612,"athon":13613,"issions":13614,"Ġcommitting":13615,"Ġpsychiatrist":13616,"Ġproceedings":13617,"Ġpronounce":13618,"Ġoccupied":13619,"pic":13620,"Ġsocially":13621,"ĠBur":13622,"Ġpassions":13623,"Ġairlines":13624,"Ġpicks":13625,"Ġfamiliarize":13626,"Ġkettle":13627,"Ġmous":13628,"Ġoutgoing":13629,"ĠPron":13630,"Ġdiagram":13631,"Ġsteaming":13632,"Ġresentment":13633,"Ġsupermarket":13634,"heating":13635,"Ġteaches":13636,"Ġscarring":13637,"Ġbackst":13638,"Ġrestroom":13639,"Ġbandages":13640,"Ġvigorous":13641,"ĠATM":13642,"onnaise":13643,"ĠAnswer":13644,"Ġwest":13645,"Ġlacking":13646,"Ġnu":13647,"Ġrake":13648,"Ġdistant":13649,"Ġseparating":13650,"Ġratings":13651,"Ġpsychology":13652,"TSD":13653,"ĠJanuary":13654,"Ġinher":13655,"ĠTarget":13656,"usively":13657,"Ġvents":13658,"ĠNut":13659,"prints":13660,"Ġrespective":13661,"sticks":13662,"Ġrectangles":13663,"Ġcoordination":13664,"Ġcartridge":13665,".{\\":13666,"Call":13667,"filled":13668,"Ġmason":13669,"ĠPub":13670,"Ġdescript":13671,"ostic":13672,"depending":13673,"herent":13674,"Ġsights":13675,"Ġlinen":13676,"Ġmartial":13677,"Ġdisputes":13678,"Ġfool":13679,"Ġexch":13680,"ĠCost":13681,"Ġworm":13682,"ĠLED":13683,"Ġimpressed":13684,"Ġserotonin":13685,"Ġmyster":13686,"Ġsounding":13687,"ycled":13688,"Ġvoices":13689,"Ġboiler":13690,"Ġindependence":13691,"iasm":13692,"Ġstereo":13693,"Ġpumps":13694,"Ġperspectives":13695,"Ġyolks":13696,"Sometimes":13697,"liness":13698,"Ġfixtures":13699,"Ġlamb":13700,"Ġate":13701,"ciple":13702,"Ġattacker":13703,"Ġacetaminophen":13704,"Ġfoliage":13705,"Ġcavity":13706,"600":13707,"Ġisolate":13708,"amble":13709,"ĠGames":13710,"Ġinitiative":13711,"cooked":13712,"sk":13713,"Ġincl":13714,"ĠLock":13715,"Ġconson":13716,"ĠJune":13717,"Ġnighttime":13718,"Ġaccepts":13719,"umbling":13720,"ĠMoreover":13721,"Jo":13722,"Sim":13723,"Ġoste":13724,"Ġbik":13725,"Ġfoul":13726,"ĠThanks":13727,"ĠHas":13728,"ĠChanging":13729,"ancial":13730,"Ġwindshield":13731,"Ġresidency":13732,"Ġcroche":13733,"ĠPhoto":13734,"Ġathlete":13735,"Cut":13736,"cings":13737,"mar":13738,"suit":13739,"erning":13740,"orthern":13741,"ĠDNA":13742,"Ġhomeless":13743,"Ġlaun":13744,"Ġmolds":13745,"Ġtoug":13746,"Ġrepayment":13747,"Ġgown":13748,"qual":13749,"Ġregional":13750,"Ġcaterpill":13751,"Ġhighlighter":13752,"Every":13753,"Ġfringe":13754,"gend":13755,"Ġsolar":13756,"Ġ800":13757,"Ġpaddle":13758,"Ġmerchant":13759,"\";":13760,"Ġnasty":13761,"ĠIT":13762,"Ġrated":13763,"Ġgluing":13764,"Ġcareers":13765,"ĠCompl":13766,"Ġliquor":13767,"ĠDespite":13768,"Ġwrest":13769,"Ġplatter":13770,"Ġjot":13771,"think":13772,"Ġpetting":13773,"Ġbrighten":13774,"ĠSigns":13775,"Ġdesserts":13776,"Ġreassure":13777,"iol":13778,"Ġgrinding":13779,"neum":13780,"ĠRelease":13781,"ĠRemoving":13782,"month":13783,"ĠProject":13784,"Ġexplains":13785,"Â½":13786,"Ġ00":13787,"ĠSound":13788,"Ġpropr":13789,"ĠLittle":13790,"Ġblunt":13791,"mediately":13792,"ĠBlock":13793,"Ġintentionally":13794,"Point":13795,"Write":13796,"esan":13797,"Ġlamin":13798,"ĠMc":13799,"threatening":13800,"second":13801,"Ġcherries":13802,"ĠMexico":13803,"Ġcontagious":13804,"rec":13805,"ĠWild":13806,"ĠPy":13807,"Ġwors":13808,"ĠGPS":13809,"Ġcurry":13810,"Ġbehavi":13811,"tti":13812,"Ġfireplace":13813,"bars":13814,"Ġsubmerge":13815,"Ġyearly":13816,"Ġsoftly":13817,"anguage":13818,"Ġreinfor":13819,"ĠAdvanced":13820,"imer":13821,"Ġvowel":13822,"Ġdiscovered":13823,"Ġconsiderable":13824,"urtles":13825,"Ġmaintained":13826,"Ġgrabbing":13827,"Ġindependently":13828,"Ġrecovering":13829,"Ġpromoting":13830,"Ġcloudy":13831,"Ġtolerance":13832,"Ġdisinfectant":13833,"Ġspectrum":13834,"ighters":13835,"Ġprostate":13836,"Ġsomehow":13837,"Ġclassy":13838,"Ġretention":13839,"Ġprevention":13840,"fiction":13841,"hum":13842,"unicip":13843,"ĠBank":13844,"Ġrealizing":13845,"Ġbulky":13846,"Ġreceptive":13847,"ĠRotate":13848,"Ġstakes":13849,"Ġclaws":13850,"ĠLatin":13851,"Ġcutters":13852,"ĠCarry":13853,"Ġrinsed":13854,"Only":13855,"Ġaisle":13856,"rust":13857,"supp":13858,"there":13859,"Ġoak":13860,"Ġtoll":13861,"Ġlumber":13862,"ĠSugar":13863,"ĠStraight":13864,"ĠAside":13865,"meg":13866,"ĠExchange":13867,"Ġkicks":13868,"Ġsleek":13869,"Ġscarves":13870,"Ġcruise":13871,"Ġbronzer":13872,"Ġcramping":13873,"Form":13874,"Ġcilantro":13875,"Ġtoggle":13876,"itative":13877,"Ġbegun":13878,"ĠSide":13879,"ĠScience":13880,"Ġclan":13881,"Ġtearing":13882,"welling":13883,"flies":13884,"Ġelection":13885,"Ġbalancing":13886,"Ġbroch":13887,"orns":13888,"Ġresidents":13889,"Ġathletes":13890,"ĠLabel":13891,"Ġcayenne":13892,"isl":13893,"isol":13894,"Ġorch":13895,"ĠSalt":13896,"ĠCivil":13897,"ĠPM":13898,"oped":13899,"Ġuntreated":13900,"Ġlifted":13901,"ÂłĠ":13902,"Ġparentheses":13903,"Ġstraightening":13904,"Ġheartbeat":13905,"ĠAnyone":13906,"Ġglobal":13907,"Ġbeam":13908,"angling":13909,"Ġfactual":13910,"Ġhosts":13911,"Ġeconomic":13912,"Ġmango":13913,"Copy":13914,"Ġhints":13915,"Ġseating":13916,"Ġlemons":13917,"Ġanybody":13918,"Ġactor":13919,"Ġ31":13920,"Ġclassical":13921,"Ġcentre":13922,"obia":13923,"Ġgoldfish":13924,"Ġreciproc":13925,
[...]
